{
  "version": "1.0",
  "truncation": null,
  "padding": null,
  "added_tokens": [
    {
      "id": 0,
      "content": "<s>",
      "single_word": false,
      "lstrip": false,
      "rstrip": false,
      "normalized": false,
      "special": true
    },
    {
      "id": 1,
      "content": "<pad>",
      "single_word": false,
      "lstrip": false,
      "rstrip": false,
      "normalized": false,
      "special": true
    },
    {
      "id": 2,
      "content": "</s>",
      "single_word": false,
      "lstrip": false,
      "rstrip": false,
      "normalized": false,
      "special": true
    },
    {
      "id": 3,
      "content": "<unk>",
      "single_word": false,
      "lstrip": false,
      "rstrip": false,
      "normalized": false,
      "special": true
    },
    {
      "id": 4,
      "content": "<mask>",
      "single_word": false,
      "lstrip": false,
      "rstrip": false,
      "normalized": false,
      "special": true
    }
  ],
  "normalizer": null,
  "pre_tokenizer": {
    "type": "ByteLevel",
    "add_prefix_space": false,
    "trim_offsets": true,
    "use_regex": true
  },
  "post_processor": {
    "type": "ByteLevel",
    "add_prefix_space": true,
    "trim_offsets": false,
    "use_regex": true
  },
  "decoder": {
    "type": "ByteLevel",
    "add_prefix_space": true,
    "trim_offsets": true,
    "use_regex": true
  },
  "model": {
    "type": "BPE",
    "dropout": null,
    "unk_token": null,
    "continuing_subword_prefix": null,
    "end_of_word_suffix": null,
    "fuse_unk": false,
    "byte_fallback": false,
    "ignore_merges": false,
    "vocab": {
      "<s>": 0,
      "<pad>": 1,
      "</s>": 2,
      "<unk>": 3,
      "<mask>": 4,
      "!": 5,
      "\"": 6,
      "#": 7,
      "$": 8,
      "%": 9,
      "&": 10,
      "'": 11,
      "(": 12,
      ")": 13,
      "*": 14,
      "+": 15,
      ",": 16,
      "-": 17,
      ".": 18,
      "/": 19,
      "0": 20,
      "1": 21,
      "2": 22,
      "3": 23,
      "4": 24,
      "5": 25,
      "6": 26,
      "7": 27,
      "8": 28,
      "9": 29,
      ":": 30,
      ";": 31,
      "<": 32,
      "=": 33,
      ">": 34,
      "?": 35,
      "@": 36,
      "A": 37,
      "B": 38,
      "C": 39,
      "D": 40,
      "E": 41,
      "F": 42,
      "G": 43,
      "H": 44,
      "I": 45,
      "J": 46,
      "K": 47,
      "L": 48,
      "M": 49,
      "N": 50,
      "O": 51,
      "P": 52,
      "Q": 53,
      "R": 54,
      "S": 55,
      "T": 56,
      "U": 57,
      "V": 58,
      "W": 59,
      "X": 60,
      "Y": 61,
      "Z": 62,
      "[": 63,
      "\\": 64,
      "]": 65,
      "^": 66,
      "_": 67,
      "`": 68,
      "a": 69,
      "b": 70,
      "c": 71,
      "d": 72,
      "e": 73,
      "f": 74,
      "g": 75,
      "h": 76,
      "i": 77,
      "j": 78,
      "k": 79,
      "l": 80,
      "m": 81,
      "n": 82,
      "o": 83,
      "p": 84,
      "q": 85,
      "r": 86,
      "s": 87,
      "t": 88,
      "u": 89,
      "v": 90,
      "w": 91,
      "x": 92,
      "y": 93,
      "z": 94,
      "{": 95,
      "|": 96,
      "}": 97,
      "~": 98,
      "¡": 99,
      "¢": 100,
      "£": 101,
      "¤": 102,
      "¥": 103,
      "¦": 104,
      "§": 105,
      "¨": 106,
      "©": 107,
      "ª": 108,
      "«": 109,
      "¬": 110,
      "®": 111,
      "¯": 112,
      "°": 113,
      "±": 114,
      "²": 115,
      "³": 116,
      "´": 117,
      "µ": 118,
      "¶": 119,
      "·": 120,
      "¸": 121,
      "¹": 122,
      "º": 123,
      "»": 124,
      "¼": 125,
      "½": 126,
      "¾": 127,
      "¿": 128,
      "À": 129,
      "Á": 130,
      "Â": 131,
      "Ã": 132,
      "Ä": 133,
      "Å": 134,
      "Æ": 135,
      "Ç": 136,
      "È": 137,
      "É": 138,
      "Ê": 139,
      "Ë": 140,
      "Ì": 141,
      "Í": 142,
      "Î": 143,
      "Ï": 144,
      "Ð": 145,
      "Ñ": 146,
      "Ò": 147,
      "Ó": 148,
      "Ô": 149,
      "Õ": 150,
      "Ö": 151,
      "×": 152,
      "Ø": 153,
      "Ù": 154,
      "Ú": 155,
      "Û": 156,
      "Ü": 157,
      "Ý": 158,
      "Þ": 159,
      "ß": 160,
      "à": 161,
      "á": 162,
      "â": 163,
      "ã": 164,
      "ä": 165,
      "å": 166,
      "æ": 167,
      "ç": 168,
      "è": 169,
      "é": 170,
      "ê": 171,
      "ë": 172,
      "ì": 173,
      "í": 174,
      "î": 175,
      "ï": 176,
      "ð": 177,
      "ñ": 178,
      "ò": 179,
      "ó": 180,
      "ô": 181,
      "õ": 182,
      "ö": 183,
      "÷": 184,
      "ø": 185,
      "ù": 186,
      "ú": 187,
      "û": 188,
      "ü": 189,
      "ý": 190,
      "þ": 191,
      "ÿ": 192,
      "Ā": 193,
      "ā": 194,
      "Ă": 195,
      "ă": 196,
      "Ą": 197,
      "ą": 198,
      "Ć": 199,
      "ć": 200,
      "Ĉ": 201,
      "ĉ": 202,
      "Ċ": 203,
      "ċ": 204,
      "Č": 205,
      "č": 206,
      "Ď": 207,
      "ď": 208,
      "Đ": 209,
      "đ": 210,
      "Ē": 211,
      "ē": 212,
      "Ĕ": 213,
      "ĕ": 214,
      "Ė": 215,
      "ė": 216,
      "Ę": 217,
      "ę": 218,
      "Ě": 219,
      "ě": 220,
      "Ĝ": 221,
      "ĝ": 222,
      "Ğ": 223,
      "ğ": 224,
      "Ġ": 225,
      "ġ": 226,
      "Ģ": 227,
      "ģ": 228,
      "Ĥ": 229,
      "ĥ": 230,
      "Ħ": 231,
      "ħ": 232,
      "Ĩ": 233,
      "ĩ": 234,
      "Ī": 235,
      "ī": 236,
      "Ĭ": 237,
      "ĭ": 238,
      "Į": 239,
      "į": 240,
      "İ": 241,
      "ı": 242,
      "Ĳ": 243,
      "ĳ": 244,
      "Ĵ": 245,
      "ĵ": 246,
      "Ķ": 247,
      "ķ": 248,
      "ĸ": 249,
      "Ĺ": 250,
      "ĺ": 251,
      "Ļ": 252,
      "ļ": 253,
      "Ľ": 254,
      "ľ": 255,
      "Ŀ": 256,
      "ŀ": 257,
      "Ł": 258,
      "ł": 259,
      "Ń": 260,
      "ï¼": 261,
      "ï¼Į": 262,
      "ä¸": 263,
      "äº": 264,
      "ãĢ": 265,
      "ãĢĤ": 266,
      "âĢ": 267,
      "äºĨ": 268,
      "ä»": 269,
      "åı": 270,
      "å¤": 271,
      "è¿": 272,
      "çļ": 273,
      "è¯": 274,
      "çļĦ": 275,
      "ä¸į": 276,
      "ä¹": 277,
      "å®": 278,
      "ä½": 279,
      "æĿ": 280,
      "ä¸Ģ": 281,
      "æĪ": 282,
      "æĺ": 283,
      "âĢĿ": 284,
      "éģ": 285,
      "ï¼ļ": 286,
      "âĢľ": 287,
      "æĿ¥": 288,
      "ï¼ļâĢľ": 289,
      "éģĵ": 290,
      "åĲ": 291,
      "äºº": 292,
      "æĪĳ": 293,
      "æĺ¯": 294,
      "å°": 295,
      "è¯´": 296,
      "æľ": 297,
      "æĹ": 298,
      "ãĢĤâĢĿ": 299,
      "ä»ĸ": 300,
      "åİ": 301,
      "è¿Ļ": 302,
      "çİ": 303,
      "åŃ": 304,
      "åĩ": 305,
      "ä½ł": 306,
      "å¥": 307,
      "åĽ": 308,
      "å§": 309,
      "å¿": 310,
      "ãĢĢ": 311,
      "æī": 312,
      "å¦": 313,
      "åİ»": 314,
      "Ħ¿": 315,
      "ä¸ª": 316,
      "ä¹Ł": 317,
      "åŃĲ": 318,
      "åĦ¿": 319,
      "çİī": 320,
      "ç¬": 321,
      "è§": 322,
      "åĪ": 323,
      "æľī": 324,
      "èĳ": 325,
      "è´": 326,
      "éĩ": 327,
      "å®Ŀ": 328,
      "èĳĹ": 329,
      "åıĪ": 330,
      "åħ": 331,
      "å¾": 332,
      "èµ": 333,
      "ä»¬": 334,
      "ç¬ĳ": 335,
      "éĹ": 336,
      "ä¾": 337,
      "æŃ": 338,
      "åľ": 339,
      "éĤ": 340,
      "åıª": 341,
      "è´¾": 342,
      "è§ģ": 343,
      "åĳ": 344,
      "éĩĮ": 345,
      "éĤ£": 346,
      "åį": 347,
      "æĢ": 348,
      "çľ": 349,
      "å®Ŀçİī": 350,
      "ä¸Ĭ": 351,
      "åĨ": 352,
      "ä¾¿": 353,
      "å¥½": 354,
      "ä¼": 355,
      "èĩ": 356,
      "æ¯": 357,
      "å®¶": 358,
      "èĢ": 359,
      "åľ¨": 360,
      "å¹": 361,
      "å¤ª": 362,
      "å§Ĳ": 363,
      "ĥ½": 364,
      "å¤§": 365,
      "çĶ": 366,
      "å°±": 367,
      "çŁ": 368,
      "ç»": 369,
      "ç¬ĳéģĵ": 370,
      "å¾Ĺ": 371,
      "åĩº": 372,
      "æĹ¥": 373,
      "åĲ¬": 374,
      "ï¼Ł": 375,
      "å¤´": 376,
      "æĥ": 377,
      "å·": 378,
      "ä¸ĭ": 379,
      "æĸ": 380,
      "ä¹Ī": 381,
      "æĭ": 382,
      "åĽŀ": 383,
      "¦ģ": 384,
      "éĿ": 385,
      "éĥ½": 386,
      "çŁ¥": 387,
      "ä¹ĭ": 388,
      "å¼": 389,
      "æ²": 390,
      "äºĮ": 391,
      "çŃ": 392,
      "åĴ": 393,
      "è¦ģ": 394,
      "å¦Ĥ": 395,
      "ä¸¤": 396,
      "è¿ĩ": 397,
      "äºĭ": 398,
      "è®": 399,
      "åĢ": 400,
      "å¸": 401,
      "æķ": 402,
      "èĩª": 403,
      "ĠĊ": 404,
      "åº": 405,
      "è¿ĺ": 406,
      "æĬ": 407,
      "éĴ": 408,
      "è¯Ŀ": 409,
      "å¿ĥ": 410,
      "æ°": 411,
      "åĽł": 412,
      "å°ı": 413,
      "èĢģ": 414,
      "å¨": 415,
      "çº": 416,
      "èµ·": 417,
      "çľĭ": 418,
      "å¿Ļ": 419,
      "ä»Ĭ": 420,
      "æ¯į": 421,
      "éĢ": 422,
      "èĬ": 423,
      "åĩ¤": 424,
      "æĹ¶": 425,
      "æŀ": 426,
      "ç½": 427,
      "åı¯": 428,
      "æ²¡": 429,
      "éĿ¢": 430,
      "çŃī": 431,
      "æĶ": 432,
      "æł": 433,
      "äºĽ": 434,
      "çĪ": 435,
      "è°": 436,
      "ï¼ģ": 437,
      "éĹ®": 438,
      "çĽ": 439,
      "å¨ĺ": 440,
      "å¥¶": 441,
      "åĩ¤å§Ĳ": 442,
      "åĲĥ": 443,
      "ä¸Ń": 444,
      "æŃ¤": 445,
      "æİ": 446,
      "åı«": 447,
      "ç«": 448,
      "é»": 449,
      "ï¼ŁâĢĿ": 450,
      "çĲ": 451,
      "æĦ": 452,
      "åī": 453,
      "ä»Ģ": 454,
      "å½": 455,
      "è¢": 456,
      "åĪ°": 457,
      "æīį": 458,
      "ä»Ģä¹Ī": 459,
      "åĵ": 460,
      "åĳ¢": 461,
      "è´¾æ¯į": 462,
      "åĬ": 463,
      "ä¸Ģä¸ª": 464,
      "ç®": 465,
      "åĿ": 466,
      "è¾": 467,
      "å¤ªå¤ª": 468,
      "åĢĴ": 469,
      "å¯": 470,
      "èĭ": 471,
      "å¤«": 472,
      "ç½¢": 473,
      "æīĵ": 474,
      "æĹł": 475,
      "çĦ": 476,
      "æĽ": 477,
      "æŃ£": 478,
      "è¡": 479,
      "æĥ³": 480,
      "æł·": 481,
      "åĴĮ": 482,
      "éĽ": 483,
      "æĸ¹": 484,
      "ä½ľ": 485,
      "è·": 486,
      "åĪ«": 487,
      "åĲİ": 488,
      "é»Ľ": 489,
      "é¦": 490,
      "é»Ľçİī": 491,
      "è¿Ľ": 492,
      "Ļ½": 493,
      "éļ": 494,
      "åĨį": 495,
      "æĻ": 496,
      "æģ": 497,
      "çİĭ": 498,
      "ä¹Łä¸į": 499,
      "ä¸ī": 500,
      "åĩł": 501,
      "äºĨä¸Ģ": 502,
      "åįģ": 503,
      "çĦ¶": 504,
      "ç§": 505,
      "ä¸«": 506,
      "å±": 507,
      "å¤ļ": 508,
      "ä¸º": 509,
      "ä½ķ": 510,
      "èº": 511,
      "å¤©": 512,
      "ä¼Ĺ": 513,
      "çĶŁ": 514,
      "æĦı": 515,
      "ä¸İ": 516,
      "åģ": 517,
      "åīį": 518,
      "å§ĳ": 519,
      "éĻ": 520,
      "æĪĳä»¬": 521,
      "å¦¹": 522,
      "åĸ": 523,
      "é¡": 524,
      "å¤«äºº": 525,
      "èĬ±": 526,
      "éĹ¨": 527,
      "å°Ĩ": 528,
      "æīĭ": 529,
      "å·²": 530,
      "è¢Ń": 531,
      "çĪ·": 532,
      "èº«": 533,
      "å¹´": 534,
      "åĳ½": 535,
      "é¸": 536,
      "ä¿": 537,
      "âĢĻ": 538,
      "èĪ": 539,
      "èĦ": 540,
      "æĭ¿": 541,
      "æ°Ķ": 542,
      "èį": 543,
      "âĢĺ": 544,
      "æĮ": 545,
      "å¤ĸ": 546,
      "å£": 547,
      "åĲ¬äºĨ": 548,
      "ä»¥": 549,
      "æĪ¿": 550,
      "èµ°": 551,
      "æ¬": 552,
      "è¢Ńäºº": 553,
      "åİ»äºĨ": 554,
      "æĺ¥": 555,
      "çĥ": 556,
      "ä¸Ķ": 557,
      "éĴĹ": 558,
      "æĺİ": 559,
      "å¤Ħ": 560,
      "æĬĬ": 561,
      "è¶": 562,
      "èĸ": 563,
      "åİŁ": 564,
      "åĿĲ": 565,
      "éħ": 566,
      "è°ģ": 567,
      "èĩ³": 568,
      "ç´": 569,
      "èĭ¥": 570,
      "å®ĿéĴĹ": 571,
      "å§ĳå¨ĺ": 572,
      "çĤ": 573,
      "ç»Ļ": 574,
      "è½": 575,
      "éĤ£éĩĮ": 576,
      "ä½łä»¬": 577,
      "çĶ¨": 578,
      "é¢": 579,
      "é¦Ļ": 580,
      "ä¸ĢéĿ¢": 581,
      "å¦Ĥä»Ĭ": 582,
      "æĤ": 583,
      "æĢİ": 584,
      "ä»ĸä»¬": 585,
      "åħĪ": 586,
      "³åĦ¿": 587,
      "åĩºæĿ¥": 588,
      "åıĳ": 589,
      "é¥": 590,
      "äº²": 591,
      "ç®¡": 592,
      "ä¸«å¤´": 593,
      "çĹ": 594,
      "åĨħ": 595,
      "å©": 596,
      "çı": 597,
      "åĽĽ": 598,
      "ä¸įçŁ¥": 599,
      "èĮ": 600,
      "çŀ": 601,
      "ä¼Ĺäºº": 602,
      "è¯´èĳĹ": 603,
      "èµ·æĿ¥": 604,
      "å¾Ģ": 605,
      "æ³": 606,
      "äºĳ": 607,
      "éĢģ": 608,
      "èĸĽ": 609,
      "ç¥": 610,
      "çī": 611,
      "æīĢ": 612,
      "ä¼ļ": 613,
      "æľĪ": 614,
      "åĪĨ": 615,
      "æŀĹ": 616,
      "è¯·": 617,
      "å§¨": 618,
      "ä¸¤ä¸ª": 619,
      "å¸¦": 620,
      "å¥¶å¥¶": 621,
      "é£": 622,
      "è¾¹": 623,
      "çİĭå¤«äºº": 624,
      "è¿ŀ": 625,
      "å¦Ī": 626,
      "æĿ¥äºĨ": 627,
      "ä½ı": 628,
      "å·±": 629,
      "è¯´éģĵ": 630,
      "ä¸ľ": 631,
      "æ¸": 632,
      "è¥": 633,
      "å½ĵ": 634,
      "ä¸įå¾Ĺ": 635,
      "æ·": 636,
      "ï¼ģâĢĿ": 637,
      "çģ": 638,
      "æĢİä¹Ī": 639,
      "æ¹": 640,
      "éĺ": 641,
      "æľª": 642,
      "æĹ©": 643,
      "èĻ½": 644,
      "è¿ĻéĩĮ": 645,
      "è¥¿": 646,
      "ä»İ": 647,
      "æ´": 648,
      "æĪĲ": 649,
      "èĤ": 650,
      "åĮ": 651,
      "æµ": 652,
      "ä¸įæĺ¯": 653,
      "åı£": 654,
      "è¿Ļä¸ª": 655,
      "æ¹ĺ": 656,
      "èĢģå¤ªå¤ª": 657,
      "çº¢": 658,
      "éĵ": 659,
      "çķ": 660,
      "åĳĬ": 661,
      "çŀ§": 662,
      "åıªè§ģ": 663,
      "èĩªå·±": 664,
      "å¿ħ": 665,
      "åŃĹ": 666,
      "åĶ": 667,
      "ç©": 668,
      "å§¥": 669,
      "å²": 670,
      "éĩĳ": 671,
      "æĢķ": 672,
      "å®¶çļĦ": 673,
      "æĶ¾": 674,
      "èĥ": 675,
      "æ±": 676,
      "å¹³åĦ¿": 677,
      "å£°": 678,
      "æ¡": 679,
      "ç«Ł": 680,
      "åįĬ": 681,
      "çĲı": 682,
      "æĥħ": 683,
      "æŃ»": 684,
      "éļ¾": 685,
      "èĥ½": 686,
      "å°¤": 687,
      "éħĴ": 688,
      "çľ¼": 689,
      "äºĶ": 690,
      "å®ĺ": 691,
      "å¼Ģ": 692,
      "èı": 693,
      "åĲĳ": 694,
      "åľ°": 695,
      "åį´": 696,
      "äºİ": 697,
      "åĸľ": 698,
      "æĿİ": 699,
      "èī": 700,
      "æ°ı": 701,
      "åĩ¤å§ĲåĦ¿": 702,
      "å©Ĩ": 703,
      "çĲĨ": 704,
      "åºĶ": 705,
      "ä½¿": 706,
      "æĪĸ": 707,
      "çŁ¥éģĵ": 708,
      "åĽŃ": 709,
      "çĿ": 710,
      "åĵ¥": 711,
      "è¿Ļæł·": 712,
      "çĤ¹": 713,
      "éĴ±": 714,
      "çľŁ": 715,
      "éķ": 716,
      "åĲĮ": 717,
      "åĲĦ": 718,
      "åĲį": 719,
      "è´¾çĲı": 720,
      "åı¥": 721,
      "å¹¶": 722,
      "æŁ": 723,
      "æ¯Ķ": 724,
      "çĸ": 725,
      "å¥³": 726,
      "æķ¢": 727,
      "èĮ¶": 728,
      "éĵ¶": 729,
      "å®ī": 730,
      "çıį": 731,
      "ä¹¦": 732,
      "æķħ": 733,
      "ä¸ľè¥¿": 734,
      "åĺ": 735,
      "çĻ½": 736,
      "èĢĮ": 737,
      "å§Ĳå§Ĳ": 738,
      "åĴ±": 739,
      "å°ĳ": 740,
      "æı": 741,
      "è·Ł": 742,
      "æį": 743,
      "è§ī": 744,
      "éª": 745,
      "é¬": 746,
      "ä¸įè¿ĩ": 747,
      "ãĢĢãĢĢ": 748,
      "åĴ±ä»¬": 749,
      "çļĨ": 750,
      "é£İ": 751,
      "ç¼": 752,
      "è¯ī": 753,
      "æ¢": 754,
      "è¿ĽæĿ¥": 755,
      "æİ¢": 756,
      "çĻ": 757,
      "è¯¥": 758,
      "æ¹ĺäºĳ": 759,
      "å¤§å®¶": 760,
      "æ»": 761,
      "è¡Į": 762,
      "å°±æĺ¯": 763,
      "éĶ": 764,
      "ç¤": 765,
      "åħ¶": 766,
      "åºľ": 767,
      "æŀľ": 768,
      "çĹħ": 769,
      "æĽ´": 770,
      "å¦ĤæŃ¤": 771,
      "å¿«": 772,
      "åĳĬè¯ī": 773,
      "èİ": 774,
      "å®ļ": 775,
      "äº¦": 776,
      "æĶ¿": 777,
      "ç¢": 778,
      "é¥Ń": 779,
      "ç»Ĩ": 780,
      "å¦ĩ": 781,
      "ç¬¬": 782,
      "éĹ´": 783,
      "å«": 784,
      "ç²": 785,
      "çļĦäºº": 786,
      "æĲ": 787,
      "å¸¸": 788,
      "èĦ¸": 789,
      "è¿ĻäºĽ": 790,
      "è£": 791,
      "è§ģäºĨ": 792,
      "åıªæĺ¯": 793,
      "æĴ": 794,
      "äºĮäºº": 795,
      "èī²": 796,
      "èŁ": 797,
      "åħ¥": 798,
      "åĩºåİ»": 799,
      "çĽ¸": 800,
      "æİ¢æĺ¥": 801,
      "è´¾æĶ¿": 802,
      "è¯Ń": 803,
      "æĹ¢": 804,
      "æ²¡æľī": 805,
      "æĻ´": 806,
      "¨Ģ": 807,
      "åıªå¾Ĺ": 808,
      "è´¾çıį": 809,
      "æ°´": 810,
      "æĤĦ": 811,
      "èĵ": 812,
      "ä¸ĢæĹ¶": 813,
      "å¹²": 814,
      "åª": 815,
      "ä»¶": 816,
      "å¿½": 817,
      "æİ¥": 818,
      "çĿ¡": 819,
      "ç½¢äºĨ": 820,
      "æļ": 821,
      "çĭ": 822,
      "å¤ľ": 823,
      "èĲ": 824,
      "èĢħ": 825,
      "çŃĶ": 826,
      "ä¸»": 827,
      "æĪĳçļĦ": 828,
      "ç»ı": 829,
      "è¡£": 830,
      "å°¤æ°ı": 831,
      "æĳ": 832,
      "æ¬¡": 833,
      "éĽ¯": 834,
      "æĻ´éĽ¯": 835,
      "è¨Ģ": 836,
      "æħ": 837,
      "ç³": 838,
      "å¼ł": 839,
      "çĳ": 840,
      "åıĸ": 841,
      "æĢĿ": 842,
      "ä¸įå¥½": 843,
      "éķ¿": 844,
      "å¬": 845,
      "å®Ŀçİīéģĵ": 846,
      "é¸³": 847,
      "å¬·": 848,
      "è¯´çļĦ": 849,
      "ç¾": 850,
      "éĹ¹": 851,
      "è®¸": 852,
      "éĻ¢": 853,
      "å§¨å¦Ī": 854,
      "å±ĭ": 855,
      "è¯Ĺ": 856,
      "è¶Ĭ": 857,
      "ç¦": 858,
      "æĶ¶": 859,
      "é¸¯": 860,
      "æŀĹé»Ľçİī": 861,
      "å®Į": 862,
      "é¸³é¸¯": 863,
      "ç®Ĺ": 864,
      "ç´ł": 865,
      "å©ĨåŃĲ": 866,
      "èħ": 867,
      "çī©": 868,
      "é©": 869,
      "åª³": 870,
      "èģ": 871,
      "æ¯ı": 872,
      "æĭī": 873,
      "ç¿": 874,
      "åħ´": 875,
      "é¡½": 876,
      "åĲ¬è§ģ": 877,
      "åĵŃ": 878,
      "å¯¹": 879,
      "éľ": 880,
      "è¯´äºĨ": 881,
      "ä¾Ŀ": 882,
      "å²Ĥ": 883,
      "éĵ¶åŃĲ": 884,
      "çª": 885,
      "åĨ·": 886,
      "åĽŀæĿ¥": 887,
      "æīĢä»¥": 888,
      "ä¸ĸ": 889,
      "èĵī": 890,
      "çħ": 891,
      "åĪĻ": 892,
      "çĻ¾": 893,
      "å¼Ł": 894,
      "æī¾": 895,
      "æĿİçº": 896,
      "åĲ¬è¯´": 897,
      "ä¼ļåŃĲ": 898,
      "è§£": 899,
      "ç¤¼": 900,
      "æĽ¾": 901,
      "åª³å¦ĩ": 902,
      "è¿Ļä¸Ģ": 903,
      "äºĨä»ĸ": 904,
      "åģļ": 905,
      "çĳŀ": 906,
      "åĩłä¸ª": 907,
      "ä¹Łæĺ¯": 908,
      "æķ£": 909,
      "è¿ĺæľī": 910,
      "æĻļ": 911,
      "è®©": 912,
      "åĬ¨": 913,
      "åĬĿ": 914,
      "å§¥å§¥": 915,
      "æĿİçº¨": 916,
      "åĳ¨": 917,
      "éĥ½æĺ¯": 918,
      "èŁł": 919,
      "æ¯ķ": 920,
      "å¦Ĥä½ķ": 921,
      "åıªç®¡": 922,
      "èĬ³": 923,
      "æ£": 924,
      "åĪĺ": 925,
      "åħ¬": 926,
      "å§Ĭ": 927,
      "åħĦ": 928,
      "å¦¹å¦¹": 929,
      "èĸĽèŁł": 930,
      "é¹": 931,
      "éĹ²": 932,
      "æĸ°": 933,
      "ä»¤": 934,
      "è¯´è¯Ŀ": 935,
      "è¿Ļè¯Ŀ": 936,
      "ä¹Łæľī": 937,
      "éļı": 938,
      "çĮ": 939,
      "åģı": 940,
      "ä¸įèĥ½": 941,
      "è¿Ļä¹Ī": 942,
      "åºķ": 943,
      "èĪ¬": 944,
      "è±": 945,
      "èĸĽå§¨å¦Ī": 946,
      "çķĻ": 947,
      "ä»ĬæĹ¥": 948,
      "çĪ¶": 949,
      "èı±": 950,
      "é«": 951,
      "ä¸įæķ¢": 952,
      "èĢģçĪ·": 953,
      "æĽ¿": 954,
      "åĨĻ": 955,
      "é¬Ł": 956,
      "åĪĺå§¥å§¥": 957,
      "åħ«": 958,
      "å§Ĭå¦¹": 959,
      "è¿İ": 960,
      "æĺ¯ä¸ª": 961,
      "å°½": 962,
      "ç¥ŀ": 963,
      "æ¸ħ": 964,
      "æľ¬": 965,
      "ä¼¼": 966,
      "èį¯": 967,
      "åıį": 968,
      "ä¸«é¬Ł": 969,
      "éĤ¢": 970,
      "è§ģä»ĸ": 971,
      "å¾ħ": 972,
      "éĨ": 973,
      "éĽ¨": 974,
      "å±±": 975,
      "æ¶": 976,
      "éº": 977,
      "æĢ§": 978,
      "é¢Ĩ": 979,
      "äºĮçĪ·": 980,
      "ä»ĬåĦ¿": 981,
      "æ»¡": 982,
      "èĲ½": 983,
      "æĺ¨": 984,
      "åĲĥäºĨ": 985,
      "ä½Ĩ": 986,
      "åİŁæĿ¥": 987,
      "é½": 988,
      "ä¿¡": 989,
      "åĺ´": 990,
      "éģĤ": 991,
      "å®Ŀçİīç¬ĳéģĵ": 992,
      "ç§ĭ": 993,
      "èį£": 994,
      "é«ĺ": 995,
      "åł": 996,
      "èĩªçĦ¶": 997,
      "åķ": 998,
      "è¿ĳ": 999,
      "ç§¦": 1000,
      "æĪı": 1001,
      "ç´«": 1002,
      "æıĲ": 1003,
      "çĪ±": 1004,
      "ãĢģ": 1005,
      "çļĦäºĭ": 1006,
      "ç©¿": 1007,
      "çĬ": 1008,
      "ä¸įæĪĲ": 1009,
      "è¿Ļä¼ļåŃĲ": 1010,
      "è¿ĩæĿ¥": 1011,
      "å¿µ": 1012,
      "çŃĶåºĶ": 1013,
      "åŃ¦": 1014,
      "åŃ©": 1015,
      "æ³ª": 1016,
      "èĻ": 1017,
      "è¿Ļæĺ¯": 1018,
      "æīĵåıĳ": 1019,
      "å®ŀ": 1020,
      "èµ¶": 1021,
      "è´¾èĵī": 1022,
      "çħ§": 1023,
      "çĥŁ": 1024,
      "æ±Ĥ": 1025,
      "ºåĦ¿": 1026,
      "åŃĿ": 1027,
      "åĨµ": 1028,
      "å¯»": 1029,
      "ãĢĬ": 1030,
      "ãĢĭ": 1031,
      "åİ®": 1032,
      "çŁ³": 1033,
      "æľīä¸Ģ": 1034,
      "å¼Ħ": 1035,
      "ä¹±": 1036,
      "èµı": 1037,
      "å·§": 1038,
      "é¦Ļèı±": 1039,
      "æĢ¥": 1040,
      "éªĤ": 1041,
      "æĿ¥çļĦ": 1042,
      "éĹ»": 1043,
      "é½Ĳ": 1044,
      "åıĬ": 1045,
      "æĸĩ": 1046,
      "é©¬": 1047,
      "æ¦": 1048,
      "å¤ĩ": 1049,
      "æĿ¯": 1050,
      "æĪĳä¹Ł": 1051,
      "éĤ£è¾¹": 1052,
      "è®°": 1053,
      "å§¨å¨ĺ": 1054,
      "å°ıä¸«å¤´": 1055,
      "åı«ä»ĸ": 1056,
      "æĸ¹æīį": 1057,
      "âĢĻï¼Į": 1058,
      "åĪ«äºº": 1059,
      "æĹ§": 1060,
      "æŁ³": 1061,
      "çİ°": 1062,
      "æŃĩ": 1063,
      "åįĥ": 1064,
      "ä¼ł": 1065,
      "çģ¯": 1066,
      "çł": 1067,
      "åı¹": 1068,
      "ä½į": 1069,
      "éĤ¢å¤«äºº": 1070,
      "ä»ĸçļĦ": 1071,
      "å¿ĥä¸Ń": 1072,
      "åı¤": 1073,
      "åľ¨è¿ĻéĩĮ": 1074,
      "ç«Ļ": 1075,
      "éĻª": 1076,
      "æ³ķ": 1077,
      "å±ĭéĩĮ": 1078,
      "ä¸ĬæĿ¥": 1079,
      "çĶ»": 1080,
      "äººæĿ¥": 1081,
      "å¿ĺ": 1082,
      "æ®": 1083,
      "é¦ĸ": 1084,
      "è°ģçŁ¥": 1085,
      "è½»": 1086,
      "ç¥ĸ": 1087,
      "æĿĳ": 1088,
      "æľį": 1089,
      "å¥½äºĨ": 1090,
      "è·¯": 1091,
      "å®¹": 1092,
      "å¥½çļĦ": 1093,
      "å¢": 1094,
      "åĹ": 1095,
      "äººå®¶": 1096,
      "çľģ": 1097,
      "åĴĲ": 1098,
      "æĺİåĦ¿": 1099,
      "è±¡": 1100,
      "å¿ĥéĩĮ": 1101,
      "å½©": 1102,
      "è¿ľ": 1103,
      "ä½łçļĦ": 1104,
      "è®¤": 1105,
      "éĴŁ": 1106,
      "æģĲ": 1107,
      "åĲĪ": 1108,
      "åĪļ": 1109,
      "æ¬¢": 1110,
      "ä»į": 1111,
      "æµģ": 1112,
      "èĹ": 1113,
      "éĩį": 1114,
      "æĢ¨": 1115,
      "éºĿ": 1116,
      "ä¸įåľ¨": 1117,
      "åıĪæľī": 1118,
      "å°ıåİ®": 1119,
      "ä¸ĩ": 1120,
      "åħ¨": 1121,
      "å¸Ń": 1122,
      "ç«ĭ": 1123,
      "èĤ¯": 1124,
      "åĳ¨çĳŀ": 1125,
      "è¢«": 1126,
      "ç´łæĹ¥": 1127,
      "äº¤": 1128,
      "ä¹°": 1129,
      "è¶Ĭåıĳ": 1130,
      "ä¸įå¦Ĥ": 1131,
      "å¥³åĦ¿": 1132,
      "ä¾į": 1133,
      "æĢª": 1134,
      "æŀģ": 1135,
      "æĮĩ": 1136,
      "çĥŃ": 1137,
      "æ´Ĺ": 1138,
      "åŃ©åŃĲ": 1139,
      "åħ»": 1140,
      "åľ¨éĤ£éĩĮ": 1141,
      "è®º": 1142,
      "åĽłæŃ¤": 1143,
      "èµ·èº«": 1144,
      "è·ĳ": 1145,
      "åĸĿ": 1146,
      "åĶ¤": 1147,
      "çĸ¼": 1148,
      "ä¹Ĳ": 1149,
      "åıĪæĺ¯": 1150,
      "éĿŀ": 1151,
      "éļ¾éģĵ": 1152,
      "å¹³": 1153,
      "è¿Ľåİ»": 1154,
      "ä¹ĥ": 1155,
      "æĥľ": 1156,
      "å«Ĥ": 1157,
      "åıĹ": 1158,
      "å®ģ": 1159,
      "åĢĻ": 1160,
      "éĽª": 1161,
      "èĬ³å®ĺ": 1162,
      "åıĪè¯´": 1163,
      "èĭ¦": 1164,
      "å¤ĸå¤´": 1165,
      "æĪĳè¯´": 1166,
      "è´µ": 1167,
      "è¶£": 1168,
      "äºİæĺ¯": 1169,
      "æŀľçĦ¶": 1170,
      "éºĿæľĪ": 1171,
      "å¦Ļ": 1172,
      "åħį": 1173,
      "éĶĻ": 1174,
      "çĨ": 1175,
      "å®¶éĩĮ": 1176,
      "å¼º": 1177,
      "è®®": 1178,
      "åŁ": 1179,
      "äºĮå§Ĳ": 1180,
      "è½¬": 1181,
      "ä¸įçŁ¥éģĵ": 1182,
      "ıäºĨ": 1183,
      "åĽ½": 1184,
      "åħŃ": 1185,
      "éĤ£äºĽ": 1186,
      "è°¢": 1187,
      "æ¼": 1188,
      "äºĨä¸¤": 1189,
      "æĪĳå°±": 1190,
      "ä¼ı": 1191,
      "å¾ĹäºĨ": 1192,
      "çĽ´": 1193,
      "æĻ¯": 1194,
      "èĪħ": 1195,
      "æ¬²": 1196,
      "è·Łåīį": 1197,
      "æ¨": 1198,
      "å°ļ": 1199,
      "åĩ¡": 1200,
      "åĳ¨çĳŀå®¶çļĦ": 1201,
      "åĪ»": 1202,
      "ä¿Ĺ": 1203,
      "å¬·å¬·": 1204,
      "çªĹ": 1205,
      "æķĻ": 1206,
      "çĽ®": 1207,
      "åĪ°äºĨ": 1208,
      "æĦıæĢĿ": 1209,
      "ç³»": 1210,
      "åİ»ç½¢": 1211,
      "æĬ±": 1212,
      "éĢļ": 1213,
      "ç«¯": 1214,
      "å²ģ": 1215,
      "ä½ĵ": 1216,
      "çĶļ": 1217,
      "éĹ®éģĵ": 1218,
      "æ·»": 1219,
      "çļĦè¯Ŀ": 1220,
      "çİ¯": 1221,
      "ä¼¤": 1222,
      "çĲ´": 1223,
      "ä¸ĢéĿ¢è¯´": 1224,
      "ä¸ĥ": 1225,
      "âĢĶ": 1226,
      "åıĶ": 1227,
      "åħī": 1228,
      "ç©º": 1229,
      "è¿ĺæĺ¯": 1230,
      "éŃ": 1231,
      "æĹģ": 1232,
      "å£«": 1233,
      "çŀ§çŀ§": 1234,
      "åĵ¥åĵ¥": 1235,
      "ãĢĢãĢĢãĢĢ": 1236,
      "æ¥": 1237,
      "å®Ĺ": 1238,
      "æľĢ": 1239,
      "ç´§": 1240,
      "æĤĦæĤĦ": 1241,
      "å®ĮäºĨ": 1242,
      "åħĦå¼Ł": 1243,
      "çĵ": 1244,
      "å¥ĩ": 1245,
      "å¸¦äºĨ": 1246,
      "èİ²": 1247,
      "å²Ĥä¸į": 1248,
      "ç¨": 1249,
      "é¼": 1250,
      "èµµ": 1251,
      "ä¾¿æĺ¯": 1252,
      "æĪ¿éĩĮ": 1253,
      "æĪ¿ä¸Ń": 1254,
      "é¹ĥ": 1255,
      "ä¸Ģæł·": 1256,
      "æľīäºĨ": 1257,
      "æŃ¥": 1258,
      "éĿĴ": 1259,
      "äºĮåįģ": 1260,
      "é¢ĺ": 1261,
      "ä¼Ĺäººéĥ½": 1262,
      "åĮħ": 1263,
      "ç¦ģ": 1264,
      "ä¸ĢæĹ¥": 1265,
      "åį³": 1266,
      "æĸŃ": 1267,
      "æ´»": 1268,
      "èĥ¡": 1269,
      "ç´«é¹ĥ": 1270,
      "ä¸įçĶ¨": 1271,
      "éĹ·": 1272,
      "åįķ": 1273,
      "ç§į": 1274,
      "é¡¾": 1275,
      "æĭ¿äºĨ": 1276,
      "ä¸Ģå¤Ħ": 1277,
      "æľĽ": 1278,
      "æľīäºº": 1279,
      "èº«ä¸Ĭ": 1280,
      "æ¢¦": 1281,
      "è¿İæĺ¥": 1282,
      "å«ĤåŃĲ": 1283,
      "©åĴĲ": 1284,
      "åı¦": 1285,
      "åı²": 1286,
      "ä¸Ģå£°": 1287,
      "åĲ©åĴĲ": 1288,
      "åıĪä¸į": 1289,
      "æĸĻ": 1290,
      "éĹ®ä»ĸ": 1291,
      "æģ¨": 1292,
      "èĦļ": 1293,
      "åįĬæĹ¥": 1294,
      "åŃĻ": 1295,
      "åĪ°åºķ": 1296,
      "ç»Ļä»ĸ": 1297,
      "èĥĮ": 1298,
      "æŃ»äºĨ": 1299,
      "ä¸įè§ī": 1300,
      "å®ĿçİīåĲ¬äºĨ": 1301,
      "ä½ľä»Ģä¹Ī": 1302,
      "¯äºĨ": 1303,
      "ä¸Ģåı¥": 1304,
      "éģĩ": 1305,
      "åıªè¯´": 1306,
      "éĤ£ä¸ª": 1307,
      "å¼ķ": 1308,
      "è¿ĩåİ»": 1309,
      "éĢĽ": 1310,
      "èĮĹ": 1311,
      "æ··": 1312,
      "çģµ": 1313,
      "æµ·": 1314,
      "çķ¥": 1315,
      "å°±æĺ¯äºĨ": 1316,
      "ç¯": 1317,
      "ŁäºĨ": 1318,
      "åĩĢ": 1319,
      "èµĸ": 1320,
      "æķ°": 1321,
      "äºĨä¸ĢåĽŀ": 1322,
      "åįģåĪĨ": 1323,
      "åİŁæĺ¯": 1324,
      "è®¸å¤ļ": 1325,
      "åı¸": 1326,
      "å·¥": 1327,
      "åĭ": 1328,
      "ä»Ļ": 1329,
      "ä¹Łæ²¡": 1330,
      "çĶ±": 1331,
      "å¸Ĳ": 1332,
      "ç¿ł": 1333,
      "éŁ": 1334,
      "çļĦæĺ¯": 1335,
      "ä¹Ŀ": 1336,
      "åºĬ": 1337,
      "è¿ĺä¸į": 1338,
      "çľĭèĳĹ": 1339,
      "åĳ½äºº": 1340,
      "ä¸ĢèĪ¬": 1341,
      "çĽĺ": 1342,
      "æģ¼": 1343,
      "æļĹ": 1344,
      "éĽ¨æĿĳ": 1345,
      "åķĨ": 1346,
      "åħ±": 1347,
      "å¾Ī": 1348,
      "ç»Ī": 1349,
      "æŃ£æĺ¯": 1350,
      "èµ°æĿ¥": 1351,
      "è½¦": 1352,
      "å©¶": 1353,
      "æ¡Į": 1354,
      "èķ": 1355,
      "å¤į": 1356,
      "æĢ»": 1357,
      "çĶ·": 1358,
      "æİ¨": 1359,
      "è¿ŀå¿Ļ": 1360,
      "æį¢": 1361,
      "è®¾": 1362,
      "èĬ¸": 1363,
      "åĢĴæĺ¯": 1364,
      "æĺİçĻ½": 1365,
      "é¬¼": 1366,
      "æĳĨ": 1367,
      "ï¼ļâĢĺ": 1368,
      "å¥´": 1369,
      "åıªæĢķ": 1370,
      "åĢĺ": 1371,
      "çº¸": 1372,
      "ç¢Ĺ": 1373,
      "æĦ¿": 1374,
      "å®¢": 1375,
      "åĽŀåİ»": 1376,
      "åĽłéĹ®": 1377,
      "éĢĴ": 1378,
      "ç½ª": 1379,
      "äºĨä¸Ģä¸ª": 1380,
      "ä½łå°±": 1381,
      "ä¸ĭæĿ¥": 1382,
      "é¡»": 1383,
      "çĥ¦": 1384,
      "å»": 1385,
      "ç±": 1386,
      "é²": 1387,
      "ä½Ļ": 1388,
      "âĢĿï¼Į": 1389,
      "ä¿Ŀ": 1390,
      "çĤķ": 1391,
      "ç¦»": 1392,
      "è¯¸": 1393,
      "ä¸įåı¯": 1394,
      "æĬ¬": 1395,
      "æł¹": 1396,
      "ä¸īä¸ª": 1397,
      "æĤ²": 1398,
      "æ·±": 1399,
      "åĶ¬": 1400,
      "æ¡Ĥ": 1401,
      "èģĶ": 1402,
      "æº": 1403,
      "ä¸įä½ı": 1404,
      "ä½Ľ": 1405,
      "æĺĵ": 1406,
      "æľĿ": 1407,
      "åĪ©": 1408,
      "çıł": 1409,
      "çĭ¬": 1410,
      "å¿ĺäºĨ": 1411,
      "åĥ": 1412,
      "è¸": 1413,
      "ä¸Ģä»¶": 1414,
      "æŃ¢": 1415,
      "çľĭè§ģ": 1416,
      "çģ«": 1417,
      "ä¸»æĦı": 1418,
      "ä¸¢": 1419,
      "å¦»": 1420,
      "çľĭäºĨ": 1421,
      "ä¸İä»ĸ": 1422,
      "å¡": 1423,
      "è¹": 1424,
      "è¯»": 1425,
      "äºĮå¥¶å¥¶": 1426,
      "é»Ħ": 1427,
      "æĦŁ": 1428,
      "æģ©": 1429,
      "åģ·": 1430,
      "å¿½è§ģ": 1431,
      "åĨµä¸Ķ": 1432,
      "æĤĦæĤĦçļĦ": 1433,
      "ç¬Ķ": 1434,
      "æľīä¸ª": 1435,
      "æľīäºĽ": 1436,
      "ç¬ĳè¯´": 1437,
      "åıªåĲ¬": 1438,
      "æķ¬": 1439,
      "çľĭæĹ¶": 1440,
      "é¢Ħ": 1441,
      "åłĤ": 1442,
      "åĤ": 1443,
      "ä¸ĢåĽŀ": 1444,
      "æľīä»Ģä¹Ī": 1445,
      "æ²»": 1446,
      "æģ¯": 1447,
      "æĺİæĹ¥": 1448,
      "è¶ģ": 1449,
      "æ¸Ĳ": 1450,
      "ç²¾": 1451,
      "éĨĴ": 1452,
      "ç§¦éĴŁ": 1453,
      "æĵ": 1454,
      "åŃĲæĿ¥": 1455,
      "éĴı": 1456,
      "æĮī": 1457,
      "æĺ¨åĦ¿": 1458,
      "å¤±": 1459,
      "ä¹Łå°±": 1460,
      "åıªæľī": 1461,
      "èĩ´": 1462,
      "å½Ĵ": 1463,
      "é¡º": 1464,
      "è¶³": 1465,
      "ç³Ĭ": 1466,
      "åŀ": 1467,
      "äºı": 1468,
      "äºĨæĿ¥": 1469,
      "åİ»çļĦ": 1470,
      "å®ĿçĲ´": 1471,
      "æĥĬ": 1472,
      "æĭ¾": 1473,
      "éĿĻ": 1474,
      "åĵĦ": 1475,
      "åĴĮä»ĸ": 1476,
      "ç§°": 1477,
      "å¤ļå°ĳ": 1478,
      "å¤©å¤©": 1479,
      "èİºåĦ¿": 1480,
      "éľ²": 1481,
      "ãĢĤâĢĻ": 1482,
      "å¦¥": 1483,
      "åħ³": 1484,
      "è°ĥ": 1485,
      "æŃ¤æĹ¶": 1486,
      "èĪį": 1487,
      "èįī": 1488,
      "æĮĤ": 1489,
      "çĸĳ": 1490,
      "èµ¦": 1491,
      "ä¾¿è¯´": 1492,
      "ä¸¤éĵ¶åŃĲ": 1493,
      "è¾ŀ": 1494,
      "çĩ": 1495,
      "è§Ĵ": 1496,
      "å¹¸": 1497,
      "è¿ĺè¦ģ": 1498,
      "åĪ«çļĦ": 1499,
      "çĦ¶åĲİ": 1500,
      "æį§": 1501,
      "å¦ĥ": 1502,
      "è®¡": 1503,
      "å¸ĺ": 1504,
      "éĢĢ": 1505,
      "æĥ³èĳĹ": 1506,
      "çĥ§": 1507,
      "é¥®": 1508,
      "åĽĽä¸ª": 1509,
      "ä¸įè¿ĩæĺ¯": 1510,
      "æħ¢": 1511,
      "çĬ¹": 1512,
      "éĥ": 1513,
      "æĭ£": 1514,
      "å¿Ļéģĵ": 1515,
      "æ¯įäº²": 1516,
      "åı«æĪĳ": 1517,
      "æĭ¿èĳĹ": 1518,
      "åĵ¥åĦ¿": 1519,
      "è¯į": 1520,
      "ä¸įå¿ħ": 1521,
      "äººçļĦ": 1522,
      "åľº": 1523,
      "åįĹ": 1524,
      "è¯Ŀè¯´": 1525,
      "èĬĤ": 1526,
      "æ²¡äºĨ": 1527,
      "åı«ä½ł": 1528,
      "è´¾æ¯įç¬ĳéģĵ": 1529,
      "èµ°äºĨ": 1530,
      "éħį": 1531,
      "åĨ·ç¬ĳéģĵ": 1532,
      "æ§": 1533,
      "åŃĲéĩĮ": 1534,
      "è§Ĥ": 1535,
      "åīįåĦ¿": 1536,
      "å§ĳå¨ĺä»¬": 1537,
      "æĢİä¹Īæł·": 1538,
      "éĺ´": 1539,
      "ç¥ĸå®Ĺ": 1540,
      "ä¼ıä¾į": 1541,
      "èĶ": 1542,
      "å®«": 1543,
      "åĩŃ": 1544,
      "ç»£": 1545,
      "åı¯æĺ¯": 1546,
      "æīįæĺ¯": 1547,
      "ä¸įè§ģ": 1548,
      "æĺ¯è°ģ": 1549,
      "è¯´æ¯ķ": 1550,
      "åĽŀå¤´": 1551,
      "æĬ¥": 1552,
      "æŀĿ": 1553,
      "åī©": 1554,
      "åĬĽ": 1555,
      "é£ŀ": 1556,
      "èĻ½çĦ¶": 1557,
      "æ¥¼": 1558,
      "é¢Ħå¤ĩ": 1559,
      "ç£": 1560,
      "ä¸įèĤ¯": 1561,
      "æĿ¡": 1562,
      "è´¾èĬ¸": 1563,
      "å¼Ĥ": 1564,
      "åĢ¼": 1565,
      "æĶ¹": 1566,
      "å½¼": 1567,
      "è´¾æ¯įéģĵ": 1568,
      "å·²ç»ı": 1569,
      "è¢Ńäººéģĵ": 1570,
      "åĽŃä¸Ń": 1571,
      "æĩ": 1572,
      "äºĨåĩł": 1573,
      "æĪĳä¸į": 1574,
      "æĪĳä¹Łä¸į": 1575,
      "èµĮ": 1576,
      "éĤ£ä¸Ģ": 1577,
      "æĢĢ": 1578,
      "åĿĹ": 1579,
      "æ¶Ĥ": 1580,
      "èĻļ": 1581,
      "èµµå§¨å¨ĺ": 1582,
      "åķĨè®®": 1583,
      "å§Ķ": 1584,
      "åĳĨ": 1585,
      "åįİ": 1586,
      "å°ıå§Ĳ": 1587,
      "çºµ": 1588,
      "è°Ī": 1589,
      "åĬŀ": 1590,
      "éļĲ": 1591,
      "çĹ´": 1592,
      "æ´¾": 1593,
      "åĸľæ¬¢": 1594,
      "ç¾İ": 1595,
      "åĢĺæĪĸ": 1596,
      "æ½": 1597,
      "è¿Ļåĩł": 1598,
      "ä½łä¹Ł": 1599,
      "ä¹Łéĥ½": 1600,
      "è´¹": 1601,
      "è´¾èµ¦": 1602,
      "åįĸ": 1603,
      "æĢľ": 1604,
      "ç»Ŀ": 1605,
      "ä»¥åĲİ": 1606,
      "ä¸Ķè¯´": 1607,
      "æŀĹä¹ĭ": 1608,
      "æ¬¡æĹ¥": 1609,
      "ç¦ı": 1610,
      "çĩķ": 1611,
      "ä¸įæĽ¾": 1612,
      "èĳĹäºĨ": 1613,
      "åı¯å·§": 1614,
      "æŃ£ç»ı": 1615,
      "çīĮ": 1616,
      "æ£ĭ": 1617,
      "å®Ī": 1618,
      "æľ¨": 1619,
      "ä¹ĭäºĭ": 1620,
      "éĻ¤": 1621,
      "åĸĦ": 1622,
      "åİŁæķħ": 1623,
      "åĿĲäºĨ": 1624,
      "å®ĿéĴĹéģĵ": 1625,
      "å®ĿéĴĹç¬ĳéģĵ": 1626,
      "æ¸¸": 1627,
      "çĤ¹å¤´": 1628,
      "çĮľ": 1629,
      "æ¨ª": 1630,
      "æŀĹä¹ĭåŃĿ": 1631,
      "èĿ": 1632,
      "é¾": 1633,
      "äºĨæĪĳ": 1634,
      "åº¦": 1635,
      "çº±": 1636,
      "ç§ģ": 1637,
      "ç»ĻæĪĳ": 1638,
      "æĶ¾å¿ĥ": 1639,
      "å¦ĤæŃ¤è¯´": 1640,
      "èĨ": 1641,
      "ç¬ĳäºĨ": 1642,
      "è§ģè¿ĩ": 1643,
      "è®¨": 1644,
      "æīįå¥½": 1645,
      "å«Į": 1646,
      "èĮĹçĥŁ": 1647,
      "ä½İ": 1648,
      "æīĩ": 1649,
      "è´¾çİ¯": 1650,
      "å®¶åİ»": 1651,
      "æĽ²": 1652,
      "è·ª": 1653,
      "è½¿": 1654,
      "åĮ»": 1655,
      "æ¹ĺèİ²": 1656,
      "çĪ¶æ¯į": 1657,
      "èĳĹä»ĸ": 1658,
      "æŃ¹": 1659,
      "æĭľ": 1660,
      "çº¿": 1661,
      "éĢł": 1662,
      "åı¯ä»¥": 1663,
      "å°¤äºĮå§Ĳ": 1664,
      "å°ĳä¸įå¾Ĺ": 1665,
      "ç¿»": 1666,
      "æĺ¨æĹ¥": 1667,
      "åļ": 1668,
      "å°Ŀ": 1669,
      "åİħ": 1670,
      "ä½łä¸į": 1671,
      "æī¿": 1672,
      "åĪĿ": 1673,
      "æĢ¡": 1674,
      "åįģäºĮ": 1675,
      "åıĭ": 1676,
      "è¿Ļä¸¤": 1677,
      "ä¾ĭ": 1678,
      "ä¾Ľ": 1679,
      "éĩĮéĿ¢": 1680,
      "åĩ¤å§Ĳéģĵ": 1681,
      "åĿĲåľ¨": 1682,
      "ç²ī": 1683,
      "æĿ¿": 1684,
      "è¿Ļè¾¹": 1685,
      "å§ĵ": 1686,
      "æīĺ": 1687,
      "åŃĲçļĦ": 1688,
      "æľīçļĦ": 1689,
      "è´´": 1690,
      "å¥½çĶŁ": 1691,
      "èĢ³": 1692,
      "ç»¿": 1693,
      "å·®": 1694,
      "æĬĺ": 1695,
      "éĴĪ": 1696,
      "åĲĥé¥Ń": 1697,
      "å½¢": 1698,
      "èĪĸ": 1699,
      "ä¸«å¤´ä»¬": 1700,
      "åĮĸ": 1701,
      "åĶ±": 1702,
      "åŁİ": 1703,
      "ç°": 1704,
      "ä»»": 1705,
      "æĿ¥èĩ³": 1706,
      "åĲ«": 1707,
      "ä½łè¯´": 1708,
      "å¤§çĪ·": 1709,
      "çŁŃ": 1710,
      "ç»ĵ": 1711,
      "æ²¹": 1712,
      "åĲĥéħĴ": 1713,
      "ç»Ļä½ł": 1714,
      "èıľ": 1715,
      "çĻ»": 1716,
      "ä¸ļ": 1717,
      "äºĨåĩºæĿ¥": 1718,
      "âĢĿãĢĤ": 1719,
      "äººåİ»": 1720,
      "å¥Ī": 1721,
      "åıĪéģĵ": 1722,
      "éĩĮå¤´": 1723,
      "å·¦": 1724,
      "ç½ļ": 1725,
      "çĽĳ": 1726,
      "åĬ¿": 1727,
      "å¯¿": 1728,
      "å¯Ĵ": 1729,
      "å¸¦èĳĹ": 1730,
      "åĲĦå¤Ħ": 1731,
      "è¡£æľį": 1732,
      "çł´": 1733,
      "æĥľæĺ¥": 1734,
      "éĴıåĦ¿": 1735,
      "ç³Ĭæ¶Ĥ": 1736,
      "è¤": 1737,
      "è¯ķ": 1738,
      "ä¸įè®¸": 1739,
      "åĲİæĿ¥": 1740,
      "ä¿±": 1741,
      "éĺ³": 1742,
      "åľ°ä¸ĭ": 1743,
      "æŁ¥": 1744,
      "èĴ": 1745,
      "åıĺ": 1746,
      "å¿į": 1747,
      "å¦Ĩ": 1748,
      "åĽŀè¯´": 1749,
      "åºĻ": 1750,
      "æłĳ": 1751,
      "æĹłäºº": 1752,
      "åĿĲèĳĹ": 1753,
      "æ¢ħ": 1754,
      "ç¤¾": 1755,
      "æĴĴ": 1756,
      "æĶ¶æĭ¾": 1757,
      "å°ıä¸«å¤´åŃĲ": 1758,
      "å©¶åŃĲ": 1759,
      "æ¤": 1760,
      "åı¶": 1761,
      "è¯Ĩ": 1762,
      "éģ£": 1763,
      "ä½łåıĪ": 1764,
      "åĦ¿åŃĲ": 1765,
      "å¾Ħ": 1766,
      "çľī": 1767,
      "è¦ģç´§": 1768,
      "åı¯çŁ¥": 1769,
      "åı«äºº": 1770,
      "é»Ľçİīéģĵ": 1771,
      "èıĬ": 1772,
      "è£ħ": 1773,
      "è¡£è£": 1774,
      "çĪ¶äº²": 1775,
      "ä¼¼çļĦ": 1776,
      "åı²æ¹ĺäºĳ": 1777,
      "åŀĤ": 1778,
      "æĢ¡çº¢": 1779,
      "æĪļ": 1780,
      "æĪĳæīį": 1781,
      "å°ģ": 1782,
      "åĳ³": 1783,
      "éĤ£ä¸Ģä¸ª": 1784,
      "å¨¶": 1785,
      "æĶ¯": 1786,
      "ç«¹": 1787,
      "é»Ľçİīç¬ĳéģĵ": 1788,
      "çĶŁæ°Ķ": 1789,
      "é¡¿": 1790,
      "é¸¡": 1791,
      "å¦Īå¦Ī": 1792,
      "å¼ĢäºĨ": 1793,
      "ç¾ŀ": 1794,
      "æ¯ıæĹ¥": 1795,
      "æ¦Ĥ": 1796,
      "å®¹æĺĵ": 1797,
      "å·¥å¤«": 1798,
      "åıĮ": 1799,
      "ä½łèĢģ": 1800,
      "çº¦": 1801,
      "æİ©": 1802,
      "æĦģ": 1803,
      "å¯Į": 1804,
      "è¡¥": 1805,
      "æĮ¨": 1806,
      "æĹ©å·²": 1807,
      "éĶ¦": 1808,
      "åºķä¸ĭ": 1809,
      "éĨī": 1810,
      "éŃĤ": 1811,
      "è¡£è£³": 1812,
      "çļĦä¸ľè¥¿": 1813,
      "ä¸įè¦ģ": 1814,
      "éģį": 1815,
      "éģŃ": 1816,
      "åĩĳ": 1817,
      "å¥Ĺ": 1818,
      "è´¾çĳŀ": 1819,
      "ä¾¿åĳ½": 1820,
      "åĢŁ": 1821,
      "çºª": 1822,
      "æŀķ": 1823,
      "çŁ¥éģĵäºĨ": 1824,
      "èĶ·": 1825,
      "äº¬": 1826,
      "è¿ĻèĪ¬": 1827,
      "åıĪè§ģ": 1828,
      "åıĪåĳ½": 1829,
      "åħ°": 1830,
      "ä¸ĬéĿ¢": 1831,
      "å¥½æŃ¹": 1832,
      "åģ¶": 1833,
      "åģĩ": 1834,
      "æīĭéĩĮ": 1835,
      "è¯·å®ī": 1836,
      "çº¢çİī": 1837,
      "æ±¤": 1838,
      "æİ¥äºĨ": 1839,
      "å®³": 1840,
      "äººéĥ½": 1841,
      "ä»ĸè¯´": 1842,
      "ä¼¸": 1843,
      "æĸĹ": 1844,
      "äºĮåĪĻ": 1845,
      "ç«ĸ": 1846,
      "éļĶ": 1847,
      "èĤī": 1848,
      "éª¨": 1849,
      "åºľéĩĮ": 1850,
      "çļĦäºĨ": 1851,
      "çļĦå¥½": 1852,
      "ä¸įæĥ³": 1853,
      "ä¸Ģçľĭ": 1854,
      "ä¸ĢçĤ¹": 1855,
      "æĺ¯ä»ĸ": 1856,
      "çİ©": 1857,
      "å®Ŀçİīå¿Ļ": 1858,
      "åĩºäºĨ": 1859,
      "æĹ¥åŃĲ": 1860,
      "æĸŁ": 1861,
      "ä¸ºä»Ģä¹Ī": 1862,
      "å¹´çºª": 1863,
      "é¥¶": 1864,
      "æļĤ": 1865,
      "æħĮ": 1866,
      "åĻ": 1867,
      "ä»£": 1868,
      "ä¸įå¤§": 1869,
      "ä¸Ģä¸Ģ": 1870,
      "ä¸Ģå¹´": 1871,
      "ä¸Ģé½Ĳ": 1872,
      "å¥ī": 1873,
      "æī§": 1874,
      "å¦¨": 1875,
      "éĩı": 1876,
      "åıĪéĹ®": 1877,
      "ä¾Ħ": 1878,
      "ä¾¿çŁ¥": 1879,
      "è¿ĩäºĨ": 1880,
      "éĺģ": 1881,
      "åĺ»": 1882,
      "âĢĶâĢĶ": 1883,
      "éĢĴä¸İ": 1884,
      "æĩĴ": 1885,
      "åı°": 1886,
      "ä¸įèĳĹ": 1887,
      "åĲĽ": 1888,
      "æĪĳåıª": 1889,
      "è§ģå®Ŀçİī": 1890,
      "å·´": 1891,
      "åĽŀå®¶": 1892,
      "èĢģç¥ĸå®Ĺ": 1893,
      "çº¹": 1894,
      "åĩ¤å§Ĳç¬ĳéģĵ": 1895,
      "è¾Ī": 1896,
      "å°ĨæĿ¥": 1897,
      "æĮĳ": 1898,
      "æ¡Ī": 1899,
      "åı¹éģĵ": 1900,
      "ï¼Ľ": 1901,
      "ä¸¾": 1902,
      "æľº": 1903,
      "è¿Ļäºĭ": 1904,
      "ä½łåıª": 1905,
      "åĽ´": 1906,
      "å½±": 1907,
      "ä¸Ģä¸ªäºº": 1908,
      "æ°ĶçļĦ": 1909,
      "å¤ĸéĿ¢": 1910,
      "è¢Ńäººç¬ĳéģĵ": 1911,
      "éĺ²": 1912,
      "åĮĹ": 1913,
      "çķª": 1914,
      "ä¸»åŃĲ": 1915,
      "æĳĩ": 1916,
      "åı¸æ£ĭ": 1917,
      "æĢ¡çº¢éĻ¢": 1918,
      "äºĨäºĽ": 1919,
      "å¤§äºĭ": 1920,
      "æĭį": 1921,
      "èĢģå©ĨåŃĲ": 1922,
      "ä»Ĭå¹´": 1923,
      "çĽĽ": 1924,
      "åĴĮæĪĳ": 1925,
      "éĹ¨åīį": 1926,
      "åį´æĺ¯": 1927,
      "åĽŃéĩĮ": 1928,
      "éķľ": 1929,
      "äºĨä½ł": 1930,
      "è¯´ä»ĸ": 1931,
      "æĹı": 1932,
      "èµŀ": 1933,
      "ç¬ĳèĳĹ": 1934,
      "åĽłç¬ĳéģĵ": 1935,
      "çŃīæĪĳ": 1936,
      "åĲĥèĮ¶": 1937,
      "åĬ¡": 1938,
      "åĬł": 1939,
      "è·³": 1940,
      "èĸĦ": 1941,
      "æĤĶ": 1942,
      "éĹ²è¯Ŀ": 1943,
      "å¢¨": 1944,
      "è¯»ä¹¦": 1945,
      "æŀĹä¹ĭåŃĿå®¶çļĦ": 1946,
      "çļ®": 1947,
      "ä¸įçĦ¶": 1948,
      "ä¹Łè¦ģ": 1949,
      "ä¸ĬçļĦ": 1950,
      "åĩºåİ»äºĨ": 1951,
      "ä¸ĭåĽŀ": 1952,
      "å°ıçļĦ": 1953,
      "å¨ĩ": 1954,
      "åĲĥçļĦ": 1955,
      "åĴĮä½ł": 1956,
      "æŀĹå§ĳå¨ĺ": 1957,
      "å½ĵæĹ¥": 1958,
      "åľ°æĸ¹": 1959,
      "æļĸ": 1960,
      "ç§¦æ°ı": 1961,
      "çŃĶåºĶäºĨ": 1962,
      "ãĢĭï¼Į": 1963,
      "èĹı": 1964,
      "è¯´æĪĳ": 1965,
      "èĳĹä¸Ģ": 1966,
      "ä¸ĬäºĨ": 1967,
      "ä¸ĭäºĨ": 1968,
      "å¿ĥä¸ĭ": 1969,
      "çĽĨ": 1970,
      "çĽĬ": 1971,
      "äº²æĪļ": 1972,
      "éĺµ": 1973,
      "åĺ±": 1974,
      "ç¼ĸ": 1975,
      "ç¼ĺ": 1976,
      "èĹķ": 1977,
      "ä¸§": 1978,
      "ä¸įç®¡": 1979,
      "æĹºåĦ¿": 1980,
      "å®ĿçİīåĲ¬è¯´": 1981,
      "è¯Ŀä¸ĭ": 1982,
      "çŃīèĳĹ": 1983,
      "æŃ£è¯´èĳĹ": 1984,
      "æĪ¿åĨħ": 1985,
      "ç¥Ń": 1986,
      "åĪĨè§£": 1987,
      "çİĭå¤«äººéģĵ": 1988,
      "æ¡ĥ": 1989,
      "å»Ĭ": 1990,
      "äºĨä¸ª": 1991,
      "ä¹ł": 1992,
      "åĩī": 1993,
      "ä¹Łç½¢äºĨ": 1994,
      "è§Ħ": 1995,
      "åħĥ": 1996,
      "å¥½äºĽ": 1997,
      "åĽłè¯´éģĵ": 1998,
      "é»ĳ": 1999,
      "ä½ķå¿ħ": 2000,
      "åĿĲä¸ĭ": 2001,
      "äº²èĩª": 2002,
      "è¯´èĳĹä¾¿": 2003,
      "ä½ıäºĨ": 2004,
      "æľªäºĨ": 2005,
      "æĶ¾åľ¨": 2006,
      "è·ŁèĳĹ": 2007,
      "èİ«": 2008,
      "é«ĺåħ´": 2009,
      "å¥´æīį": 2010,
      "ĦåŃĲ": 2011,
      "å¤Ł": 2012,
      "æĪĳæĺ¯": 2013,
      "æĺ¯ä½ł": 2014,
      "ç¬ĳè¯Ŀ": 2015,
      "åľŁ": 2016,
      "ä¾¿å°Ĩ": 2017,
      "å¤§å¤«": 2018,
      "å¸ķ": 2019,
      "åĽłåıĪ": 2020,
      "æĥ³èµ·": 2021,
      "å±ħ": 2022,
      "éĢģäºĨ": 2023,
      "é£Ł": 2024,
      "å½ĵä¸ĭ": 2025,
      "åı¥è¯Ŀ": 2026,
      "èĦ¸ä¸Ĭ": 2027,
      "åĽ½åºľ": 2028,
      "éŁµ": 2029,
      "é²ľ": 2030,
      "æ¤ħ": 2031,
      "ä¸Ģè¯Ń": 2032,
      "æĪ´": 2033,
      "éģĵå£«": 2034,
      "æĺ¯ä»Ģä¹Ī": 2035,
      "ä¹ĭçī©": 2036,
      "èĩªåľ¨": 2037,
      "åĽłè§ģ": 2038,
      "çĽĸ": 2039,
      "éĻĲ": 2040,
      "èĪĮ": 2041,
      "çīĻ": 2042,
      "éĩĳæ¡Ĥ": 2043,
      "åĩ¤å§ĲåĦ¿ç¬ĳéģĵ": 2044,
      "æ¢³": 2045,
      "è£ģ": 2046,
      "çķĻä¸ĭ": 2047,
      "ä¸įåľ¨è¯Ŀä¸ĭ": 2048,
      "éŀ": 2049,
      "äºī": 2050,
      "äºĨè¿Ļ": 2051,
      "åı³": 2052,
      "ä¸įåİ»": 2053,
      "å®¤": 2054,
      "ä»ĸåİ»": 2055,
      "ä½łè¿ĺ": 2056,
      "æī¶": 2057,
      "åį§": 2058,
      "ä¼º": 2059,
      "åľ¨å®¶": 2060,
      "å¹»": 2061,
      "å¿Ļç¬ĳéģĵ": 2062,
      "åĬ³": 2063,
      "å±Ī": 2064,
      "çĶŁæĹ¥": 2065,
      "åīįæĹ¥": 2066,
      "æĲº": 2067,
      "åħ´åĦ¿": 2068,
      "å°ıåİ®ä»¬": 2069,
      "ç£ķ": 2070,
      "ä¸ĭåĽŀåĪĨè§£": 2071,
      "ä»Ĺ": 2072,
      "å¤º": 2073,
      "è¿¹": 2074,
      "ä¸įåĪ°": 2075,
      "ä¸Ģå¾Ħ": 2076,
      "ä¸Ģæ¦Ĥ": 2077,
      "éģĵæĺ¯": 2078,
      "æĪĳåĢĴ": 2079,
      "è¯´æĺ¯": 2080,
      "æī«": 2081,
      "éĤ£æĹ¶": 2082,
      "ä¸Ĭåİ»": 2083,
      "åĨ¯": 2084,
      "åĽŀäºĨ": 2085,
      "ä¹ĭäºº": 2086,
      "æķ´": 2087,
      "èĮ¶æĿ¥": 2088,
      "æĴŀ": 2089,
      "å§Ĭå¦¹ä»¬": 2090,
      "éĹ»å¾Ĺ": 2091,
      "æ¨ªç«ĸ": 2092,
      "èĺ": 2093,
      "äºĨåİ»": 2094,
      "ä¸įçĲĨ": 2095,
      "ä¹ħ": 2096,
      "æĪĳè¿ĺ": 2097,
      "è¿ĻæĹ¥": 2098,
      "ç¬ĳèµ·æĿ¥": 2099,
      "åĩºéĹ¨": 2100,
      "åĽłè¯´": 2101,
      "çľĭä»ĸ": 2102,
      "çĽĴ": 2103,
      "æİ·": 2104,
      "åĵŁ": 2105,
      "æĽ°": 2106,
      "éĽĢ": 2107,
      "èĦĤ": 2108,
      "çĹĽ": 2109,
      "æĽ¿ä½ł": 2110,
      "åĹ³": 2111,
      "æ½ĩ": 2112,
      "é¾Ļ": 2113,
      "èĽ": 2114,
      "èŀ": 2115,
      "ä¸´": 2116,
      "å¤®": 2117,
      "æĪĳæĿ¥": 2118,
      "åİĨ": 2119,
      "ä½łè¿Ļ": 2120,
      "åŃĲä¸Ĭ": 2121,
      "å¾®": 2122,
      "å¾·": 2123,
      "æŀ¶": 2124,
      "ç½Ĺ": 2125,
      "åĵģ": 2126,
      "èĭ±": 2127,
      "äºĨä¸Ģå£°": 2128,
      "æ¸©": 2129,
      "æľªåħį": 2130,
      "ç©¶": 2131,
      "çľ¼çĿ": 2132,
      "ç§ĭçº¹": 2133,
      "åĥ§": 2134,
      "æ§Ľ": 2135,
      "Ķç»Ĩ": 2136,
      "ä»Ķç»Ĩ": 2137,
      "ä¸įå°½": 2138,
      "æĪĳæĥ³": 2139,
      "å°ĺ": 2140,
      "åĦ¿çļĦ": 2141,
      "åıĪè¦ģ": 2142,
      "ä¾¯": 2143,
      "å¤§å¥¶å¥¶": 2144,
      "çŁ£": 2145,
      "æĥŁ": 2146,
      "ä¹ĭåĲİ": 2147,
      "å¿ĻéĹ®": 2148,
      "æīĵåĲ¬": 2149,
      "è¡¨": 2150,
      "éĽħ": 2151,
      "èĭ¥ä¸į": 2152,
      "åĩ¤å§ĲåĦ¿éģĵ": 2153,
      "ç²Ĺ": 2154,
      "æĽ¿ä»ĸ": 2155,
      "èµ¶èĳĹ": 2156,
      "å¢Ļ": 2157,
      "çĥŃéĹ¹": 2158,
      "çĤķä¸Ĭ": 2159,
      "èľ": 2160,
      "äºĨèĦ¸": 2161,
      "æĺŁ": 2162,
      "åĲ¹": 2163,
      "åĲĬ": 2164,
      "æĪĳåıĪ": 2165,
      "è´Ł": 2166,
      "æŃª": 2167,
      "å®Ŀçİīä¾¿": 2168,
      "æĭĽ": 2169,
      "åĽŀéģĵ": 2170,
      "éĿł": 2171,
      "å¿ĻçļĦ": 2172,
      "è¡Ĺ": 2173,
      "é¦Ĩ": 2174,
      "ä¸īäºº": 2175,
      "åģľ": 2176,
      "èĦ±": 2177,
      "è½¯": 2178,
      "åĽĽåįģ": 2179,
      "ä¼ĹäººåĲ¬äºĨ": 2180,
      "çī¹": 2181,
      "çģ°": 2182,
      "äºĶåįģ": 2183,
      "çļĨæĺ¯": 2184,
      "é£İæµģ": 2185,
      "æķ£äºĨ": 2186,
      "åħ¬åŃĲ": 2187,
      "æ¶Ī": 2188,
      "çŃĶåºĶèĳĹ": 2189,
      "æ¦»": 2190,
      "ä¸Ŀ": 2191,
      "å®½": 2192,
      "å®ľ": 2193,
      "ä½łåĪ«": 2194,
      "æī¯": 2195,
      "ç¬¼": 2196,
      "ä¼´": 2197,
      "å®¶äºº": 2198,
      "èĢį": 2199,
      "å¤ªçĽĳ": 2200,
      "çŁ©": 2201,
      "å¼±": 2202,
      "å¿ĥåĨħ": 2203,
      "åĿł": 2204,
      "æģ¶": 2205,
      "å¤©ä¸ĭ": 2206,
      "èĭ¥æĺ¯": 2207,
      "èĻ½ä¸į": 2208,
      "åı£åĨħ": 2209,
      "å²«": 2210,
      "ç¼ķ": 2211,
      "ç»Ĩç»Ĩ": 2212,
      "å¹²åĩĢ": 2213,
      "æĻļä¸Ĭ": 2214,
      "åºĬä¸Ĭ": 2215,
      "çĴ": 2216,
      "äºŃ": 2217,
      "ä¹¡": 2218,
      "ä½³": 2219,
      "æĿĤ": 2220,
      "ä¸ĢæĹ©": 2221,
      "åĩĨ": 2222,
      "ä½łè¦ģ": 2223,
      "åĽ¾": 2224,
      "åıªå½ĵ": 2225,
      "ä¼ĳ": 2226,
      "å¤§çļĦ": 2227,
      "å¤§è§Ĥ": 2228,
      "æĥ¹": 2229,
      "æİĮ": 2230,
      "åīª": 2231,
      "åĬŁ": 2232,
      "æģ°": 2233,
      "çĶŁçļĦ": 2234,
      "é¡¶": 2235,
      "å£ģ": 2236,
      "æ·«": 2237,
      "æ±Ĺ": 2238,
      "æ¹ĺäºĳéģĵ": 2239,
      "ç¢°": 2240,
      "æĶ¶äºĨ": 2241,
      "æĢ¥çļĦ": 2242,
      "æ¬¢åĸľ": 2243,
      "éĶĻäºĨ": 2244,
      "ä¼ºåĢĻ": 2245,
      "çľ¼çĿĽ": 2246,
      "å²«çĥŁ": 2247,
      "æĿı": 2248,
      "ä»ĸä¸¤ä¸ª": 2249,
      "åĪĩ": 2250,
      "æľīè¶£": 2251,
      "å¥½å¥½çļĦ": 2252,
      "æĥ¯": 2253,
      "ä¹ĭæĦı": 2254,
      "è®²": 2255,
      "æ²¡äºº": 2256,
      "åĵį": 2257,
      "æĥ³äºĨä¸Ģ": 2258,
      "å±ı": 2259,
      "èº²": 2260,
      "âĢĻãĢĤ": 2261,
      "èį·": 2262,
      "æĢİæł·": 2263,
      "çĹķ": 2264,
      "æľªå¿ħ": 2265,
      "éĵģ": 2266,
      "åĲĦèĩª": 2267,
      "æĲ¬": 2268,
      "æĸĻçĲĨ": 2269,
      "éģĩè§ģ": 2270,
      "æ½ĩæ¹ĺ": 2271,
      "âĢ¦": 2272,
      "è¿Ł": 2273,
      "çļĦä¸«å¤´": 2274,
      "ä¸įåħį": 2275,
      "å°Ĭ": 2276,
      "éĹº": 2277,
      "æĭĺ": 2278,
      "äºĭæĿ¥": 2279,
      "åº§": 2280,
      "æĬĵ": 2281,
      "è¡Ģ": 2282,
      "ä½ľäºĨ": 2283,
      "ä¹Łä¸įçĶ¨": 2284,
      "è¯·äºĨ": 2285,
      "ä½¿å¾Ĺ": 2286,
      "åĲįåŃĹ": 2287,
      "çĸı": 2288,
      "å¥³åŃ©åŃĲ": 2289,
      "æ»ļ": 2290,
      "ç¢§": 2291,
      "æĳ¸": 2292,
      "ä¸«é¬Łä»¬": 2293,
      "è¿ĳæĹ¥": 2294,
      "è®¤å¾Ĺ": 2295,
      "çĵ¶": 2296,
      "ä¸Ģåı¥è¯Ŀ": 2297,
      "è§ĦçŁ©": 2298,
      "åı·": 2299,
      "çļĦå°ı": 2300,
      "ä¸įäºĨ": 2301,
      "ä¸įä½Ĩ": 2302,
      "ä¸ĢæĬĬ": 2303,
      "ä¸Ģå®ļ": 2304,
      "åĲŁ": 2305,
      "åİĭ": 2306,
      "ä½łæĺ¯": 2307,
      "åĦ¿ä»¬": 2308,
      "æľīäºĭ": 2309,
      "å®Ŀå§Ĳå§Ĳ": 2310,
      "å¸®": 2311,
      "å¸ĸ": 2312,
      "åºĦ": 2313,
      "æĬ¹": 2314,
      "èĢģå¬·å¬·": 2315,
      "è°İ": 2316,
      "æİĴ": 2317,
      "è´¾æ¯įçŃī": 2318,
      "çĤī": 2319,
      "å¹³åĦ¿ç¬ĳéģĵ": 2320,
      "èī¯": 2321,
      "ç¬¬äºĮ": 2322,
      "çĭĹ": 2323,
      "éľŀ": 2324,
      "æĻļéĹ´": 2325,
      "èį£åºľ": 2326,
      "å®ģåºľ": 2327,
      "å£«éļĲ": 2328,
      "ä¸Ģå¼ł": 2329,
      "è¯´ç¬ĳ": 2330,
      "ä»ĸå°±": 2331,
      "ä¸ªäºº": 2332,
      "éĩİ": 2333,
      "ä¾¿è¯´éģĵ": 2334,
      "æ¯Ľ": 2335,
      "åľ¨å¤ĸ": 2336,
      "å°±å¥½äºĨ": 2337,
      "å¾Ĺç½ª": 2338,
      "ä¹ĭå¤Ħ": 2339,
      "ä¹ĭéĹ´": 2340,
      "æ²ī": 2341,
      "æĬķ": 2342,
      "åĩ¤ä¸«å¤´": 2343,
      "è¿Ľåħ¥": 2344,
      "èĬ±åĦ¿": 2345,
      "ä¸ĢéĿ¢åıĪ": 2346,
      "æĤ¬": 2347,
      "çıŃ": 2348,
      "èĥľ": 2349,
      "ç«Łæĺ¯": 2350,
      "åĲĦèī²": 2351,
      "ç¼İ": 2352,
      "èħ°": 2353,
      "éľľ": 2354,
      "å¦Ļçİī": 2355,
      "é¼ĵ": 2356,
      "ï¼ĮâĢĺ": 2357,
      "çļĦéĤ£": 2358,
      "æĿ¾": 2359,
      "æĪĳçľĭ": 2360,
      "ä¹Łè¯¥": 2361,
      "è§Ĩ": 2362,
      "åĪ¶": 2363,
      "èµĶ": 2364,
      "è´¾èĶ·": 2365,
      "ä¸Ĭä¸ĭ": 2366,
      "å¤§äºĨ": 2367,
      "å¸Ī": 2368,
      "ç½ķ": 2369,
      "åı¯æĢľ": 2370,
      "åı«ä»ĸä»¬": 2371,
      "è¢ĸ": 2372,
      "ç®±": 2373,
      "å¯º": 2374,
      "åĲİéĿ¢": 2375,
      "ä¸īå§Ĳ": 2376,
      "ä¿®": 2377,
      "èĦī": 2378,
      "æŀĹå¦¹å¦¹": 2379,
      "éļ¾ä¸º": 2380,
      "çľŁæĺ¯": 2381,
      "æĲľ": 2382,
      "æĴµ": 2383,
      "æİ¢æĺ¥ç¬ĳéģĵ": 2384,
      "è´¾æĶ¿éģĵ": 2385,
      "é¸³é¸¯éģĵ": 2386,
      "ä¿Ĺè¯Ń": 2387,
      "æĬ±æĢ¨": 2388,
      "ç¯ĩ": 2389,
      "æĵį": 2390,
      "èµĮæ°Ķ": 2391,
      "ä¼¸æīĭ": 2392,
      "åĻ¨": 2393,
      "èŃ": 2394,
      "ï¼ĮâĢĿ": 2395,
      "ä»ª": 2396,
      "åıĤ": 2397,
      "å¤¹": 2398,
      "éģ¿": 2399,
      "æĪĳä¸Ģ": 2400,
      "æĪĳè¦ģ": 2401,
      "ä¹ŁæĹł": 2402,
      "åħ®": 2403,
      "å®¶ä¸Ń": 2404,
      "æĭ¦": 2405,
      "æĭĲ": 2406,
      "é»ĺ": 2407,
      "æĦ§": 2408,
      "æł·åĦ¿": 2409,
      "ä¹Łä¸įçŁ¥": 2410,
      "å¹´è½»": 2411,
      "åĲ¬äºĨè¿Ļè¯Ŀ": 2412,
      "çīĩ": 2413,
      "ä»İæŃ¤": 2414,
      "åı£éĩĮ": 2415,
      "æ±ł": 2416,
      "å¹³åĦ¿éģĵ": 2417,
      "åĳĬè¯īä½ł": 2418,
      "æĲŃ": 2419,
      "è£Ļ": 2420,
      "çĬ¯": 2421,
      "æ¨¡": 2422,
      "åıĶåıĶ": 2423,
      "æĦ¿æĦı": 2424,
      "åļ·": 2425,
      "å¯Įè´µ": 2426,
      "èĺħ": 2427,
      "ç¡": 2428,
      "ï¼ĮâĢľ": 2429,
      "äºĨåįĬ": 2430,
      "ä¸įåĩº": 2431,
      "ä¸ĢåºĶ": 2432,
      "åĲµ": 2433,
      "æĪĳåİ»": 2434,
      "ä»ĸä¸Ģ": 2435,
      "ä»ĸæĿ¥": 2436,
      "å®Ŀå§ĳå¨ĺ": 2437,
      "éĤ£æĹ¥": 2438,
      "å®ĿçİīçļĦ": 2439,
      "å¥½å§Ĳå§Ĳ": 2440,
      "å¥½å®¹æĺĵ": 2441,
      "å¤§çº¢": 2442,
      "åĲ¬å¾Ĺ": 2443,
      "äºĮåŃĹ": 2444,
      "äºĮçĻ¾": 2445,
      "ä¸¤è¾¹": 2446,
      "æ²¡çļĦ": 2447,
      "éĹ®ä½ł": 2448,
      "é¢ľ": 2449,
      "åħĪçĶŁ": 2450,
      "å§¨å¤ªå¤ª": 2451,
      "æ·¡": 2452,
      "æĪĲäºĨ": 2453,
      "å¿ħæĺ¯": 2454,
      "æĶ¾ä¸ĭ": 2455,
      "èĥĨ": 2456,
      "èĢĮå·²": 2457,
      "çĹħäºĨ": 2458,
      "çĽ¸å¹²": 2459,
      "æİ¢æĺ¥éģĵ": 2460,
      "å¿½çĦ¶": 2461,
      "æĿİçº¨éģĵ": 2462,
      "ç±³": 2463,
      "æĥ³äºĨä¸Ģæĥ³": 2464,
      "èŃ¦": 2465,
      "ä¸ĵ": 2466,
      "ä¸įä¾Ŀ": 2467,
      "ä¸įåıĬ": 2468,
      "ä»ĸæĺ¯": 2469,
      "æĢĴ": 2470,
      "ä¸Ĭå¤´": 2471,
      "ä¾¿ç¬ĳéģĵ": 2472,
      "åĲ¬ä¸ĭåĽŀåĪĨè§£": 2473,
      "ä¸ĭåİ»": 2474,
      "éĥ½åľ¨": 2475,
      "æĬ«": 2476,
      "å°ıäºĭ": 2477,
      "åı¯æĥľ": 2478,
      "åī¯": 2479,
      "åĿıäºĨ": 2480,
      "æĹłå¥Ī": 2481,
      "ä¹Łä¸įæķ¢": 2482,
      "ä¸īæĹ¥": 2483,
      "éĻĪ": 2484,
      "é¡¹": 2485,
      "éĤ£éĩĮåİ»": 2486,
      "æ¹ĺäºĳç¬ĳéģĵ": 2487,
      "å«ģ": 2488,
      "åıĸç¬ĳ": 2489,
      "ç¾¤": 2490,
      "éŁ³": 2491,
      "è²": 2492,
      "è¯¯": 2493,
      "ä¸įæĿ¥": 2494,
      "æĪ·": 2495,
      "ä»ĸåıĪ": 2496,
      "åĽ¢": 2497,
      "æľīä¸Ģä¸ª": 2498,
      "è´«": 2499,
      "åıĪç¬ĳéģĵ": 2500,
      "åıĪåĲĳ": 2501,
      "åħ¼": 2502,
      "åľĨ": 2503,
      "ä¼Ļ": 2504,
      "å°±å®ĮäºĨ": 2505,
      "å·¾": 2506,
      "å·ŀ": 2507,
      "åĽŀæĪ¿": 2508,
      "è¿ĺæ²¡": 2509,
      "æĬ½": 2510,
      "èĢģå¨ĺ": 2511,
      "ä¸ŃçĶ¨": 2512,
      "ä½ľè¯Ĺ": 2513,
      "ä¸ĶåĲ¬ä¸ĭåĽŀåĪĨè§£": 2514,
      "åĽĽäºº": 2515,
      "æ³£": 2516,
      "ä¸¤ä¸ªäºº": 2517,
      "åĮ¾": 2518,
      "å¿ħå®ļ": 2519,
      "æĢķä»ĸ": 2520,
      "è¨Ģè¯Ń": 2521,
      "èģļ": 2522,
      "æĭīèĳĹ": 2523,
      "æ£ł": 2524,
      "ç©¿èĳĹ": 2525,
      "æ®ĭ": 2526,
      "æĢªéģĵ": 2527,
      "éĢĽéĢĽ": 2528,
      "é¡»å¾Ĺ": 2529,
      "åĤ¬": 2530,
      "æīĩåŃĲ": 2531,
      "åĺ±åĴĲ": 2532,
      "ç©¶ç«Ł": 2533,
      "ä¸įåĲĮ": 2534,
      "ä¸Ģéĺµ": 2535,
      "æĪĳè¿Ļ": 2536,
      "æĪĳåĳ¢": 2537,
      "è¿Ļä¸Ģä¸ª": 2538,
      "ä½łåı¯": 2539,
      "æī¬": 2540,
      "ä¹Łç½¢": 2541,
      "åıĪå°Ĩ": 2542,
      "åįĩ": 2543,
      "åĨ¤": 2544,
      "åĲ¬è§ģäºĨ": 2545,
      "æĭĪ": 2546,
      "éĥ½è¯´": 2547,
      "åĢļ": 2548,
      "åĢĴè±¡": 2549,
      "æŃ£è¦ģ": 2550,
      "åĨįæĿ¥": 2551,
      "æĻº": 2552,
      "åĸľçļĦ": 2553,
      "åĳĬè¯īä»ĸ": 2554,
      "å®ļäºĨ": 2555,
      "æĻ´éĽ¯éģĵ": 2556,
      "çªĿ": 2557,
      "åłĨ": 2558,
      "éĻªç¬ĳ": 2559,
      "æ¼±": 2560,
      "ç±»": 2561,
      "å¡ŀ": 2562,
      "ç°ª": 2563,
      "ä½łèĢģäººå®¶": 2564,
      "ä¸Ģè¯ŃæľªäºĨ": 2565,
      "åĹ³åĵŁ": 2566,
      "äºĨåįĬæĹ¥": 2567,
      "ä¸įè¯´": 2568,
      "ä¹ĺ": 2569,
      "æĺı": 2570,
      "åĲĵ": 2571,
      "ä½łåĢĴ": 2572,
      "çİīéĴıåĦ¿": 2573,
      "è´¼": 2574,
      "å®ĿåħĦå¼Ł": 2575,
      "èµĲ": 2576,
      "èĩĬ": 2577,
      "å¤ªçĪ·": 2578,
      "çĶĦ": 2579,
      "å¤´ä¸Ĭ": 2580,
      "ä¸ĭæ³ª": 2581,
      "åºµ": 2582,
      "åĽłä¸º": 2583,
      "å°ıåĦ¿": 2584,
      "èĢģå©Ĩ": 2585,
      "çĽı": 2586,
      "åĩ¤å§ĲåĲ¬äºĨ": 2587,
      "æĦĪ": 2588,
      "è¢Ħ": 2589,
      "æīĵçĤ¹": 2590,
      "éĽģ": 2591,
      "ä¸īåįģ": 2592,
      "äºĨä¸Ģåı£": 2593,
      "éĹ¨ä¸Ĭ": 2594,
      "æĭ¿æĿ¥": 2595,
      "æ¬º": 2596,
      "éħ¸": 2597,
      "é¢Ŀ": 2598,
      "çŀĴ": 2599,
      "èĻ½æĺ¯": 2600,
      "åĶĲ": 2601,
      "ç©·": 2602,
      "åĽŃåĨħ": 2603,
      "å¥³äºº": 2604,
      "æķħæĦı": 2605,
      "æį®": 2606,
      "æĲģ": 2607,
      "æĻļé¥Ń": 2608,
      "åİŁæĿ¥æĺ¯": 2609,
      "å®ŀåľ¨": 2610,
      "éªĤéģĵ": 2611,
      "æ®µ": 2612,
      "çĵľ": 2613,
      "èĺħèĬ": 2614,
      "Âł": 2615,
      "èł": 2616,
      "ä¸°": 2617,
      "äºĨäºº": 2618,
      "è¿·": 2619,
      "ä¸įèĩªåľ¨": 2620,
      "å®´": 2621,
      "ä¸Ģäºº": 2622,
      "ä¸ĢåĪĻ": 2623,
      "ä¸Ģé¡¿": 2624,
      "æľŁ": 2625,
      "ä»ĸä¾¿": 2626,
      "ä»ĸäºĮäºº": 2627,
      "ä½łä¸Ķ": 2628,
      "å¦¾": 2629,
      "åıªå¥½": 2630,
      "åĳ¼": 2631,
      "åľ¨ä¸Ģå¤Ħ": 2632,
      "çĶ°": 2633,
      "æĥĳ": 2634,
      "æĸ¤": 2635,
      "éĥ½ä¸į": 2636,
      "ä¹ĭæĹ¶": 2637,
      "æ²¿": 2638,
      "åĴ½": 2639,
      "èĩªæĺ¯": 2640,
      "æĬ¤": 2641,
      "å°ıåŃĲ": 2642,
      "æĹ¶å¸¸": 2643,
      "å¯Ĥ": 2644,
      "å¯Ł": 2645,
      "ä½ķèĭ¦": 2646,
      "å·²æĺ¯": 2647,
      "æĬĬè¿Ļ": 2648,
      "æ·ĺ": 2649,
      "æĪĸæľī": 2650,
      "åĽŃåŃĲ": 2651,
      "æİ¥èĳĹ": 2652,
      "çĿ¡è§ī": 2653,
      "æħ°": 2654,
      "æ¯ıäºº": 2655,
      "ç«¯çļĦ": 2656,
      "éĨĴäºĨ": 2657,
      "æª": 2658,
      "ä¸¹": 2659,
      "äºĨæīĭ": 2660,
      "å¤ı": 2661,
      "ä¸įä¸Ĭ": 2662,
      "å®¿": 2663,
      "ä¸Ģåı£": 2664,
      "åİ¨": 2665,
      "åľĪ": 2666,
      "åıªåĽł": 2667,
      "æĢĶ": 2668,
      "ä¾¿éĹ®": 2669,
      "ä¼¶": 2670,
      "å¹¼": 2671,
      "å¹½": 2672,
      "å§ĲåĦ¿": 2673,
      "å°±æľī": 2674,
      "ä¸¤æĹ¥": 2675,
      "æŃ¤äºĭ": 2676,
      "æŃ£åľ¨": 2677,
      "æĥ³æĿ¥": 2678,
      "ä¹Łä¸įèĥ½": 2679,
      "èº«åŃĲ": 2680,
      "æĮ½": 2681,
      "çĥĤ": 2682,
      "æ³¥": 2683,
      "éĢģåİ»": 2684,
      "å¸¦é¢Ĩ": 2685,
      "éĺ¶": 2686,
      "éĩĳéĴıåĦ¿": 2687,
      "éĶģ": 2688,
      "åĳĬè¯īæĪĳ": 2689,
      "ä»¶äºĭ": 2690,
      "èħ¿": 2691,
      "åķĲ": 2692,
      "æīĵåıĳäºº": 2693,
      "åı¤äºº": 2694,
      "å½©äºĳ": 2695,
      "æĹģè¾¹": 2696,
      "ç¿łç¼ķ": 2697,
      "æħ¢æħ¢": 2698,
      "ä½İå¤´": 2699,
      "éŀĭ": 2700,
      "ä¸¸": 2701,
      "è¯Ħ": 2702,
      "ä¸Ģå¤ľ": 2703,
      "è¯´å®Į": 2704,
      "åİļ": 2705,
      "èĳĹåĳ¢": 2706,
      "éĤ£æł·": 2707,
      "åį·": 2708,
      "å¤ªåĮ»": 2709,
      "åĲ¬åĲ¬": 2710,
      "åĴ¬": 2711,
      "æķĪ": 2712,
      "éĢ¼": 2713,
      "çŃīäºĭ": 2714,
      "è¾Ľ": 2715,
      "å¯Ĩ": 2716,
      "å¤«å¦»": 2717,
      "åĪ«è¯´": 2718,
      "è¿ĽäºĨ": 2719,
      "ä½ķä¸į": 2720,
      "æīĭå¸ķ": 2721,
      "ä¸įçŁ¥æĺ¯": 2722,
      "çİĭå¤«äººçŃī": 2723,
      "éĺ¿": 2724,
      "çº¢äºĨèĦ¸": 2725,
      "èĩªå·±çļĦ": 2726,
      "æ±Ł": 2727,
      "åľ°éĩĮ": 2728,
      "èī³": 2729,
      "å¹¶æĹł": 2730,
      "æŀľåŃĲ": 2731,
      "çĿ¡äºĨ": 2732,
      "å¼łåįİ": 2733,
      "èģª": 2734,
      "æĽ¿æĪĳ": 2735,
      "åłª": 2736,
      "æıĲèµ·": 2737,
      "è®°å¾Ĺ": 2738,
      "æŁ³å®¶çļĦ": 2739,
      "åĹ½": 2740,
      "ä¸įåľ¨å®¶": 2741,
      "åĭ¾": 2742,
      "èķĻ": 2743,
      "çĶ·äºº": 2744,
      "å¹¸èĢĮ": 2745,
      "è·ªä¸ĭ": 2746,
      "éĴĪçº¿": 2747,
      "ä¸ĭæ³ªæĿ¥": 2748,
      "¥çı": 2749,
      "çļĩ": 2750,
      "ä¸ĢæĿ¯": 2751,
      "éģĵçĲĨ": 2752,
      "æĪĳåĨį": 2753,
      "æĪĳçŁ¥éģĵ": 2754,
      "ä¹Łæ²¡æľī": 2755,
      "å®ĿäºĮçĪ·": 2756,
      "åıªé¡¾": 2757,
      "éĤ£å©ĨåŃĲ": 2758,
      "å®Ŀçİīè§ģ": 2759,
      "èĢ½": 2760,
      "åľ¨å®¶éĩĮ": 2761,
      "æĭŁ": 2762,
      "å¼ı": 2763,
      "è¿ĩçļĦ": 2764,
      "åĢį": 2765,
      "æĬĦ": 2766,
      "å¿Ļè¯´": 2767,
      "çĪ¹": 2768,
      "çĲ¥çı": 2769,
      "ä»Ģä¹Īäºĭ": 2770,
      "å±Ĥ": 2771,
      "ä½ķæĽ¾": 2772,
      "âĢĻâĢĺ": 2773,
      "æĮģ": 2774,
      "èµ°èĩ³": 2775,
      "è¢ŃäººçŃī": 2776,
      "çĹĩ": 2777,
      "å¾Ģåīį": 2778,
      "æĿİå¬·å¬·": 2779,
      "åĲįåĶ¤": 2780,
      "ç¼ł": 2781,
      "æ¢¨": 2782,
      "èĪħèĪħ": 2783,
      "èķĬ": 2784,
      "æį¢äºĨ": 2785,
      "å½¼æŃ¤": 2786,
      "ä¾ĦåĦ¿": 2787,
      "æĭįæīĭ": 2788,
      "æ½ĩæ¹ĺé¦Ĩ": 2789,
      "çĲ¥çıĢ": 2790,
      "èª": 2791,
      "åıĻ": 2792,
      "ä¸įèµ·": 2793,
      "ä¹Į": 2794,
      "æĿĢ": 2795,
      "ä¸Ģè§ģ": 2796,
      "åĲ¯": 2797,
      "æĺ¯ä¸Ģ": 2798,
      "ä»ĸä¹Ł": 2799,
      "è¿Ļå±ĭéĩĮ": 2800,
      "ä½łæĢİä¹Ī": 2801,
      "è´¤": 2802,
      "åıĪæģĲ": 2803,
      "æŃĮ": 2804,
      "éĩĮéĹ´": 2805,
      "å°±èµ°": 2806,
      "æĭ©": 2807,
      "å¼ĥ": 2808,
      "èĩªä¸º": 2809,
      "æĬ¢": 2810,
      "èĬ¦": 2811,
      "æĹ¶åĢĻ": 2812,
      "åĪ°è¿ĻéĩĮ": 2813,
      "æĹłè¯Ŀ": 2814,
      "å±ķ": 2815,
      "æĭ¿åĩº": 2816,
      "æĮª": 2817,
      "å£¶": 2818,
      "æ¬ł": 2819,
      "èĭ¥è¯´": 2820,
      "æĪĸæĺ¯": 2821,
      "çľŁçľŁ": 2822,
      "è´¾çĲıéģĵ": 2823,
      "æ¯Ķä¸įå¾Ĺ": 2824,
      "å¥³åŃ©": 2825,
      "èĢĮä¸Ķ": 2826,
      "æ»´": 2827,
      "ç¢İ": 2828,
      "æĹ¢è¿Ļæł·": 2829,
      "å°¤æ°ıéģĵ": 2830,
      "æĭīäºĨ": 2831,
      "åģļä»Ģä¹Ī": 2832,
      "è®©æĪĳ": 2833,
      "ä»¤äºº": 2834,
      "åģıçĶŁ": 2835,
      "è±Ĩ": 2836,
      "åĪĺå§¥å§¥éģĵ": 2837,
      "æ¼Ķ": 2838,
      "ä½ĵéĿ¢": 2839,
      "å§Ķå±Ī": 2840,
      "æ¢³æ´Ĺ": 2841,
      "å¤§è§ĤåĽŃ": 2842,
      "èĺħèĬľ": 2843,
      "äº¡": 2844,
      "äºĨå¤´": 2845,
      "ä»ģ": 2846,
      "çļĦä¸į": 2847,
      "çļĦä¸Ģ": 2848,
      "ä¸įä¾¿": 2849,
      "ä¸įç¦ģ": 2850,
      "ä¸įéĺ²": 2851,
      "ä¹ī": 2852,
      "ä¸Ģè¡Į": 2853,
      "åĽº": 2854,
      "æľīåĩł": 2855,
      "åħ¸": 2856,
      "åıªè¦ģ": 2857,
      "éĤ£ä¸«å¤´": 2858,
      "ä¾¿åĲĳ": 2859,
      "éĥ½ç¬ĳéģĵ": 2860,
      "çº³": 2861,
      "çľĭçľĭ": 2862,
      "å¿Ļåĳ½": 2863,
      "åĢĴå¥½": 2864,
      "æīĵäºĨ": 2865,
      "åįģäºĶ": 2866,
      "æĪĳä»¬çļĦ": 2867,
      "å¦¹åŃĲ": 2868,
      "âĢĻãĢĤâĢĿ": 2869,
      "çĥĽ": 2870,
      "æĹ©æĻļ": 2871,
      "æ´ĭ": 2872,
      "åĮ¹": 2873,
      "éĩĳèį£": 2874,
      "æıŃ": 2875,
      "å®ļè¦ģ": 2876,
      "å±ĭåŃĲ": 2877,
      "è¶ĬæĢ§": 2878,
      "å²Ĥæľī": 2879,
      "èĩªçĦ¶æĺ¯": 2880,
      "ç«Ļåľ¨": 2881,
      "çĨŁ": 2882,
      "åħīæĻ¯": 2883,
      "åĪ©å®³": 2884,
      "æ¸Ĳæ¸Ĳ": 2885,
      "å¦¥å½ĵ": 2886,
      "è§ĴéĹ¨": 2887,
      "æ¢ħèĬ±": 2888,
      "ä¸²": 2889,
      "å¤ŁäºĨ": 2890,
      "ä¸įä¿¡": 2891,
      "ä¹İ": 2892,
      "æĿĥ": 2893,
      "ä¸Ģåľº": 2894,
      "åĲĲ": 2895,
      "æĺ¯æĪĳ": 2896,
      "ä»ĸè¿Ļ": 2897,
      "åŃ¤": 2898,
      "åŃĺ": 2899,
      "ä½łæĿ¥": 2900,
      "è´§": 2901,
      "éĩĩ": 2902,
      "è´¾å¦ĥ": 2903,
      "ä¾¿å¾Ģ": 2904,
      "åĽŀèº«": 2905,
      "åĽŀèĩ³": 2906,
      "å¼¥": 2907,
      "è¦ģçŁ¥": 2908,
      "ä¸¤åı¥": 2909,
      "äºĭçļĦ": 2910,
      "å¿ĥäºĨ": 2911,
      "ç½®": 2912,
      "æł¼": 2913,
      "è¾ī": 2914,
      "çĦļ": 2915,
      "åįģä¸ª": 2916,
      "ç§Ģ": 2917,
      "å¤ļäºĨ": 2918,
      "åĸĬ": 2919,
      "èį¡": 2920,
      "ä¼Ĺäººéģĵ": 2921,
      "èĥİ": 2922,
      "æ±ī": 2923,
      "æ¡¥": 2924,
      "äºĶåĦ¿": 2925,
      "ä½¿äºº": 2926,
      "å¹¶ä¸į": 2927,
      "æıĴ": 2928,
      "åĳĬè¯īäºĨ": 2929,
      "èį£åĽ½åºľ": 2930,
      "è®°æĮĤ": 2931,
      "æ³ķåŃĲ": 2932,
      "å°ļæľª": 2933,
      "ä¼Ĺäººéĥ½éģĵ": 2934,
      "æµ·æ£ł": 2935,
      "æĬ¬å¤´": 2936,
      "èģĶéģĵ": 2937,
      "è¹ĦåŃĲ": 2938,
      "æļĤä¸Ķ": 2939,
      "æĹıä¸Ń": 2940,
      "èĹķå®ĺ": 2941,
      "ç£ķå¤´": 2942,
      "åĿłåĦ¿": 2943,
      "è²Į": 2944,
      "ä¸įåĩºæĿ¥": 2945,
      "ä¸įè¯¥": 2946,
      "ä¸Ģå¹¶": 2947,
      "æĪĳæľī": 2948,
      "æĪĳè¿ĻéĩĮ": 2949,
      "æĪĳç«Ł": 2950,
      "è¿Ļåı¯": 2951,
      "è¿ĻçŃī": 2952,
      "ä½łåİ»": 2953,
      "ä½łåħĪ": 2954,
      "åĪĢ": 2955,
      "è´£": 2956,
      "æŃ¦": 2957,
      "å®¶åŃĲ": 2958,
      "å°±ä¸į": 2959,
      "åĴı": 2960,
      "èĩªåİ»": 2961,
      "çŃīè¯Ń": 2962,
      "æĶĴ": 2963,
      "äºĽä»Ģä¹Ī": 2964,
      "çĪ¬": 2965,
      "è¢ĭ": 2966,
      "è´¾æ¯įåĲ¬äºĨ": 2967,
      "åĪ«å¤Ħ": 2968,
      "åĲİæĤĶ": 2969,
      "ä¸īåĽĽ": 2970,
      "ä¸İå®Ŀçİī": 2971,
      "åĳ½ä»ĸ": 2972,
      "æĺ¥çĩķ": 2973,
      "å¤ĦæĿ¥": 2974,
      "å®ĿéĴĹçŃī": 2975,
      "åĩºæĿ¥äºĨ": 2976,
      "é¥¿": 2977,
      "åĽĽåŃĹ": 2978,
      "èµ·æĿ¥äºĨ": 2979,
      "å¾ĢæĹ¥": 2980,
      "æĹ©èµ·": 2981,
      "ä»İå°ıåĦ¿": 2982,
      "èĤ¡": 2983,
      "æĶ¾èĳĹ": 2984,
      "ç¢Ł": 2985,
      "å¿½åĲ¬": 2986,
      "çĭĤ": 2987,
      "åĵŃéģĵ": 2988,
      "å¼ŁåħĦ": 2989,
      "è®©ä»ĸ": 2990,
      "è®©åĿĲ": 2991,
      "æĸ°é²ľ": 2992,
      "èĻİ": 2993,
      "æĢ¥äºĨ": 2994,
      "æŃĩæģ¯": 2995,
      "æĢ¨ä¸įå¾Ĺ": 2996,
      "èµĸå¤§": 2997,
      "èķī": 2998,
      "æºľ": 2999,
      "åİħä¸Ĭ": 3000,
      "è¤¥": 3001,
      "æ·ĺæ°Ķ": 3002,
      "æħ¢æħ¢çļĦ": 3003,
      "è¯ģ": 3004,
      "ä¸Ģé¦ĸ": 3005,
      "ä¸ĢåĿĹ": 3006,
      "æĺ¾": 3007,
      "éģĹ": 3008,
      "ä½łåıªç®¡": 3009,
      "æī®": 3010,
      "ä¹Łå¥½": 3011,
      "è´¾åºľ": 3012,
      "è§ģè´¾æ¯į": 3013,
      "å®ĿçİīåĽł": 3014,
      "åĨ°": 3015,
      "å¤§å°ı": 3016,
      "å¤´åĦ¿": 3017,
      "ä¸ĭçļĦ": 3018,
      "æĸ½": 3019,
      "è¦ģåİ»": 3020,
      "äºĭæĥħ": 3021,
      "å¸ĥ": 3022,
      "éĢ¢": 3023,
      "æłı": 3024,
      "çĪ½": 3025,
      "åĲĥè¿ĩ": 3026,
      "ç«ł": 3027,
      "åĬ©": 3028,
      "å¯Ħ": 3029,
      "åĴĮå°ļ": 3030,
      "åĨįè¯´": 3031,
      "ä¹Łä¸įå¥½": 3032,
      "åįģæĿ¥": 3033,
      "å§ĳåŃĲ": 3034,
      "èįĴ": 3035,
      "ç´¯": 3036,
      "å§ĳå¨ĺçļĦ": 3037,
      "åĽĽäºĶ": 3038,
      "çŀħ": 3039,
      "å¥¶å¥¶çļĦ": 3040,
      "èĤļ": 3041,
      "æµª": 3042,
      "åĶĨ": 3043,
      "æ¡Ĳ": 3044,
      "ä½¿ä¸įå¾Ĺ": 3045,
      "åĲĦäºº": 3046,
      "å¥³åŃĲ": 3047,
      "èĢĮåİ»": 3048,
      "è·ŁäºĨ": 3049,
      "ç¢į": 3050,
      "æĭīä½ı": 3051,
      "åĬĿéģĵ": 3052,
      "èĸĽèŁłéģĵ": 3053,
      "åĨĻäºĨ": 3054,
      "çłļ": 3055,
      "æĮĩèĳĹ": 3056,
      "æ·»äºĨ": 3057,
      "åĤ»": 3058,
      "å½¼æĹ¶": 3059,
      "æĿ¿åĦ¿": 3060,
      "åĺ»åĺ»": 3061,
      "è¾Ľèĭ¦": 3062,
      "ä¸¥": 3063,
      "ä»Ĩ": 3064,
      "ä¹ĸ": 3065,
      "å®ħ": 3066,
      "æĿĲ": 3067,
      "ä¸Ģç¬ĳ": 3068,
      "ä¸Ģå¤´": 3069,
      "ä¸Ģä¼ļåŃĲ": 3070,
      "å°Ħ": 3071,
      "åİĮ": 3072,
      "è¿Ļä¸¤ä¸ª": 3073,
      "æīŃ": 3074,
      "æľīä½ķ": 3075,
      "åıĪåı«": 3076,
      "éĤª": 3077,
      "åıªåľ¨": 3078,
      "åįĪ": 3079,
      "çľ·": 3080,
      "ä¾¿ä¸į": 3081,
      "æ¯¡": 3082,
      "èĢĹ": 3083,
      "åľ¨æŃ¤": 3084,
      "ä¹ĭå®¶": 3085,
      "è®Ń": 3086,
      "åĽłèĢĮ": 3087,
      "èĢģåŃĲ": 3088,
      "å¨ģ": 3089,
      "æ²¡ä¸ª": 3090,
      "éĹ®æĪĳ": 3091,
      "è¾ĵ": 3092,
      "å¯¼": 3093,
      "æĹłåı¯": 3094,
      "éĽ¶": 3095,
      "ä½ľçļĦ": 3096,
      "åĨįä¸į": 3097,
      "åįģåħŃ": 3098,
      "ä½ķå¤Ħ": 3099,
      "åīįæĿ¥": 3100,
      "éĹ¨å¤ĸ": 3101,
      "ç´¢": 3102,
      "ç»Ļä»ĸä»¬": 3103,
      "é¢¦": 3104,
      "é¥°": 3105,
      "éĢģæĿ¥": 3106,
      "é£ĺ": 3107,
      "å½ĵèĳĹ": 3108,
      "ä»İæĿ¥": 3109,
      "èĤł": 3110,
      "æµĳ": 3111,
      "èĢģå¤ªå¤ªçļĦ": 3112,
      "æĶ¾äºĨ": 3113,
      "å°¤ä¸īå§Ĳ": 3114,
      "å©Ĩå©Ĩ": 3115,
      "åºĶäºĨ": 3116,
      "çĸ¯": 3117,
      "è¿ĻäºĽäºº": 3118,
      "æĴķ": 3119,
      "èŁ¹": 3120,
      "çĭł": 3121,
      "èħ¾": 3122,
      "åĬ¨äºĨ": 3123,
      "å±±çŁ³": 3124,
      "çĨ¬": 3125,
      "åŁĭ": 3126,
      "çªĹå¤ĸ": 3127,
      "ä¼¤å¿ĥ": 3128,
      "èĥ¡è¯´": 3129,
      "åĪ°åºķæĺ¯": 3130,
      "é²į": 3131,
      "æĵ¦": 3132,
      "è¿Ļåĩłå¹´": 3133,
      "Ģä½Ľ": 3134,
      "Ļåĩ¤": 3135,
      "äº®": 3136,
      "ä¸Ģäºĭ": 3137,
      "ä¸ĢçĻ¾": 3138,
      "äººçŃī": 3139,
      "æĪĳäºĨ": 3140,
      "è¯´ä»Ģä¹Ī": 3141,
      "åŃ½": 3142,
      "å¥Ķ": 3143,
      "æī¹": 3144,
      "ç¬¦": 3145,
      "ä¸ĬæĪ¿": 3146,
      "ä¸Ĭå¤ľ": 3147,
      "ä¾¿åıĪ": 3148,
      "ä¾¿å¿Ļ": 3149,
      "ä¾¿åı«": 3150,
      "åľ¨å¤ĸå¤´": 3151,
      "åľ¨åºĬä¸Ĭ": 3152,
      "ç»«": 3153,
      "ç»ľ": 3154,
      "æĸĭ": 3155,
      "å¿ĻèĳĹ": 3156,
      "æĦļ": 3157,
      "æģŃ": 3158,
      "å¤ļå¿ĥ": 3159,
      "éĻµ": 3160,
      "éĻĢä½Ľ": 3161,
      "ä¿Ĭ": 3162,
      "èĦĳ": 3163,
      "æĪ¿åŃĲ": 3164,
      "æ¬¾": 3165,
      "çĥ«": 3166,
      "æĬĬæĪĳ": 3167,
      "æĬĬä½ł": 3168,
      "èĩ³æ¬¡æĹ¥": 3169,
      "ä½łä»¬çļĦ": 3170,
      "æĤ¦": 3171,
      "äº²åıĭ": 3172,
      "ç¥Ł": 3173,
      "ä½ıèĳĹ": 3174,
      "ç©ºåĦ¿": 3175,
      "çľ¼èī²": 3176,
      "åį´è¯´": 3177,
      "æĿİè´µ": 3178,
      "åĽŃåŃĲéĩĮ": 3179,
      "è¡Įäºĭ": 3180,
      "åħ¶ä¸Ń": 3181,
      "è¿ĻäºĽä¸ľè¥¿": 3182,
      "æĹ¢æĺ¯": 3183,
      "è´¾çıįéģĵ": 3184,
      "çŃĶéģĵ": 3185,
      "èħ¹": 3186,
      "ä¾ĿæĪĳè¯´": 3187,
      "çĻ¾èĪ¬": 3188,
      "çĮ®": 3189,
      "å¾ħè¦ģ": 3190,
      "åİŁæĿ¥è¿Ļ": 3191,
      "è¿Ļä¼ļåŃĲåıĪ": 3192,
      "è·ĳäºĨ": 3193,
      "çĨĻåĩ¤": 3194,
      "è½¬èº«": 3195,
      "ç¨»": 3196,
      "åĭī": 3197,
      "è¸ı": 3198,
      "çĻ»æĹ¶": 3199,
      "æī§äºĭ": 3200,
      "éĺ¿å¼¥": 3201,
      "éĺ¿å¼¥éĻĢä½Ľ": 3202,
      "±¼": 3203,
      "å´": 3204,
      "é±¼": 3205,
      "äºķ": 3206,
      "è¿°": 3207,
      "ä¸įæĢķ": 3208,
      "ä¸ĢåĲĮ": 3209,
      "æĪĳåı¯": 3210,
      "æĪĳå¦Ĥä»Ĭ": 3211,
      "è¿Ļä¹Ł": 3212,
      "å§ĭ": 3213,
      "å¿ł": 3214,
      "æīİ": 3215,
      "åİ»åĳ¢": 3216,
      "åĪĴ": 3217,
      "è´º": 3218,
      "åıĪæĿ¥": 3219,
      "å¾ĭ": 3220,
      "è§ģçļĦ": 3221,
      "åĨł": 3222,
      "æ¯Ĵ": 3223,
      "å¤§äºº": 3224,
      "å¤§å¨ĺ": 3225,
      "å°±è¯´": 3226,
      "ç»ķ": 3227,
      "åĽŀæĺİ": 3228,
      "ä¹ĭä¸Ń": 3229,
      "äºĮå¹´": 3230,
      "åĴķ": 3231,
      "æŀī": 3232,
      "åı¯è§ģ": 3233,
      "åīĳ": 3234,
      "è¾ĥ": 3235,
      "æĹłæ³ķ": 3236,
      "åĲİéĹ¨": 3237,
      "è¿ĽåĽŃ": 3238,
      "æĻĮ": 3239,
      "ä¹Łä¸įå¿ħ": 3240,
      "ä¸īå§ĳå¨ĺ": 3241,
      "åĩłå¹´": 3242,
      "çĶŁäºĭ": 3243,
      "ä¿Ĳ": 3244,
      "å¤ĸäºº": 3245,
      "æ³¨": 3246,
      "æ´ŀ": 3247,
      "æµ®": 3248,
      "åĳĬè¾ŀ": 3249,
      "çŁ¥éģĵçļĦ": 3250,
      "æķħäºĭ": 3251,
      "èŁ¾": 3252,
      "æĳĶ": 3253,
      "ä¸įå¥½äºĨ": 3254,
      "é¡½ç¬ĳ": 3255,
      "èĸĽå§¨å¦Īéģĵ": 3256,
      "åĲĥäºĨé¥Ń": 3257,
      "ç´«èĭ±": 3258,
      "çħ§ç®¡": 3259,
      "çİ°åľ¨": 3260,
      "ç«ĻèĳĹ": 3261,
      "ç«Ļèµ·æĿ¥": 3262,
      "ç«ĭåĪ»": 3263,
      "ä¹ĥæĺ¯": 3264,
      "éĽªéĽģ": 3265,
      "é¼»": 3266,
      "é¼ł": 3267,
      "èĥĮåľ°éĩĮ": 3268,
      "çĸĳæĥĳ": 3269,
      "éĥİ": 3270,
      "ç¾İäºº": 3271,
      "åļ¼": 3272,
      "èĴĻ": 3273,
      "åģ¶çĦ¶": 3274,
      "çĴĥ": 3275,
      "å¥³åŃ©åĦ¿": 3276,
      "é²įäºĮ": 3277,
      "åı¨": 3278,
      "è¯¯äºĨ": 3279,
      "çļĦå¾Ī": 3280,
      "ä¸įå¤ļ": 3281,
      "ä¸įæıĲ": 3282,
      "ä¸įè±¡": 3283,
      "ä¸Ģä¼ļ": 3284,
      "æĪĳåħĪ": 3285,
      "æľĭ": 3286,
      "ä»ĸå®¶": 3287,
      "ä½łéĤ£": 3288,
      "åİ»åĲİ": 3289,
      "ä¹Łæľª": 3290,
      "èĳĹå®ŀ": 3291,
      "åıĪæĢķ": 3292,
      "æĢģ": 3293,
      "å¤§èĢģçĪ·": 3294,
      "åĩºä¸Ģä¸ª": 3295,
      "åĲ¬ä»ĸ": 3296,
      "åĲ¬å¦ĤæŃ¤è¯´": 3297,
      "æĭŃ": 3298,
      "ä¹ĭå¿ĥ": 3299,
      "æ²¾": 3300,
      "åĢ¦": 3301,
      "å¸Į": 3302,
      "èĩªæľī": 3303,
      "è¿ĺè¯´": 3304,
      "åĽłåĲĳ": 3305,
      "å°ıå¿ĥ": 3306,
      "å°ıåŃ©åŃĲ": 3307,
      "åı«ä½ľ": 3308,
      "ç«¥": 3309,
      "åĢĴäºĨ": 3310,
      "åĢĴä¹Ł": 3311,
      "åĴĮå®Ŀçİī": 3312,
      "è¿ĽæĿ¥äºĨ": 3313,
      "çİĭåĸĦ": 3314,
      "åĩłæĹ¥": 3315,
      "ä¸ºäºº": 3316,
      "æīĭåĨħ": 3317,
      "æĭ¿åİ»": 3318,
      "ä»¥ä¸º": 3319,
      "æĺİå¹´": 3320,
      "æĬĬéĤ£": 3321,
      "ç»ĻäºĨ": 3322,
      "èĸĽå®ĿéĴĹ": 3323,
      "ä¼ļæĦı": 3324,
      "èĥŃ": 3325,
      "è´¾çĲıç¬ĳéģĵ": 3326,
      "çĸ¾": 3327,
      "éªĳ": 3328,
      "ç¬¬ä¸Ģ": 3329,
      "å°¤æ°ıç¬ĳéģĵ": 3330,
      "æĿİçº¨ç¬ĳéģĵ": 3331,
      "æ£Ģ": 3332,
      "éļıä¾¿": 3333,
      "è¿Ļä¹ĪèĳĹ": 3334,
      "è¿Ļä¹Īå¤§": 3335,
      "çķĻå¿ĥ": 3336,
      "å¿µéģĵ": 3337,
      "åŃĿæķ¬": 3338,
      "çİ°æĪĲ": 3339,
      "å¢ĥ": 3340,
      "æģĲæĢķ": 3341,
      "äº¤ä¸İ": 3342,
      "æ¡Įä¸Ĭ": 3343,
      "ä½ĻèĢħ": 3344,
      "åĶ¬çļĦ": 3345,
      "æ¡ĤèĬ±": 3346,
      "éĥ¨": 3347,
      "éĢłåĮĸ": 3348,
      "æ¡ĥèĬ±": 3349,
      "ä»ĹèĳĹ": 3350,
      "èŃ¦å¹»": 3351,
      "èł¢": 3352,
      "åĭīå¼º": 3353,
      "çİĭåĸĦä¿Ŀ": 3354,
      "»çĴĥ": 3355,
      "æĨ": 3356,
      "ĻèĮĹ": 3357,
      "ä¸Ī": 3358,
      "åı©": 3359,
      "è¿Ĳ": 3360,
      "å®ĭ": 3361,
      "ä½©": 3362,
      "ä¸Ģå¿ĥ": 3363,
      "ä¸Ģè¾¹": 3364,
      "æĿ¥å¾Ģ": 3365,
      "äººè¯´": 3366,
      "æĪĳåİŁ": 3367,
      "æĪĳéĤ£éĩĮ": 3368,
      "æĪĳèĻ½": 3369,
      "å°¼": 3370,
      "æľ±": 3371,
      "çİ»çĴĥ": 3372,
      "ä½łäºĨ": 3373,
      "åŃĲåħ´": 3374,
      "è´±": 3375,
      "éĩĬ": 3376,
      "åıĪä¸įæĺ¯": 3377,
      "åıĪä¸įå¥½": 3378,
      "ç¬ĳéĹ®éģĵ": 3379,
      "è´¾åħ°": 3380,
      "è§ģéĹ®": 3381,
      "åįł": 3382,
      "æĢ¯": 3383,
      "åĨĮ": 3384,
      "ä¾¿å®ľ": 3385,
      "å¥½å¤Ħ": 3386,
      "èĢ¶": 3387,
      "èĢĲ": 3388,
      "å°±è¦ģ": 3389,
      "æĹ¥åĲİ": 3390,
      "æĭħ": 3391,
      "äºĮä½į": 3392,
      "è®¿": 3393,
      "çľĭæĪı": 3394,
      "å¿Ļä¸ĬæĿ¥": 3395,
      "æ¯įå¥³": 3396,
      "éĢī": 3397,
      "çŃīçī©": 3398,
      "æłĩ": 3399,
      "åĿ¡": 3400,
      "å¤ªå¤ªä»¬": 3401,
      "å¯¸": 3402,
      "çĦĻèĮĹ": 3403,
      "æŃ£åĢ¼": 3404,
      "è¡¾": 3405,
      "æĥ³çļĦ": 3406,
      "æĥ³æĺ¯": 3407,
      "æĸ¹æ¬²": 3408,
      "æģį": 3409,
      "ä¸īäºĶ": 3410,
      "ä½ķåĨµ": 3411,
      "èºº": 3412,
      "ä¿ı": 3413,
      "èĪ¹": 3414,
      "äº²å®¶": 3415,
      "æ³¼": 3416,
      "ç¥¸": 3417,
      "çīµ": 3418,
      "æīĢæľīçļĦ": 3419,
      "æĹ©æľī": 3420,
      "æŃ»çļĦ": 3421,
      "ä½¿åĶ¤": 3422,
      "æŁĵ": 3423,
      "æĲĢ": 3424,
      "éĻ¢ä¸Ń": 3425,
      "æŀĹé»Ľçİīéģĵ": 3426,
      "è¯´è¯ĿåĦ¿": 3427,
      "çĮ©": 3428,
      "çķĻèĳĹ": 3429,
      "çħ§çľĭ": 3430,
      "ç«Ļä½ı": 3431,
      "åıĹäºĨ": 3432,
      "å®ģåĽ½åºľ": 3433,
      "éºĿæľĪéģĵ": 3434,
      "åĥı": 3435,
      "ä¸¢äºĨ": 3436,
      "èĨı": 3437,
      "è¿Ļä¸¤æĹ¥": 3438,
      "æĥŁæľī": 3439,
      "èį·åĮħ": 3440,
      "èģªæĺİ": 3441,
      "è¦ģçŁ¥ç«¯çļĦ": 3442,
      "§å¼Ĥ": 3443,
      "ĥèŁ¹": 3444,
      "å¤ķ": 3445,
      "è¯§å¼Ĥ": 3446,
      "çļĦå¿ĥ": 3447,
      "çļĦä¸Ģä¸ª": 3448,
      "ä¸įä¼ļ": 3449,
      "ä¸įè§£": 3450,
      "æĿŁ": 3451,
      "ä¸Ģå¸¦": 3452,
      "æĿ¥åĽŀ": 3453,
      "éģĵäºº": 3454,
      "æĪĳæ²¡": 3455,
      "ä½łæĪĳ": 3456,
      "ä½łæĹ¢": 3457,
      "ä½łçŀ§çŀ§": 3458,
      "å¦Ĵ": 3459,
      "ä¹ŁæĽ¾": 3460,
      "è§ħ": 3461,
      "åĪĹ": 3462,
      "æľīè¿Ļä¸ª": 3463,
      "æľīçĲĨ": 3464,
      "èĳ¬": 3465,
      "èĳĹæĪĳ": 3466,
      "èĳĹäºĽ": 3467,
      "ç¬ĳçļĦ": 3468,
      "ç¬ĳåĲĳ": 3469,
      "éĤ£å®Ŀçİī": 3470,
      "åĨ¬": 3471,
      "åĨĽ": 3472,
      "å¥½ä¸įå¥½": 3473,
      "å¥½å¦¹å¦¹": 3474,
      "å®¶ä¸ĭ": 3475,
      "å¤§çº¦": 3476,
      "ç»®": 3477,
      "ç»µ": 3478,
      "ç»Ľ": 3479,
      "ä¸ĭéĿ¢": 3480,
      "æ²³": 3481,
      "ä¸¤ä¸īä¸ª": 3482,
      "æķĳ": 3483,
      "éĢı": 3484,
      "æ²¡æĦıæĢĿ": 3485,
      "çŃīäºº": 3486,
      "è°ĵ": 3487,
      "åĢĴè¦ģ": 3488,
      "èĭĳ": 3489,
      "æĹłäºĭ": 3490,
      "çĦ¦": 3491,
      "éĽ·": 3492,
      "äºĨä¸Ģè·³": 3493,
      "ç§»": 3494,
      "çĶŁå¾Ĺ": 3495,
      "èĪŀ": 3496,
      "æĪ¿éĹ¨": 3497,
      "ä¼Ĺäººç¬ĳéģĵ": 3498,
      "åĮ£": 3499,
      "çľ¼éĩĮ": 3500,
      "æĪĸèĢħ": 3501,
      "çĿģ": 3502,
      "æŁĶ": 3503,
      "è§īå¾Ĺ": 3504,
      "ç¤º": 3505,
      "æĲĤ": 3506,
      "æĴĳ": 3507,
      "åıĸäºĨ": 3508,
      "åıĸä¹Ĳ": 3509,
      "è¯´çļĦæĺ¯": 3510,
      "éĻ¢åĨħ": 3511,
      "ç¦Ħ": 3512,
      "åª³å¦ĩä»¬": 3513,
      "çĮ´": 3514,
      "åģıåıĪ": 3515,
      "çĬ¶": 3516,
      "ä»įæĺ¯": 3517,
      "ç¨ĭ": 3518,
      "åŃĻåŃĲ": 3519,
      "çĶ±ä¸įå¾Ĺ": 3520,
      "æļĹæļĹ": 3521,
      "å¡«": 3522,
      "è°ĥåĶĨ": 3523,
      "è¿ĻåĩłæĹ¥": 3524,
      "é¾Ħ": 3525,
      "åĨ¯ç´«èĭ±": 3526,
      "èŀĥèŁ¹": 3527,
      "æ¦»ä¸Ĭ": 3528,
      "ç»Ĩç»ĨçļĦ": 3529,
      "é¢ľèī²": 3530,
      "æĻºèĥ½": 3531,
      "æīĭå¸ķåŃĲ": 3532,
      "Ļèĵī": 3533,
      "çļĦå¤§": 3534,
      "çļĦå·¥å¤«": 3535,
      "ä¸Ģå¤©": 3536,
      "ä¸ĢæľĪ": 3537,
      "ä¸Ģè·¯": 3538,
      "ä¸Ģåĳ³": 3539,
      "éģ®": 3540,
      "æĿ¥è¯·": 3541,
      "æĿ¥çŀ§": 3542,
      "äººä¹ĭ": 3543,
      "æĪĳåĴĮ": 3544,
      "æĪĳä¸Ķ": 3545,
      "å°¾": 3546,
      "è¯´æĿ¥": 3547,
      "ä½łåĳ¢": 3548,
      "ä½łä¸¤ä¸ª": 3549,
      "ä½łæĺ¯ä¸ª": 3550,
      "åĽ°": 3551,
      "å®ĿèŁ¾": 3552,
      "èµĭ": 3553,
      "ä¾§": 3554,
      "åľ£": 3555,
      "éĤ£æĺ¯": 3556,
      "å®ĿçİīåıĪ": 3557,
      "å®Ŀçİīåľ¨": 3558,
      "åĨ²": 3559,
      "ä¾¿è¦ģ": 3560,
      "ä¾¿èµ·èº«": 3561,
      "åľ¨åĨħ": 3562,
      "ç»Ł": 3563,
      "åĩºä¸Ģ": 3564,
      "å¤´çļĦ": 3565,
      "æĭ³": 3566,
      "åĽŀæĿ¥äºĨ": 3567,
      "ä¹ĭå¤ĸ": 3568,
      "æ²ģ": 3569,
      "å°ıçĩķ": 3570,
      "å¿Ļèµ·èº«": 3571,
      "èĬĻèĵī": 3572,
      "åı¯ä¸įæĺ¯": 3573,
      "æ²¡è§ģ": 3574,
      "æ²¡èĦ¸": 3575,
      "å¨ĺå¨ĺ": 3576,
      "åĲĥäºĨä¸Ģ": 3577,
      "åĵī": 3578,
      "æĹłæīĢ": 3579,
      "æĥ³éģĵ": 3580,
      "æĥ³ä¸įåĪ°": 3581,
      "æĻĵ": 3582,
      "ä¹Łä¸įè¿ĩ": 3583,
      "ä¹Łä¸įçŁ¥éģĵ": 3584,
      "åĩłåı¥": 3585,
      "äºĨä¸Ģéģį": 3586,
      "å±ŀ": 3587,
      "ä½ķäºĭ": 3588,
      "é¸¾": 3589,
      "æĭ¿èµ·": 3590,
      "èµ°åĪ°": 3591,
      "æĬĬä»ĸ": 3592,
      "æĤŁ": 3593,
      "åĩºæĿ¥çļĦ": 3594,
      "çģĮ": 3595,
      "æĢİä¹Īè¯´": 3596,
      "æĢİä¹Īå°±": 3597,
      "èĤĿ": 3598,
      "æµİ": 3599,
      "éĩĳéĻµ": 3600,
      "æĿİæ°ı": 3601,
      "ç²¥": 3602,
      "è¿ĻäºĽè¯Ŀ": 3603,
      "è£¤": 3604,
      "åªļ": 3605,
      "èħ»": 3606,
      "é¡½è¯Ŀ": 3607,
      "éĨĭ": 3608,
      "åĺ´éĩĮ": 3609,
      "âĢĻï¼ĮâĢĺ": 3610,
      "åįĥä¸ĩ": 3611,
      "è®¤çľŁ": 3612,
      "ä»įæĹ§": 3613,
      "éĿŀå¸¸": 3614,
      "åħŃåįģ": 3615,
      "æ¼Ĩ": 3616,
      "ä¸Ģå£°åĦ¿": 3617,
      "æİ¨ä»ĸ": 3618,
      "è¹²": 3619,
      "åĩŃä»ĸ": 3620,
      "å§ĶæĽ²": 3621,
      "éĻ¤äºĨ": 3622,
      "èĿ¶": 3623,
      "èĨĿ": 3624,
      "å½¢å®¹": 3625,
      "åºĻéĩĮ": 3626,
      "âĢ¦âĢ¦": 3627,
      "ç¡¬": 3628,
      "ä¼¶ä¿Ĳ": 3629,
      "æ¢¨é¦Ļ": 3630,
      "èªĵ": 3631,
      "èĥŃèĦĤ": 3632,
      "çİĭåĸĦä¿Ŀå®¶çļĦ": 3633,
      "äºĨèµ·æĿ¥": 3634,
      "åıł": 3635,
      "è¯Ĭ": 3636,
      "è¯ļ": 3637,
      "ä¸įéĶĻ": 3638,
      "ä¸įè¶³": 3639,
      "ä¸ĢåįĬ": 3640,
      "ä¸Ģçķª": 3641,
      "æĿ¥è¯´": 3642,
      "æľ«": 3643,
      "ä»ĸåľ¨": 3644,
      "ä»ĸè¿ĺ": 3645,
      "ä»ĸæ¯įäº²": 3646,
      "è¿Ļåĩłä¸ª": 3647,
      "å¿Ĺ": 3648,
      "ç¬ĳéĹ®": 3649,
      "éĤ£äºº": 3650,
      "åį¿": 3651,
      "ä¼¯": 3652,
      "å¤§åĵŃ": 3653,
      "å¤§å«ĤåŃĲ": 3654,
      "ç»Ń": 3655,
      "æĥ§": 3656,
      "çŁ¥æĺ¯": 3657,
      "ä¹ĭå£°": 3658,
      "åĴ³": 3659,
      "åĴĴ": 3660,
      "èĩªå¹¼": 3661,
      "åºŃ": 3662,
      "çº·": 3663,
      "å¿Ļå¿ĻçļĦ": 3664,
      "éĢĥ": 3665,
      "æ²¡è¶£": 3666,
      "è°ħ": 3667,
      "æŃ¤åĪ»": 3668,
      "è¢±": 3669,
      "æīįåĪļ": 3670,
      "ç®¸": 3671,
      "è¾°": 3672,
      "è¾ľ": 3673,
      "å¤ªå¤ªçļĦ": 3674,
      "æīĵæī«": 3675,
      "æĹłä¸į": 3676,
      "è·Į": 3677,
      "è¿Ľäº¬": 3678,
      "ä¹Łä¸įæĺ¯": 3679,
      "å±Ģ": 3680,
      "å¤©æ°Ķ": 3681,
      "ä¼Ĺå§Ĭå¦¹": 3682,
      "æĦıæ¬²": 3683,
      "ä¸İè´¾æ¯į": 3684,
      "éĹ¨åŃĲ": 3685,
      "é¸Ł": 3686,
      "æĮº": 3687,
      "èĭ¥è®º": 3688,
      "è½©": 3689,
      "è½®": 3690,
      "ç®¡å®¶": 3691,
      "æ³ī": 3692,
      "éĢģèĩ³": 3693,
      "åĪĨæĺİ": 3694,
      "ä¸¤ä¸ªå©ĨåŃĲ": 3695,
      "ä¸įå¾ĹäºĨ": 3696,
      "æĢİä¹ĪäºĨ": 3697,
      "èı©": 3698,
      "å¹¶æ²¡": 3699,
      "æ¯ĶåħĪ": 3700,
      "å®īæŃĩ": 3701,
      "èĢĮæĿ¥": 3702,
      "æį¶": 3703,
      "ãĢĢãĢĢãĢĢãĢĢ": 3704,
      "æĳĺ": 3705,
      "æħĪ": 3706,
      "å¼łéģĵå£«": 3707,
      "éĹ¹çļĦ": 3708,
      "ç´łä¹ł": 3709,
      "é©¾": 3710,
      "èģĺ": 3711,
      "åħ´å¤´": 3712,
      "éľ¸": 3713,
      "çħİ": 3714,
      "ç¥ŀä»Ļ": 3715,
      "åķ¼": 3716,
      "èĻ«": 3717,
      "æīĵåıĳäººæĿ¥": 3718,
      "æŃĩæŃĩ": 3719,
      "åĽ½åħ¬": 3720,
      "èĪħæ¯į": 3721,
      "ä¼¤æĦŁ": 3722,
      "é¼İ": 3723,
      "ç³Ĭæ¶ĤäºĨ": 3724,
      "ä¸Ģä¸ĢçļĦ": 3725,
      "èĽĭ": 3726,
      "æĵįå¿ĥ": 3727,
      "å¯Ĥå¯": 3728,
      "ãĢĢãĢĢãĢĢãĢĢãĢĢãĢĢãĢĢ": 3729,
      "æ¾": 3730,
      "ä»°": 3731,
      "çļĦä¸Ģå£°": 3732,
      "ä¸įåĲ¬": 3733,
      "å®µ": 3734,
      "æĿľ": 3735,
      "ä¸Ģä¸¤": 3736,
      "ä¸ĢçĽ´": 3737,
      "éģĵå©Ĩ": 3738,
      "åĲ¾": 3739,
      "äººå¤ļ": 3740,
      "ä»ĸå¨ĺ": 3741,
      "åİ¢": 3742,
      "è¿Ļä¹Łæĺ¯": 3743,
      "åĩı": 3744,
      "ä½łå¿«": 3745,
      "å¿Į": 3746,
      "å¿ĸ": 3747,
      "ä¸ªä»Ģä¹Ī": 3748,
      "åħģ": 3749,
      "èµ¤": 3750,
      "åıªåī©": 3751,
      "è§ģäºº": 3752,
      "è§ģè¯Ĩ": 3753,
      "åĳµ": 3754,
      "åĳĢ": 3755,
      "éĤ£èµ·": 3756,
      "éĤ£åºľéĩĮ": 3757,
      "ä¾¿éģĵ": 3758,
      "èĩŃ": 3759,
      "æĸ¯": 3760,
      "æĭ¨": 3761,
      "æĭĶ": 3762,
      "éĥ½æľī": 3763,
      "å¦Ĥæµ·": 3764,
      "è¿ĩä¸Ģ": 3765,
      "åºĨ": 3766,
      "è¿ĺå¥½": 3767,
      "éĴ»": 3768,
      "åĽłä»ĸ": 3769,
      "æİī": 3770,
      "å½ķ": 3771,
      "è´¾æ¯įçİĭå¤«äºº": 3772,
      "åĿĽ": 3773,
      "æīĵå¼Ģ": 3774,
      "éĽķ": 3775,
      "å¤ļæĹ©æĻļ": 3776,
      "å§ĳå¦Ī": 3777,
      "çĪ·ä»¬": 3778,
      "èĦ¾": 3779,
      "èĦı": 3780,
      "èĦĸ": 3781,
      "èĩ³äºİ": 3782,
      "è½½": 3783,
      "æĤł": 3784,
      "æľĪéĴ±": 3785,
      "ä¸¤ä¸ªåŃĹ": 3786,
      "äºĶçĻ¾": 3787,
      "è¿Ļæł·è¯´": 3788,
      "çĤ¹åŃĲ": 3789,
      "åĲįåĦ¿": 3790,
      "æıĸ": 3791,
      "çļĨæľī": 3792,
      "ç¬¬ä¸ĥ": 3793,
      "æĴĤ": 3794,
      "çĭĲ": 3795,
      "èħ®": 3796,
      "åĵŃäºĨ": 3797,
      "å¯¹èģĶ": 3798,
      "åıįåĢĴ": 3799,
      "å±±åĿ¡": 3800,
      "ç§ĭæ¡Ĳ": 3801,
      "èĻĳ": 3802,
      "æ¦Ń": 3803,
      "å½©éľŀ": 3804,
      "çĨı": 3805,
      "éŃĦ": 3806,
      "ç¨į": 3807,
      "é¢ĺçĽ®": 3808,
      "ç¦ģä¸įä½ı": 3809,
      "åį³åĪ»": 3810,
      "åĭ¤": 3811,
      "æģ¼äºĨ": 3812,
      "è¯¸äºº": 3813,
      "æ·±çŁ¥": 3814,
      "å¸ĺåŃĲ": 3815,
      "éĢĢåĩº": 3816,
      "åĲ«ç¬ĳ": 3817,
      "ä¸ĢçĤ¹åĦ¿": 3818,
      "éĽĢåĦ¿": 3819,
      "å¤®åĳĬ": 3820,
      "ç¨»é¦Ļ": 3821,
      "æłĩèĩ´": 3822,
      "é¾Ħå®ĺ": 3823,
      "æ²ģèĬ³": 3824,
      "æ¢¨é¦ĻéĻ¢": 3825,
      "çĺ": 3826,
      "ĠĠ": 3827,
      "äºĨä»ĸä»¬": 3828,
      "çļĦæīĭ": 3829,
      "ä¸įå®ī": 3830,
      "ä¸įè¯Ń": 3831,
      "ä¹³": 3832,
      "å®¦": 3833,
      "ä¸Ģè¯´": 3834,
      "ä¸Ģèī²": 3835,
      "æĺŃ": 3836,
      "æĿ¥åĳ¢": 3837,
      "æĿ¥æī¾": 3838,
      "äººäºĨ": 3839,
      "æĪĳå¿ĥéĩĮ": 3840,
      "æĺ¯äºĨ": 3841,
      "æĺ¯ä½ķ": 3842,
      "è¯´åĩºæĿ¥": 3843,
      "æĹ¦": 3844,
      "æĹ¨": 3845,
      "è¿Ļè¿ĺ": 3846,
      "è¿Ļä¸įæĺ¯": 3847,
      "åŃĶ": 3848,
      "ä½łçľĭ": 3849,
      "ä½łåĨį": 3850,
      "ä¹Łå¤ª": 3851,
      "ä¹Łç®Ĺ": 3852,
      "ç¬Ľ": 3853,
      "åĪº": 3854,
      "èĳĹä¸Ģä¸ª": 3855,
      "åıĪåĲ¬": 3856,
      "åıĪæ°Ķ": 3857,
      "åıĪä¸įæķ¢": 3858,
      "å¾¡": 3859,
      "èµİ": 3860,
      "éĩĮçļĦ": 3861,
      "ä¸ĬåŃ¦": 3862,
      "åĨ»": 3863,
      "åľ¨åľ°ä¸ĭ": 3864,
      "å°±ç½¢äºĨ": 3865,
      "ç»¸": 3866,
      "æĥļ": 3867,
      "æĥ¯äºĨ": 3868,
      "æĭĮ": 3869,
      "ä¹ĭå¦»": 3870,
      "ä¹ĭç±»": 3871,
      "å¼¯": 3872,
      "çŃµ": 3873,
      "çŃĭ": 3874,
      "è¿ĺå¾Ĺ": 3875,
      "å¿ĥçļĦ": 3876,
      "æ°¸": 3877,
      "å°ıäºº": 3878,
      "å¨ĺåĦ¿ä»¬": 3879,
      "æŃ¤å¤Ħ": 3880,
      "è¾±": 3881,
      "å¯¡": 3882,
      "èĭı": 3883,
      "éĽĦ": 3884,
      "è·µ": 3885,
      "åĲİå¤´": 3886,
      "åĨįåİ»": 3887,
      "å¤©åľ°": 3888,
      "æĦıåĦ¿": 3889,
      "ä¸İä½ł": 3890,
      "æĪĳä»¬å®¶": 3891,
      "çĪ·çĪ·": 3892,
      "æĭ¿æĪĳ": 3893,
      "éĤ£éĩĮåİ»äºĨ": 3894,
      "éĤ£éĩĮçŁ¥éģĵ": 3895,
      "çĹĴ": 3896,
      "å©¿": 3897,
      "éĢģåĪ°": 3898,
      "è¿ŀæĹ¥": 3899,
      "ä¸ľè¾¹": 3900,
      "æ´ģ": 3901,
      "æ´Ĵ": 3902,
      "åıªè§ģå®Ŀçİī": 3903,
      "åıªè§ģä¸Ģä¸ª": 3904,
      "åĶĩ": 3905,
      "å¼ĢéĹ¨": 3906,
      "æ¢¯": 3907,
      "æŀľè§ģ": 3908,
      "çĽ¸åħ¬": 3909,
      "æħķ": 3910,
      "é¡½çļĦ": 3911,
      "é¡½èĢį": 3912,
      "æīĢä»¥æĪĳ": 3913,
      "é¹¿": 3914,
      "è¿Ļä¹Īä¸ª": 3915,
      "åĨĻèĳĹ": 3916,
      "åħ«ä¹Ŀ": 3917,
      "æľ¬æĿ¥": 3918,
      "è¿ĳæĿ¥": 3919,
      "é©¬éģĵå©Ĩ": 3920,
      "æŁ³æ¹ĺèİ²": 3921,
      "éĻªç¬ĳéģĵ": 3922,
      "æ®¡": 3923,
      "æ®¿": 3924,
      "è¿ľçļĦ": 3925,
      "åıĹçĶ¨": 3926,
      "æķĻè®Ń": 3927,
      "ä½ĵç»Ł": 3928,
      "ä¸ĥåħ«": 3929,
      "éŃĶ": 3930,
      "æ¥ļ": 3931,
      "å¾Īæĺ¯": 3932,
      "æĺİçĻ½äºĨ": 3933,
      "ç¦»äºĨ": 3934,
      "åĶ¬äºĨä¸Ģè·³": 3935,
      "ä¸¢ä¸ĭ": 3936,
      "ç²¾ç¥ŀ": 3937,
      "éĺ´éĺ³": 3938,
      "ç£¨": 3939,
      "å½¢æĻ¯": 3940,
      "ç°ĩ": 3941,
      "è¤Ĥ": 3942,
      "éĵģæ§Ľ": 3943,
      "å¸®èĳĹ": 3944,
      "æ¨¡æł·åĦ¿": 3945,
      "èķĬå®ĺ": 3946,
      "èĺħèĬľèĭĳ": 3947,
      "æ¸Ĳæ¸ĲçļĦ": 3948,
      "½åŃĲ": 3949,
      "èļ": 3950,
      "ä¸½": 3951,
      "äºĨå®Ŀçİī": 3952,
      "äºĨä¸¤ä¸ª": 3953,
      "ä¸įå¦¨": 3954,
      "ä¸įä¸ŃçĶ¨": 3955,
      "å®¾": 3956,
      "ä¸Ģå¤§": 3957,
      "ä¸Ģå¸Ń": 3958,
      "ä¸ĢæŃ¥": 3959,
      "ä¸ĢæĿ¡": 3960,
      "æĪĺ": 3961,
      "ï¼ļâĢľâĢĺ": 3962,
      "åĲ´": 3963,
      "äººåĽŀ": 3964,
      "äººå®¶çļĦ": 3965,
      "æĪĳåĲ¬è§ģ": 3966,
      "å°º": 3967,
      "è¯´èµ·": 3968,
      "ä»ĸäºĨ": 3969,
      "è¿Ļåı¥": 3970,
      "ä½łæĶ¾å¿ĥ": 3971,
      "ä¹Łç¬ĳéģĵ": 3972,
      "åŃĲå¼Ł": 3973,
      "åĦ¿å¥³": 3974,
      "æľīåĩłä¸ª": 3975,
      "åıĪçľĭ": 3976,
      "èµļ": 3977,
      "éĤĢ": 3978,
      "å®Ŀçİīè§ģä»ĸ": 3979,
      "å®¶å¸¸": 3980,
      "åľ¨æĹģ": 3981,
      "å¤§éĹ¨": 3982,
      "çĶľ": 3983,
      "å°±æĿ¥": 3984,
      "å¤´ä¸Ģ": 3985,
      "æĭĨ": 3986,
      "éĥ½è¦ģ": 3987,
      "ä¹ĭçĲĨ": 3988,
      "å¼¹": 3989,
      "è¿ĩåİ»äºĨ": 3990,
      "è¿ĩäºİ": 3991,
      "åºı": 3992,
      "èĢģäºĨ": 3993,
      "çľĭæĿ¥": 3994,
      "ä»Ĭè§ģ": 3995,
      "è°¨": 3996,
      "è°ĭ": 3997,
      "åĲĥæ¯ķ": 3998,
      "æİĲ": 3999,
      "åīĤ": 4000,
      "æīįç½¢": 4001,
      "åĿı": 4002,
      "åĿŁ": 4003,
      "æīĵèĳĹ": 4004,
      "æĥ³åĪ°": 4005,
      "é»ĽçİīåĲ¬äºĨ": 4006,
      "éļĨ": 4007,
      "æĻ¨": 4008,
      "æģķ": 4009,
      "çİĭå¤ªåĮ»": 4010,
      "ä¸īåĽŀ": 4011,
      "åĩłå¤Ħ": 4012,
      "ä¸ºä½ķ": 4013,
      "ä½ķå°Ŀ": 4014,
      "éĻħ": 4015,
      "æĪĳä»¬å¥¶å¥¶": 4016,
      "èĬ±äºĨ": 4017,
      "æĮ£": 4018,
      "èĭ¥æľī": 4019,
      "ä½łä»¬å°±": 4020,
      "åĽĽåĽŀ": 4021,
      "èĮľ": 4022,
      "çīĽ": 4023,
      "æīĢæľī": 4024,
      "çİĭå¤«äººç¬ĳéģĵ": 4025,
      "æĪĲæĹ¥": 4026,
      "çķĮ": 4027,
      "éĩĳéĵ¶": 4028,
      "å®īæħ°": 4029,
      "ä¹¦æĪ¿": 4030,
      "éªĮ": 4031,
      "é£İæľĪ": 4032,
      "è¡Įç¤¼": 4033,
      "äº¦æĺ¯": 4034,
      "ç²®": 4035,
      "çĽ¸è§ģ": 4036,
      "çĿ¡åİ»": 4037,
      "çĿ¡ä¸ĭ": 4038,
      "èĲ¨": 4039,
      "ç¾Ĭ": 4040,
      "æ¯ıæ¯ı": 4041,
      "é¹¤": 4042,
      "çĮĽ": 4043,
      "è¿Ļä¹Īè¯´": 4044,
      "åĨĻéģĵæĺ¯": 4045,
      "å°½äºĨ": 4046,
      "æ»¡éĿ¢": 4047,
      "ä½Ĩåıª": 4048,
      "é½¿": 4049,
      "çĬ¯äºĨ": 4050,
      "è¿Ļæĺ¯ä»Ģä¹Ī": 4051,
      "æĸĩç«ł": 4052,
      "éĻªèĳĹ": 4053,
      "åĹĶ": 4054,
      "è®ºçĲĨ": 4055,
      "å¹³å®ī": 4056,
      "å®ģèį£": 4057,
      "è½¬è¿ĩ": 4058,
      "åĳ¨çĳŀå®¶çļĦéģĵ": 4059,
      "éĢļçģµ": 4060,
      "éģĩè§ģäºĨ": 4061,
      "ç¯±": 4062,
      "ä¹ĿåĽŀ": 4063,
      "å¾Īå¥½": 4064,
      "çĶ·åŃĲ": 4065,
      "å»¶": 4066,
      "çĤķæ²¿": 4067,
      "è¸ª": 4068,
      "å½ĴåĿĲ": 4069,
      "æĥĬåĬ¨": 4070,
      "ãĢĤâĢĻâĢĿ": 4071,
      "åī©çļĦ": 4072,
      "ç§ģèĩª": 4073,
      "å·¦åı³": 4074,
      "æĴĴè°İ": 4075,
      "å°ıä¸«å¤´åŃĲä»¬": 4076,
      "åĮĹéĿĻ": 4077,
      "æĳĩå¤´": 4078,
      "è®°æĮĤèĳĹ": 4079,
      "æľĭåıĭ": 4080,
      "ä¹Łæľªåı¯çŁ¥": 4081,
      "èı©èĲ¨": 4082,
      "å¯Ĥå¯ŀ": 4083,
      "éĵģæ§Ľå¯º": 4084,
      "ç¨Ģ": 4085,
      "ä¸ģ": 4086,
      "ä¸ĳ": 4087,
      "äºĨä¸ĭæĿ¥": 4088,
      "çļĦåĳ¢": 4089,
      "çļĦä¸«é¬Ł": 4090,
      "ä¸įä¸ĭ": 4091,
      "ä¸įå¦¥": 4092,
      "ä¸įç»Ŀ": 4093,
      "ä¸įçĽ¸å¹²": 4094,
      "ä¹ı": 4095,
      "æĪ³": 4096,
      "æĺ¼": 4097,
      "äººçī©": 4098,
      "æĪĳåĲĥ": 4099,
      "æĪĳæŃ£": 4100,
      "æĺ¯å®Ŀçİī": 4101,
      "å°ĸ": 4102,
      "ä»ĸåĢĴ": 4103,
      "ä½łèĭ¥": 4104,
      "åĽĬ": 4105,
      "å¦Ħ": 4106,
      "ä¹Łå¾Ĺ": 4107,
      "ä¹Łéļ¾": 4108,
      "ç¬¨": 4109,
      "è´¥": 4110,
      "åıĪä¸įçŁ¥": 4111,
      "åħ·": 4112,
      "åħħ": 4113,
      "èµ¢": 4114,
      "ç¬ĳè¯´éģĵ": 4115,
      "è´¾æķ¬": 4116,
      "åĳľ": 4117,
      "å®Ŀçİīåıªå¾Ĺ": 4118,
      "ä¸Ĭä¸Ģ": 4119,
      "ä¸ĬçŃī": 4120,
      "ä¾¿æĬĬ": 4121,
      "ä¾¿åĳ½äºº": 4122,
      "çĶ²": 4123,
      "å°±åľ¨": 4124,
      "å¾ĹæĦı": 4125,
      "åĩºè¿Ļ": 4126,
      "å¤´æĿ¥": 4127,
      "ä¸ĭæµģ": 4128,
      "éĥ½ç¬ĳäºĨ": 4129,
      "ä¹ĭæĥħ": 4130,
      "äºĮä¸¤": 4131,
      "äºĮå§¨": 4132,
      "çŃ¾": 4133,
      "ä¸¤å¤Ħ": 4134,
      "æĬ¿": 4135,
      "è¯ĿæĿ¥": 4136,
      "è¯ĿåĦ¿": 4137,
      "èĢģäººå®¶": 4138,
      "æĹ¶èĬĤ": 4139,
      "çŃīä»ĸ": 4140,
      "çĽ¥": 4141,
      "å¥¶å¨ĺ": 4142,
      "æİĢ": 4143,
      "æīįè¦ģ": 4144,
      "è´¾æ¯įåĲ¬è¯´": 4145,
      "è¾Ĩ": 4146,
      "èĭį": 4147,
      "æīĵçļĦ": 4148,
      "æīĵæŃ»": 4149,
      "æīĵæī®": 4150,
      "æĥ³æ¯ķ": 4151,
      "æł·åŃĲ": 4152,
      "æĸ¹åĽŀ": 4153,
      "åĲİæĹ¥": 4154,
      "éļľ": 4155,
      "åĨįèĢħ": 4156,
      "æĻ¶": 4157,
      "äºĨä¸Ģå¤ľ": 4158,
      "ç§¯": 4159,
      "åīįéĿ¢": 4160,
      "æīĭä¸Ń": 4161,
      "é¸Ń": 4162,
      "æĭ¿åĩºæĿ¥": 4163,
      "è¶Ł": 4164,
      "é¢ł": 4165,
      "ç¥ł": 4166,
      "æĹ©é¥Ń": 4167,
      "èĤĥ": 4168,
      "æµħ": 4169,
      "æµĬ": 4170,
      "çķı": 4171,
      "åĶ§": 4172,
      "æ¡Ķ": 4173,
      "éļ¾å¾Ĺ": 4174,
      "éħĴæĿ¥": 4175,
      "çľ¼æ³ª": 4176,
      "åĽŃéĹ¨": 4177,
      "çľŁä¸ª": 4178,
      "æŁĲ": 4179,
      "åĴ±ä»¬çļĦ": 4180,
      "çļĨåĽł": 4181,
      "ç¼Ŀ": 4182,
      "æĽ´è§ī": 4183,
      "äº¦ä¸į": 4184,
      "ç»Ĩè¯´": 4185,
      "ç¬¬äºĮåįģ": 4186,
      "è´¾çıįçŃī": 4187,
      "å¤ľéĩĮ": 4188,
      "å°¤æ°ıçŃī": 4189,
      "ç¾¡": 4190,
      "éĻ¢éĹ¨": 4191,
      "å©ĨåŃĲä»¬": 4192,
      "èģĮ": 4193,
      "æĭīä»ĸ": 4194,
      "é¹ħ": 4195,
      "éĹ²äºĨ": 4196,
      "åħ«åĽŀ": 4197,
      "æĢ§åŃĲ": 4198,
      "çŁ³å¤´": 4199,
      "å°ıä¸«å¤´ä»¬": 4200,
      "ä»ĸçļĦæīĭ": 4201,
      "æ³ķåĦ¿": 4202,
      "çľģå¾Ĺ": 4203,
      "çľģäº²": 4204,
      "è®®è®º": 4205,
      "èĥĮåĲİ": 4206,
      "åĭĴ": 4207,
      "ç»Īä¹ħ": 4208,
      "çĶ·å¥³": 4209,
      "çĥ¦æģ¼": 4210,
      "ç±į": 4211,
      "æº¶": 4212,
      "è¸¢": 4213,
      "é¥®é£Ł": 4214,
      "æĢİä¹Īæł·åĳ¢": 4215,
      "æ¹ĺèİ²éģĵ": 4216,
      "åįģäºĮä¸ª": 4217,
      "éĨīäºĨ": 4218,
      "åħĥæĺ¥": 4219,
      "èľ¡": 4220,
      "éĹºéĺģ": 4221,
      "ç®±åŃĲ": 4222,
      "çĶĦå®¶": 4223,
      "ÂłÂł": 4224,
      "ä¸°åĦ¿": 4225,
      "æªĲ": 4226,
      "åĺ»åĺ»çļĦ": 4227,
      "åĴ³åĹ½": 4228,
      "«çĳ": 4229,
      "æ©": 4230,
      "äº«": 4231,
      "äºĨè®¸å¤ļ": 4232,
      "è¿½": 4233,
      "è¯°": 4234,
      "ä¸Ģæĥ³": 4235,
      "ä¸Ģæīĭ": 4236,
      "ä¸Ģè§ģäºĨ": 4237,
      "ä¸Ģå®¶åŃĲ": 4238,
      "æĿ¥å®¶": 4239,
      "åĲī": 4240,
      "æĪĳéĥ½": 4241,
      "æĪĳå·²": 4242,
      "æĪĳèĩªå·±": 4243,
      "è¯´ä½ł": 4244,
      "æľµ": 4245,
      "åİ¦": 4246,
      "çİ«çĳ": 4247,
      "åĩ»": 4248,
      "å¿§": 4249,
      "æī£": 4250,
      "ä¹ŁæĿ¥": 4251,
      "æľīè¯Ŀ": 4252,
      "è´¢": 4253,
      "è´ª": 4254,
      "èĳĹæīĭ": 4255,
      "åıĪåĴĮ": 4256,
      "éĤ£ä¹Ī": 4257,
      "éĤ£å°ı": 4258,
      "éĤ£åĥ§": 4259,
      "åį¯": 4260,
      "å®Ŀçİīä¹Ł": 4261,
      "ä¾¿æľī": 4262,
      "ä¾¿èµ°": 4263,
      "å¥½ä¸ª": 4264,
      "èĢĥ": 4265,
      "åĩºæ°Ķ": 4266,
      "æĭĸ": 4267,
      "éĥ½ç¬ĳèµ·æĿ¥": 4268,
      "çŃĿ": 4269,
      "è®ª": 4270,
      "èĬ¹": 4271,
      "ç½©": 4272,
      "éĿ¢ä¸Ĭ": 4273,
      "è°ķ": 4274,
      "çĽĹ": 4275,
      "åĵ¼": 4276,
      "åĵĢ": 4277,
      "åĵĪ": 4278,
      "åĢĴä¸į": 4279,
      "åĢĴèĮ¶": 4280,
      "èĭĶ": 4281,
      "æĹłæķħ": 4282,
      "æŃ£èĩª": 4283,
      "æŃ£æľĪ": 4284,
      "è¡Ķ": 4285,
      "æĥ³å¿ħ": 4286,
      "éĽĨ": 4287,
      "åĨįè¦ģ": 4288,
      "ä¸īæĽ´": 4289,
      "ä¸ºæĪĳ": 4290,
      "ä¼Ĺåª³å¦ĩ": 4291,
      "æĪĳä»¬è¿ĻéĩĮ": 4292,
      "å·²æ¯ķ": 4293,
      "å£®": 4294,
      "è¢Ńäººå¿Ļ": 4295,
      "åİŁè¯¥": 4296,
      "åĿĲä¸Ģ": 4297,
      "éĤ£éĩĮè¿ĺ": 4298,
      "éĤ£éĩĮèĤ¯": 4299,
      "çĶ¨æīĭ": 4300,
      "å¾Ģè´¾æ¯į": 4301,
      "èĸĽå®¶": 4302,
      "å§¨å¥¶å¥¶": 4303,
      "æĢİä¹Īä¸į": 4304,
      "æľªæĽ¾": 4305,
      "éĩĳçİī": 4306,
      "å¹³åĦ¿å¿Ļ": 4307,
      "å®ĺåı¸": 4308,
      "é¬ĵ": 4309,
      "åĴ±ä»¬å®¶": 4310,
      "æ¢ģ": 4311,
      "æŀľçľŁ": 4312,
      "åĳĬè¯īäºĨä»ĸ": 4313,
      "ç¢Į": 4314,
      "èĦ¸éĿ¢": 4315,
      "è¿ĻäºĽäºĭ": 4316,
      "åħ¥çĶ»": 4317,
      "è´¾æĶ¿ç¬ĳéģĵ": 4318,
      "çĿ¡èĳĹäºĨ": 4319,
      "æĪĳçļĦè¯Ŀ": 4320,
      "æĪĳçļĦå¿ĥ": 4321,
      "ä¸įå¥½æĦıæĢĿ": 4322,
      "å±ĭåĨħ": 4323,
      "è¯Ĺç¤¾": 4324,
      "æĶ¶èĳĹ": 4325,
      "å¯¹éĿ¢": 4326,
      "å²Ĥä¸įå¥½": 4327,
      "ä»¤åħ¶": 4328,
      "å¿µä¹¦": 4329,
      "æīĵåıĳäºĨ": 4330,
      "èµ¶æĿ¥": 4331,
      "çľģäºĭ": 4332,
      "åĪļèĩ³": 4333,
      "æ¼«": 4334,
      "ç¨³": 4335,
      "èĥ¡ä¹±": 4336,
      "ç´«é¹ĥç¬ĳéģĵ": 4337,
      "éĹ·çļĦ": 4338,
      "åı¦å¤ĸ": 4339,
      "æ··å¸Ĳ": 4340,
      "âĢĿï¼ĮâĢľ": 4341,
      "ä¸¢å¼Ģ": 4342,
      "èĪįä¸įå¾Ĺ": 4343,
      "æį§èĳĹ": 4344,
      "çĬ¹æľª": 4345,
      "éĥ¡": 4346,
      "ç¿»èº«": 4347,
      "æī§æĦı": 4348,
      "å·´ä¸įå¾Ĺ": 4349,
      "ä¸¾æŃ¢": 4350,
      "çĽĬåıĳ": 4351,
      "èľĤ": 4352,
      "æ±Ĺå·¾": 4353,
      "ä¿Ĺè¯Ńè¯´çļĦ": 4354,
      "éĻĪè®¾": 4355,
      "ä¼Ļè®¡": 4356,
      "é¢¦åĦ¿": 4357,
      "æĪĲæĹ¥å®¶": 4358,
      "åĮĹéĿĻçİĭ": 4359,
      "çİ«çĳ°": 4360,
      "å³": 4361,
      "ç¹": 4362,
      "äºĨç½¢": 4363,
      "äºĨä¸įæĪĲ": 4364,
      "ä»·": 4365,
      "çļĦæĿ¥": 4366,
      "çļĦè¯´": 4367,
      "çļĦéĴ±": 4368,
      "çļĦæĹ¥åŃĲ": 4369,
      "ä¸įæ¯Ķ": 4370,
      "ä¸įç®Ĺ": 4371,
      "ä¸įä¼¼": 4372,
      "ä¹ıäºĨ": 4373,
      "æĿ¨": 4374,
      "ä¸Ģå¹²": 4375,
      "ä¸Ģå¯¹": 4376,
      "ä¸Ģæł¹": 4377,
      "ä¸Ģè¾Ī": 4378,
      "æĪĴ": 4379,
      "æĪĳåľ¨": 4380,
      "æĪĳåĪ°": 4381,
      "æĪĳæĿ¥äºĨ": 4382,
      "æĪĳçŀ§çŀ§": 4383,
      "å°Ķ": 4384,
      "è¯´å¾Ĺ": 4385,
      "è¿ĻåĢĴ": 4386,
      "è¿Ļæľīä»Ģä¹Ī": 4387,
      "çİĩ": 4388,
      "åĩĦ": 4389,
      "ä½łçŀ§": 4390,
      "å§¬": 4391,
      "å¦ĸ": 4392,
      "ä¹Łåıª": 4393,
      "åĪ¤": 4394,
      "æľīæĦı": 4395,
      "æľīæīĢ": 4396,
      "æľīè¿Ļæł·": 4397,
      "èĳĹæĢ¥": 4398,
      "åıĪè¯´éģĵ": 4399,
      "åıªè§ī": 4400,
      "è´¾èı": 4401,
      "åĳĺ": 4402,
      "åį¸": 4403,
      "ä¸Ĭåīį": 4404,
      "ä¾¿åĴĮ": 4405,
      "å®¶åĬ¡": 4406,
      "å°±åıª": 4407,
      "åĩºç¥ŀ": 4408,
      "æĹ¥å¤ľ": 4409,
      "ï¼ŁâĢĻ": 4410,
      "æĸŁäºĨ": 4411,
      "éĿ´": 4412,
      "ä¹ĭä¸Ĭ": 4413,
      "å¦ĤæĦı": 4414,
      "ä¸¤ä¸ī": 4415,
      "ä¸¤ä»¶": 4416,
      "èĩªæŃ¤": 4417,
      "åº¶": 4418,
      "åºļ": 4419,
      "å¿ĥä¸Ĭ": 4420,
      "å°ıä¸«é¬Ł": 4421,
      "çľĭè§ģäºĨ": 4422,
      "éĢĲ": 4423,
      "åı¯ç¬ĳ": 4424,
      "æ²¡äºĭ": 4425,
      "è°¦": 4426,
      "å¥¶åŃĲ": 4427,
      "åĩ¤å§Ĳå§Ĳ": 4428,
      "ä¸Ģä¸ªæľĪ": 4429,
      "ç®Ń": 4430,
      "èĭĵ": 4431,
      "æīĵä»ĸ": 4432,
      "çĦī": 4433,
      "åĴĮä»ĸä»¬": 4434,
      "è¿ĽåŁİ": 4435,
      "éļĻ": 4436,
      "çİĭçĨĻåĩ¤": 4437,
      "åĩłæ¬¡": 4438,
      "åĩłå²ģ": 4439,
      "åįģåĢį": 4440,
      "å¤ļäºĭ": 4441,
      "å¤ļè°¢": 4442,
      "ä¸ºæĺ¯": 4443,
      "ä¸ºè¿Ļä¸ª": 4444,
      "çĶŁäºĨ": 4445,
      "å§ĳå¥¶å¥¶": 4446,
      "éĻį": 4447,
      "æĪĳä»¬è¿Ļ": 4448,
      "èĬ±çļĦ": 4449,
      "æĭ¿äºĨä¸Ģ": 4450,
      "èµ°ç½¢": 4451,
      "éħ¥": 4452,
      "è°ģå®¶": 4453,
      "è°ģè¿ĺ": 4454,
      "éĤ£éĩĮå°±": 4455,
      "é¥¼": 4456,
      "ä¸įçŁ¥æĢİä¹Ī": 4457,
      "çŀª": 4458,
      "å¾Ģå¤ĸ": 4459,
      "éĢģæĿ¥çļĦ": 4460,
      "å¥¶å¥¶ä»¬": 4461,
      "å½ĵå¹´": 4462,
      "éĺ»": 4463,
      "éĺħ": 4464,
      "èĻ½æľī": 4465,
      "è¿ĻéĩĮæĿ¥": 4466,
      "ä»İéĤ£éĩĮ": 4467,
      "æĪĲä¸Ģ": 4468,
      "èĤ©": 4469,
      "åĮł": 4470,
      "éĵľ": 4471,
      "ç«Łä¸į": 4472,
      "åįĬå¤©": 4473,
      "çĲıäºĮçĪ·": 4474,
      "äºĶæĽ´": 4475,
      "åĲĳä»ĸ": 4476,
      "æ¯Ķå¦Ĥ": 4477,
      "ä¸ľè¥¿æĿ¥": 4478,
      "æıī": 4479,
      "éª°": 4480,
      "æĽ´å¥½": 4481,
      "ç¬¬åĽĽåįģ": 4482,
      "ç¬¬äºĶåįģ": 4483,
      "ç¬¬ä¸īåįģ": 4484,
      "æĹ¢å¦ĤæŃ¤": 4485,
      "å¹²å¨ĺ": 4486,
      "çĭ¼": 4487,
      "å¤ľéĹ´": 4488,
      "ä¸»äºº": 4489,
      "ç¦Ģ": 4490,
      "é©³": 4491,
      "äºĨä»ĸæĿ¥": 4492,
      "åĬĿä»ĸ": 4493,
      "æ£ļ": 4494,
      "çĮ«": 4495,
      "æľ¬æĺ¯": 4496,
      "çł¸": 4497,
      "çĶ»åĦ¿": 4498,
      "ç¥ĸæ¯į": 4499,
      "è¢«äºº": 4500,
      "ä¹°çļĦ": 4501,
      "æŀģæĺ¯": 4502,
      "è·ĳæĿ¥": 4503,
      "å¹³å§ĳå¨ĺ": 4504,
      "éĢļåħ±": 4505,
      "æ·»ä¸Ĭ": 4506,
      "ä¸ĥåĽŀ": 4507,
      "å¥ĩäºĨ": 4508,
      "å¥ĩæĢª": 4509,
      "ç¯·": 4510,
      "åķĨéĩı": 4511,
      "æ¡ĮåŃĲ": 4512,
      "ä¸īä¸ªäºº": 4513,
      "åħ³äºĨ": 4514,
      "å¹¸äºı": 4515,
      "å®«è£ģ": 4516,
      "ç»£æ¡Ķ": 4517,
      "èĿī": 4518,
      "æī¿æľĽ": 4519,
      "åĲ«æ³ª": 4520,
      "ä¿±å·²": 4521,
      "éļĶèĳĹ": 4522,
      "éª¨èĤī": 4523,
      "æĭĲåŃĲ": 4524,
      "é»ĺé»ĺ": 4525,
      "è£ĻåŃĲ": 4526,
      "çĶ°åľ°": 4527,
      "ä½ķèĭ¦æĿ¥": 4528,
      "ä½©åĩ¤": 4529,
      "æģįæĥļ": 4530,
      "ç¨»é¦ĻæĿĳ": 4531,
      "¦Ĩ": 4532,
      "«èĬ¦": 4533,
      "µ®": 4534,
      "çµ®": 4535,
      "è¦Ĩ": 4536,
      "ï¼ĮâĢĶâĢĶ": 4537,
      "äºĨå¥½": 4538,
      "äºĨä¸įå¾Ĺ": 4539,
      "ä»ĩ": 4540,
      "è¿Ń": 4541,
      "è¯¦": 4542,
      "è¯ŀ": 4543,
      "ä¸įçŃĶ": 4544,
      "ä¸įå¤Ł": 4545,
      "ä¸įåłª": 4546,
      "ä¸įè¿Ń": 4547,
      "ä¸ĢäºĮ": 4548,
      "ä¸ĢçŃī": 4549,
      "ä¸ĢåĪĨ": 4550,
      "ä¸Ģçŀ§": 4551,
      "ä¸Ģè´´": 4552,
      "âĢĿâĢľ": 4553,
      "æĿ¥éĹ®": 4554,
      "åĲŀ": 4555,
      "æĪĳä¾¿": 4556,
      "å°¸": 4557,
      "è¯´ä¸įå¾Ĺ": 4558,
      "è¿ĻåıĪ": 4559,
      "è¿Ļä»¶": 4560,
      "åĩ¶": 4561,
      "ä½łåĵ¥åĵ¥": 4562,
      "åİ»æī¾": 4563,
      "ä¹ŁåĪ«": 4564,
      "ä¹Łåıªå¾Ĺ": 4565,
      "åŃĲèħ¾": 4566,
      "åĦ¿ä¸¤ä¸ª": 4567,
      "æľīä¸į": 4568,
      "èĳ«èĬ¦": 4569,
      "è´ŁäºĨ": 4570,
      "åľĥ": 4571,
      "è´¾å®¶": 4572,
      "è§ģæĪĳ": 4573,
      "åįı": 4574,
      "åĨĴ": 4575,
      "å¥½äºĭ": 4576,
      "å¥½ä¸ľè¥¿": 4577,
      "åľ¨è¿Ļ": 4578,
      "åľ¨èĢģå¤ªå¤ª": 4579,
      "åľ¨å±ĭéĩĮ": 4580,
      "åľ¨åĽŃéĩĮ": 4581,
      "å¹Ķ": 4582,
      "å¤§åĵ¥": 4583,
      "å¤§å¦¹å¦¹": 4584,
      "å¤§åĵ¥åĵ¥": 4585,
      "å°±è¯¥": 4586,
      "ç»¢": 4587,
      "æĥŃ": 4588,
      "ä¸ĭäºº": 4589,
      "æĸľ": 4590,
      "äºĮéĹ¨": 4591,
      "è¦ģèµ°": 4592,
      "ä¸¤åı£": 4593,
      "è®³": 4594,
      "åĢª": 4595,
      "æķ²": 4596,
      "æķı": 4597,
      "èĩªè§ī": 4598,
      "è¿ĺç½¢äºĨ": 4599,
      "å¿ĥçĸ¼": 4600,
      "èĢģå®ŀ": 4601,
      "å¿ĻåıĪ": 4602,
      "åĲĥåİ»": 4603,
      "åĲĥäºĽ": 4604,
      "æİ£": 4605,
      "å½¹": 4606,
      "è´¾æ¯įè¯´": 4607,
      "åĿĬ": 4608,
      "éĽĩ": 4609,
      "æĸ¹æĺ¯": 4610,
      "æĸ¹æķ£": 4611,
      "ä½ľè·µ": 4612,
      "çİĭåŃĲèħ¾": 4613,
      "ä¸īåĪĨ": 4614,
      "äºĨä¸Ģä¼ļ": 4615,
      "äºĨä¸Ģåı¥": 4616,
      "ç§ī": 4617,
      "å±ģ": 4618,
      "å¤ļæĥħ": 4619,
      "ä½ķçŃī": 4620,
      "ä¸İä»ĸä»¬": 4621,
      "å°ĨåĨĽ": 4622,
      "æĮ¤": 4623,
      "æĮ¥": 4624,
      "ä»¥åıĬ": 4625,
      "æĪ¿å±ĭ": 4626,
      "æĪ¿èĪį": 4627,
      "æĬĬä¸ª": 4628,
      "éħĮ": 4629,
      "çĤ®": 4630,
      "ä¸ĢéĿ¢è¯´èĳĹ": 4631,
      "åħĪæĹ¶": 4632,
      "å©ļ": 4633,
      "åĽĽçļĦ": 4634,
      "åĽĽåĦ¿": 4635,
      "ä¼ĹäººåĲ¬è¯´": 4636,
      "äºĳåĦ¿": 4637,
      "åĪĨä¾ĭ": 4638,
      "æĹ©äºĽ": 4639,
      "èĻ½å¦ĤæŃ¤è¯´": 4640,
      "èĤı": 4641,
      "ä¸įæĺ¯æĪĳ": 4642,
      "åıªè§ģä»ĸ": 4643,
      "èĩªå·±ä¹Ł": 4644,
      "æ±¡": 4645,
      "åįĬæĻĮ": 4646,
      "å©Ĩå¨ĺ": 4647,
      "éķĩ": 4648,
      "æŁ´": 4649,
      "æķħæŃ¤": 4650,
      "æįĨ": 4651,
      "æįī": 4652,
      "çļĨç³»": 4653,
      "é£İçŃĿ": 4654,
      "ç¼Ģ": 4655,
      "è¯¥æŃ»": 4656,
      "åħ¶æĦı": 4657,
      "æĽ´æ¯Ķ": 4658,
      "å®ļæĺ¯": 4659,
      "é¥ŃåĲİ": 4660,
      "ç»ĨéĹ®": 4661,
      "ç¬¬åįģ": 4662,
      "å«©": 4663,
      "æĴ°": 4664,
      "è´¾æĶ¿åĲ¬äºĨ": 4665,
      "èĵ¬": 4666,
      "æĻ´éĽ¯ç¬ĳéģĵ": 4667,
      "ç³Ł": 4668,
      "éķ¿åı¹": 4669,
      "èģĬ": 4670,
      "æĭīæī¯": 4671,
      "åĵŃçļĦ": 4672,
      "çªģ": 4673,
      "è¿Ļä¸Ģåı¥": 4674,
      "åģļçļĦ": 4675,
      "ä¹Łæĺ¯ä¸ª": 4676,
      "è¿ĺæľīä»Ģä¹Ī": 4677,
      "è¯´è¯ĿæĹ¶": 4678,
      "çĮª": 4679,
      "çķĻç¥ŀ": 4680,
      "åħ«ä¸ª": 4681,
      "æ¸ħåĩĢ": 4682,
      "å¾ħä¹¦": 4683,
      "æ¶¦": 4684,
      "ä¿¡åĦ¿": 4685,
      "å¿µä½Ľ": 4686,
      "æĸĩå®ĺ": 4687,
      "æĪĳä¹Łæ²¡": 4688,
      "éĤ¢å¤«äººçŃī": 4689,
      "åı¤ä»Ĭ": 4690,
      "è·¯ä¸Ĭ": 4691,
      "èĹ¤": 4692,
      "äº¤ç»Ļ": 4693,
      "åħ»çļĦ": 4694,
      "æĪ¿éĩĮçļĦ": 4695,
      "ä¸Ģæł·çļĦ": 4696,
      "æ¢¦ä¸Ń": 4697,
      "åĲ©åĴĲä»ĸ": 4698,
      "åŃĻå¥³åĦ¿": 4699,
      "ç¿łå¢¨": 4700,
      "ç»Īèº«": 4701,
      "å¤įåıĪ": 4702,
      "è®¾èĳĹ": 4703,
      "æŃ¢ä½ı": 4704,
      "ç²¾èĩ´": 4705,
      "åĳĨåŃĲ": 4706,
      "çĤ¹å¤´éģĵ": 4707,
      "èĮĹçĥŁéģĵ": 4708,
      "æĸĹç¯·": 4709,
      "æľºä¼ļ": 4710,
      "æĢ¡çº¢éĻ¢ä¸Ń": 4711,
      "èİ«èĭ¥": 4712,
      "çĭĹåĦ¿": 4713,
      "äºĨåįĬå¤©": 4714,
      "æªĢ": 4715,
      "åķĲäºĨä¸Ģåı£": 4716,
      "ç¹ģ": 4717,
      "®åŃĲ": 4718,
      "¯èĭĵ": 4719,
      "åµ": 4720,
      "åĦ": 4721,
      "Ĵéº": 4722,
      "äºĨè¿Ļä¸ª": 4723,
      "è¿Ī": 4724,
      "è¿ŁäºĨ": 4725,
      "è¯Į": 4726,
      "çļĦä¹Ł": 4727,
      "ä¸įä½ľ": 4728,
      "ä¸įçĶ±": 4729,
      "ä¸įæĥ¯": 4730,
      "ä¸įæĭĺ": 4731,
      "ä¸Ģä½į": 4732,
      "ä¸ĢæŀĿ": 4733,
      "ä¸Ģå®¿": 4734,
      "ä¸Ģå±Ĥ": 4735,
      "éģ¥": 4736,
      "æĿ¥çľĭ": 4737,
      "åĲģ": 4738,
      "äººåı£": 4739,
      "æĪĳæĢİä¹Ī": 4740,
      "æĪĳåį´": 4741,
      "æĪĳä»ĬåĦ¿": 4742,
      "æĪĳæĺİåĦ¿": 4743,
      "æĪĳå·²ç»ı": 4744,
      "æĪĳæĽ¿ä½ł": 4745,
      "æĺ¯éĤ£": 4746,
      "è¯´æĺİ": 4747,
      "è¿Ļå°±æĺ¯": 4748,
      "åĩ°": 4749,
      "åĩĿ": 4750,
      "ä½łä¸Ģ": 4751,
      "ä½łå¦Ĥä»Ĭ": 4752,
      "ä½łè¯´çļĦ": 4753,
      "ä½łè¿Ļä¸Ģ": 4754,
      "å¥ģ": 4755,
      "å¥ĳ": 4756,
      "å¿Ĵ": 4757,
      "æīĳ": 4758,
      "åŃĲåİ»": 4759,
      "åĦ¿äºĨ": 4760,
      "åĦ¿åĳ¢": 4761,
      "åĪģ": 4762,
      "æľīäººæĿ¥": 4763,
      "è´Ŀ": 4764,
      "åıĪæľīä¸Ģ": 4765,
      "èµł": 4766,
      "éĹª": 4767,
      "åıªçŃī": 4768,
      "éĤ£åª³å¦ĩ": 4769,
      "å®Ŀçİīå¿Ļéģĵ": 4770,
      "ä¾¿éĥ½": 4771,
      "å°±å¥½": 4772,
      "å°±å¿ĺäºĨ": 4773,
      "ç»³": 4774,
      "ç»ĩ": 4775,
      "åĩºèĩ³": 4776,
      "åĩºåħ¥": 4777,
      "æĥł": 4778,
      "æĭ¥": 4779,
      "åĽŀè¿ĩ": 4780,
      "åĽŀåİ»äºĨ": 4781,
      "éĥ½éģĵ": 4782,
      "æ²Ĳ": 4783,
      "è¦ģä»Ģä¹Ī": 4784,
      "è¿ĩåĲİ": 4785,
      "å¸Ĥ": 4786,
      "è¿ĺåı¯": 4787,
      "æĬ¼": 4788,
      "éĴī": 4789,
      "åĽłåĳ½": 4790,
      "å°ıè¹ĦåŃĲ": 4791,
      "å¨¼": 4792,
      "èµ·çļĦ": 4793,
      "éĢĿ": 4794,
      "åı¯åĪ«": 4795,
      "è°ľ": 4796,
      "åı«æĿ¥": 4797,
      "åĬ«": 4798,
      "ä¸Ģä¸ªä¸ª": 4799,
      "ä¸Ģä¸ªå°ı": 4800,
      "è¾¾": 4801,
      "æīĵèµ·": 4802,
      "æĥ³èµ·æĿ¥": 4803,
      "æĸ¹ä¾¿": 4804,
      "é»Ľçİīä¾¿": 4805,
      "è¿ĽéĹ¨": 4806,
      "æģĭ": 4807,
      "çİĭä¸Ģè´´": 4808,
      "ä¸īçĻ¾": 4809,
      "åĩłä»¶": 4810,
      "äºĨä¸ĢæĹ¥": 4811,
      "äºĨä¸ĢæĿ¯": 4812,
      "ä¸ºçļĦæĺ¯": 4813,
      "å¤©ä¸Ĭ": 4814,
      "ä¸İæĪĳ": 4815,
      "æĪĳä»¬ä¹Ł": 4816,
      "å°Ĩä»ĸ": 4817,
      "å°ĨéĤ£": 4818,
      "å·²æľī": 4819,
      "å¹´ä¸ĭ": 4820,
      "é¸¦": 4821,
      "ä¿ĥ": 4822,
      "èĦıäºĨ": 4823,
      "å¤ĸéĹ´": 4824,
      "ä¸ĶåıĪ": 4825,
      "èĩ³æŃ¤": 4826,
      "èĩ³æĻļ": 4827,
      "çĤĴ": 4828,
      "å¦Ĥä»Ĭä¸Ķè¯´": 4829,
      "æĤī": 4830,
      "ä»ĸä»¬åİ»": 4831,
      "åıĳäºĨ": 4832,
      "ä¸įçŁ¥ä½ķ": 4833,
      "èĮ¯èĭĵ": 4834,
      "çŀİ": 4835,
      "è¥Ł": 4836,
      "çģ¾": 4837,
      "çģŃ": 4838,
      "åĮĻ": 4839,
      "æµĵ": 4840,
      "åı£æ°Ķ": 4841,
      "èĢģå¤ªå¤ªè¯´": 4842,
      "çŀ§äºĨ": 4843,
      "æĢķä»Ģä¹Ī": 4844,
      "çĲıäºĮå¥¶å¥¶": 4845,
      "å°¤èĢģå¨ĺ": 4846,
      "äºĶåħŃ": 4847,
      "åĸľä¹ĭ": 4848,
      "æĿİå©¶": 4849,
      "æĿİå®«è£ģ": 4850,
      "èī°": 4851,
      "è¿Ļæł·çļĦ": 4852,
      "éĴ±çļĦ": 4853,
      "éķ¯": 4854,
      "ä¹¦æĪ¿éĩĮ": 4855,
      "çĹħæĿ¥": 4856,
      "æĽ´è¡£": 4857,
      "ç»Ĩæĥ³": 4858,
      "æĴ¤": 4859,
      "æ°´æº¶": 4860,
      "å¹²äºĨ": 4861,
      "åªĴ": 4862,
      "å¿½åıĪ": 4863,
      "æħİ": 4864,
      "ç³ķ": 4865,
      "éķ¿äºĨ": 4866,
      "ç¦ħ": 4867,
      "è¯´äºĨåĩºæĿ¥": 4868,
      "ä¸ĸäºº": 4869,
      "ä¸ĸéĿ¢": 4870,
      "ä¸ĸäº¤": 4871,
      "çħŀ": 4872,
      "äºĨä»ĸçļĦ": 4873,
      "åĩłä¸ªéĴ±": 4874,
      "ä¹Łæĺ¯æľīçļĦ": 4875,
      "æĿİçº¨çŃī": 4876,
      "æ£º": 4877,
      "éĹ²èĳĹ": 4878,
      "èĸĽå§¨å¦Īç¬ĳéģĵ": 4879,
      "åħ«æľĪ": 4880,
      "éºĴéº": 4881,
      "ä½Ĩåĩ¡": 4882,
      "æĪıçļĦ": 4883,
      "åŃĿé¡º": 4884,
      "ãĢĭãĢĤ": 4885,
      "éĤ£è¾¹åİ»": 4886,
      "åįĥéĩĳ": 4887,
      "çłĮ": 4888,
      "æ´Ĺæīĭ": 4889,
      "çĸ¼ä»ĸ": 4890,
      "å¹³å¸¸": 4891,
      "å®ģåı¯": 4892,
      "æ¼ı": 4893,
      "äºĨä¸¤å£°": 4894,
      "æķĻå¯¼": 4895,
      "äºĮåįģä¸ª": 4896,
      "æģ¨çļĦ": 4897,
      "æŃ£æĺ¯åĳ¢": 4898,
      "æºº": 4899,
      "åĥ»": 4900,
      "å¡¾": 4901,
      "è¶ģæĹ©": 4902,
      "é¡ºè·¯": 4903,
      "èİºåĦ¿éģĵ": 4904,
      "å¼Ĥå¸¸": 4905,
      "éĢłæ¬¡": 4906,
      "è¿Ļè¾¹æĿ¥": 4907,
      "å·¦è¾¹": 4908,
      "èıĬèĬ±": 4909,
      "çº¢çİīéģĵ": 4910,
      "éķľåŃĲ": 4911,
      "èĭ±èİ²": 4912,
      "æ¸©æŁĶ": 4913,
      "è¯·äºĨå®ī": 4914,
      "ä¿Ĺè¯Ńè¯´": 4915,
      "ä»ªéĹ¨": 4916,
      "ç¡Ŀ": 4917,
      "çİ°æĪĲçļĦ": 4918,
      "æĨ¨": 4919,
      "âĢ¦âĢ¦âĢĿ": 4920,
      "åĢªäºĮ": 4921,
      "åĦĴ": 4922,
      "10": 4923,
      "12": 4924,
      "æ¿": 4925,
      "éī": 4926,
      "ãĢĪ": 4927,
      "ãĢī": 4928,
      "äºĨå¾Ĺ": 4929,
      "äºĨåı£": 4930,
      "ä»ĺ": 4931,
      "å¤¸": 4932,
      "è¿Ŀ": 4933,
      "çļĦåıĪ": 4934,
      "ä¸įä¸º": 4935,
      "ä¸įæŃ¢": 4936,
      "ä¸Ģåįĥ": 4937,
      "ä¸Ģåħ±": 4938,
      "ä¸Ģçīĩ": 4939,
      "ä¸Ģç¾¤": 4940,
      "åĲ¦": 4941,
      "æĪĳè§ģ": 4942,
      "æĪĳåĽł": 4943,
      "æĪĳè¿Ļä¸Ģ": 4944,
      "æĹº": 4945,
      "ä»ĸä¸į": 4946,
      "ä»ĸåĳ¢": 4947,
      "è¿Ļä¸«å¤´": 4948,
      "è¿Ļä»¶äºĭ": 4949,
      "ä½łå¨ĺ": 4950,
      "ä½łå¦¹å¦¹": 4951,
      "ä½łå¿ĥéĩĮ": 4952,
      "ä½łä¸įçĶ¨": 4953,
      "å¥¸": 4954,
      "æī°": 4955,
      "ä¸ªä¸įä½ı": 4956,
      "ä¹Łè¯´": 4957,
      "ä¹Łåı¯": 4958,
      "ä¹Łæľªå¿ħ": 4959,
      "åĦ¿æĿ¥": 4960,
      "æľīæĹ¶": 4961,
      "èĳĹä½ł": 4962,
      "èĳĹå®Ŀçİī": 4963,
      "èĳĹå¤´": 4964,
      "èĳĹçľ¼": 4965,
      "åıĪå¿Ļ": 4966,
      "åıĪæ²¡": 4967,
      "åıĪåĲ©åĴĲ": 4968,
      "åıĪåĺ±åĴĲ": 4969,
      "åħĨ": 4970,
      "åħľ": 4971,
      "åıªçĶ¨": 4972,
      "åıªæ±Ĥ": 4973,
      "éĤ£åŃ©åŃĲ": 4974,
      "åįľ": 4975,
      "çľł": 4976,
      "ä¸Ĭæľī": 4977,
      "ä¸ĬåĽŀ": 4978,
      "ä¸Ĭæ¬¡": 4979,
      "ä¾¿ä¹Ł": 4980,
      "ä¾¿åľ¨": 4981,
      "å®¶åİ»äºĨ": 4982,
      "åľ¨ä»ĸ": 4983,
      "å§Ĳå¦¹": 4984,
      "å¤§åĸľ": 4985,
      "çĶĺ": 4986,
      "å°±æĬĬ": 4987,
      "å¾ĹçļĦ": 4988,
      "å¾Ĺä½ı": 4989,
      "åĲ¬èĳĹ": 4990,
      "å·¡": 4991,
      "ä¸ĭå¤Ħ": 4992,
      "æĭĤ": 4993,
      "åĽŀéģ¿": 4994,
      "éĥ½ä¸Ń": 4995,
      "ä¹ĭæ¯į": 4996,
      "ä¹ĭåľ°": 4997,
      "ä¹ĭåĲį": 4998,
      "ä¹ĭéĻħ": 4999
    },
    "merges": [
      [
        "ï",
        "¼"
      ],
      [
        "ï¼",
        "Į"
      ],
      [
        "ä",
        "¸"
      ],
      [
        "ä",
        "º"
      ],
      [
        "ã",
        "Ģ"
      ],
      [
        "ãĢ",
        "Ĥ"
      ],
      [
        "â",
        "Ģ"
      ],
      [
        "äº",
        "Ĩ"
      ],
      [
        "ä",
        "»"
      ],
      [
        "å",
        "ı"
      ],
      [
        "å",
        "¤"
      ],
      [
        "è",
        "¿"
      ],
      [
        "ç",
        "ļ"
      ],
      [
        "è",
        "¯"
      ],
      [
        "çļ",
        "Ħ"
      ],
      [
        "ä¸",
        "į"
      ],
      [
        "ä",
        "¹"
      ],
      [
        "å",
        "®"
      ],
      [
        "ä",
        "½"
      ],
      [
        "æ",
        "Ŀ"
      ],
      [
        "ä¸",
        "Ģ"
      ],
      [
        "æ",
        "Ī"
      ],
      [
        "æ",
        "ĺ"
      ],
      [
        "âĢ",
        "Ŀ"
      ],
      [
        "é",
        "ģ"
      ],
      [
        "ï¼",
        "ļ"
      ],
      [
        "âĢ",
        "ľ"
      ],
      [
        "æĿ",
        "¥"
      ],
      [
        "ï¼ļ",
        "âĢľ"
      ],
      [
        "éģ",
        "ĵ"
      ],
      [
        "å",
        "Ĳ"
      ],
      [
        "äº",
        "º"
      ],
      [
        "æĪ",
        "ĳ"
      ],
      [
        "æĺ",
        "¯"
      ],
      [
        "å",
        "°"
      ],
      [
        "è¯",
        "´"
      ],
      [
        "æ",
        "ľ"
      ],
      [
        "æ",
        "Ĺ"
      ],
      [
        "ãĢĤ",
        "âĢĿ"
      ],
      [
        "ä»",
        "ĸ"
      ],
      [
        "å",
        "İ"
      ],
      [
        "è¿",
        "Ļ"
      ],
      [
        "ç",
        "İ"
      ],
      [
        "å",
        "Ń"
      ],
      [
        "å",
        "ĩ"
      ],
      [
        "ä½",
        "ł"
      ],
      [
        "å",
        "¥"
      ],
      [
        "å",
        "Ľ"
      ],
      [
        "å",
        "§"
      ],
      [
        "å",
        "¿"
      ],
      [
        "ãĢ",
        "Ģ"
      ],
      [
        "æ",
        "ī"
      ],
      [
        "å",
        "¦"
      ],
      [
        "åİ",
        "»"
      ],
      [
        "Ħ",
        "¿"
      ],
      [
        "ä¸",
        "ª"
      ],
      [
        "ä¹",
        "Ł"
      ],
      [
        "åŃ",
        "Ĳ"
      ],
      [
        "å",
        "Ħ¿"
      ],
      [
        "çİ",
        "ī"
      ],
      [
        "ç",
        "¬"
      ],
      [
        "è",
        "§"
      ],
      [
        "å",
        "Ī"
      ],
      [
        "æľ",
        "ī"
      ],
      [
        "è",
        "ĳ"
      ],
      [
        "è",
        "´"
      ],
      [
        "é",
        "ĩ"
      ],
      [
        "å®",
        "Ŀ"
      ],
      [
        "èĳ",
        "Ĺ"
      ],
      [
        "åı",
        "Ī"
      ],
      [
        "å",
        "ħ"
      ],
      [
        "å",
        "¾"
      ],
      [
        "è",
        "µ"
      ],
      [
        "ä»",
        "¬"
      ],
      [
        "ç¬",
        "ĳ"
      ],
      [
        "é",
        "Ĺ"
      ],
      [
        "ä",
        "¾"
      ],
      [
        "æ",
        "Ń"
      ],
      [
        "å",
        "ľ"
      ],
      [
        "é",
        "Ĥ"
      ],
      [
        "åı",
        "ª"
      ],
      [
        "è´",
        "¾"
      ],
      [
        "è§",
        "ģ"
      ],
      [
        "å",
        "ĳ"
      ],
      [
        "éĩ",
        "Į"
      ],
      [
        "éĤ",
        "£"
      ],
      [
        "å",
        "į"
      ],
      [
        "æ",
        "Ģ"
      ],
      [
        "ç",
        "ľ"
      ],
      [
        "å®Ŀ",
        "çİī"
      ],
      [
        "ä¸",
        "Ĭ"
      ],
      [
        "å",
        "Ĩ"
      ],
      [
        "ä¾",
        "¿"
      ],
      [
        "å¥",
        "½"
      ],
      [
        "ä",
        "¼"
      ],
      [
        "è",
        "ĩ"
      ],
      [
        "æ",
        "¯"
      ],
      [
        "å®",
        "¶"
      ],
      [
        "è",
        "Ģ"
      ],
      [
        "åľ",
        "¨"
      ],
      [
        "å",
        "¹"
      ],
      [
        "å¤",
        "ª"
      ],
      [
        "å§",
        "Ĳ"
      ],
      [
        "ĥ",
        "½"
      ],
      [
        "å¤",
        "§"
      ],
      [
        "ç",
        "Ķ"
      ],
      [
        "å°",
        "±"
      ],
      [
        "ç",
        "Ł"
      ],
      [
        "ç",
        "»"
      ],
      [
        "ç¬ĳ",
        "éģĵ"
      ],
      [
        "å¾",
        "Ĺ"
      ],
      [
        "åĩ",
        "º"
      ],
      [
        "æĹ",
        "¥"
      ],
      [
        "åĲ",
        "¬"
      ],
      [
        "ï¼",
        "Ł"
      ],
      [
        "å¤",
        "´"
      ],
      [
        "æ",
        "ĥ"
      ],
      [
        "å",
        "·"
      ],
      [
        "ä¸",
        "ĭ"
      ],
      [
        "æ",
        "ĸ"
      ],
      [
        "ä¹",
        "Ī"
      ],
      [
        "æ",
        "ĭ"
      ],
      [
        "åĽ",
        "ŀ"
      ],
      [
        "¦",
        "ģ"
      ],
      [
        "é",
        "Ŀ"
      ],
      [
        "é",
        "ĥ½"
      ],
      [
        "çŁ",
        "¥"
      ],
      [
        "ä¹",
        "ĭ"
      ],
      [
        "å",
        "¼"
      ],
      [
        "æ",
        "²"
      ],
      [
        "äº",
        "Į"
      ],
      [
        "ç",
        "Ń"
      ],
      [
        "å",
        "Ĵ"
      ],
      [
        "è",
        "¦ģ"
      ],
      [
        "å¦",
        "Ĥ"
      ],
      [
        "ä¸",
        "¤"
      ],
      [
        "è¿",
        "ĩ"
      ],
      [
        "äº",
        "ĭ"
      ],
      [
        "è",
        "®"
      ],
      [
        "å",
        "Ģ"
      ],
      [
        "å",
        "¸"
      ],
      [
        "æ",
        "ķ"
      ],
      [
        "èĩ",
        "ª"
      ],
      [
        "Ġ",
        "Ċ"
      ],
      [
        "å",
        "º"
      ],
      [
        "è¿",
        "ĺ"
      ],
      [
        "æ",
        "Ĭ"
      ],
      [
        "é",
        "Ĵ"
      ],
      [
        "è¯",
        "Ŀ"
      ],
      [
        "å¿",
        "ĥ"
      ],
      [
        "æ",
        "°"
      ],
      [
        "åĽ",
        "ł"
      ],
      [
        "å°",
        "ı"
      ],
      [
        "èĢ",
        "ģ"
      ],
      [
        "å",
        "¨"
      ],
      [
        "ç",
        "º"
      ],
      [
        "èµ",
        "·"
      ],
      [
        "çľ",
        "ĭ"
      ],
      [
        "å¿",
        "Ļ"
      ],
      [
        "ä»",
        "Ĭ"
      ],
      [
        "æ¯",
        "į"
      ],
      [
        "é",
        "Ģ"
      ],
      [
        "è",
        "Ĭ"
      ],
      [
        "åĩ",
        "¤"
      ],
      [
        "æĹ",
        "¶"
      ],
      [
        "æ",
        "ŀ"
      ],
      [
        "ç",
        "½"
      ],
      [
        "åı",
        "¯"
      ],
      [
        "æ²",
        "¡"
      ],
      [
        "éĿ",
        "¢"
      ],
      [
        "çŃ",
        "ī"
      ],
      [
        "æ",
        "Ķ"
      ],
      [
        "æ",
        "ł"
      ],
      [
        "äº",
        "Ľ"
      ],
      [
        "ç",
        "Ī"
      ],
      [
        "è",
        "°"
      ],
      [
        "ï¼",
        "ģ"
      ],
      [
        "éĹ",
        "®"
      ],
      [
        "ç",
        "Ľ"
      ],
      [
        "å¨",
        "ĺ"
      ],
      [
        "å¥",
        "¶"
      ],
      [
        "åĩ¤",
        "å§Ĳ"
      ],
      [
        "åĲ",
        "ĥ"
      ],
      [
        "ä¸",
        "Ń"
      ],
      [
        "æŃ",
        "¤"
      ],
      [
        "æ",
        "İ"
      ],
      [
        "åı",
        "«"
      ],
      [
        "ç",
        "«"
      ],
      [
        "é",
        "»"
      ],
      [
        "ï¼Ł",
        "âĢĿ"
      ],
      [
        "ç",
        "Ĳ"
      ],
      [
        "æ",
        "Ħ"
      ],
      [
        "å",
        "ī"
      ],
      [
        "ä»",
        "Ģ"
      ],
      [
        "å",
        "½"
      ],
      [
        "è",
        "¢"
      ],
      [
        "åĪ",
        "°"
      ],
      [
        "æī",
        "į"
      ],
      [
        "ä»Ģ",
        "ä¹Ī"
      ],
      [
        "å",
        "ĵ"
      ],
      [
        "åĳ",
        "¢"
      ],
      [
        "è´¾",
        "æ¯į"
      ],
      [
        "å",
        "Ĭ"
      ],
      [
        "ä¸Ģ",
        "ä¸ª"
      ],
      [
        "ç",
        "®"
      ],
      [
        "å",
        "Ŀ"
      ],
      [
        "è",
        "¾"
      ],
      [
        "å¤ª",
        "å¤ª"
      ],
      [
        "åĢ",
        "Ĵ"
      ],
      [
        "å",
        "¯"
      ],
      [
        "è",
        "ĭ"
      ],
      [
        "å¤",
        "«"
      ],
      [
        "ç½",
        "¢"
      ],
      [
        "æī",
        "ĵ"
      ],
      [
        "æĹ",
        "ł"
      ],
      [
        "ç",
        "Ħ"
      ],
      [
        "æ",
        "Ľ"
      ],
      [
        "æŃ",
        "£"
      ],
      [
        "è",
        "¡"
      ],
      [
        "æĥ",
        "³"
      ],
      [
        "æł",
        "·"
      ],
      [
        "åĴ",
        "Į"
      ],
      [
        "é",
        "Ľ"
      ],
      [
        "æĸ",
        "¹"
      ],
      [
        "ä½",
        "ľ"
      ],
      [
        "è",
        "·"
      ],
      [
        "åĪ",
        "«"
      ],
      [
        "åĲ",
        "İ"
      ],
      [
        "é»",
        "Ľ"
      ],
      [
        "é",
        "¦"
      ],
      [
        "é»Ľ",
        "çİī"
      ],
      [
        "è¿",
        "Ľ"
      ],
      [
        "Ļ",
        "½"
      ],
      [
        "é",
        "ļ"
      ],
      [
        "åĨ",
        "į"
      ],
      [
        "æ",
        "Ļ"
      ],
      [
        "æ",
        "ģ"
      ],
      [
        "çİ",
        "ĭ"
      ],
      [
        "ä¹Ł",
        "ä¸į"
      ],
      [
        "ä¸",
        "ī"
      ],
      [
        "åĩ",
        "ł"
      ],
      [
        "äºĨ",
        "ä¸Ģ"
      ],
      [
        "åį",
        "ģ"
      ],
      [
        "çĦ",
        "¶"
      ],
      [
        "ç",
        "§"
      ],
      [
        "ä¸",
        "«"
      ],
      [
        "å",
        "±"
      ],
      [
        "å¤",
        "ļ"
      ],
      [
        "ä¸",
        "º"
      ],
      [
        "ä½",
        "ķ"
      ],
      [
        "è",
        "º"
      ],
      [
        "å¤",
        "©"
      ],
      [
        "ä¼",
        "Ĺ"
      ],
      [
        "çĶ",
        "Ł"
      ],
      [
        "æĦ",
        "ı"
      ],
      [
        "ä¸",
        "İ"
      ],
      [
        "å",
        "ģ"
      ],
      [
        "åī",
        "į"
      ],
      [
        "å§",
        "ĳ"
      ],
      [
        "é",
        "Ļ"
      ],
      [
        "æĪĳ",
        "ä»¬"
      ],
      [
        "å¦",
        "¹"
      ],
      [
        "å",
        "ĸ"
      ],
      [
        "é",
        "¡"
      ],
      [
        "å¤«",
        "äºº"
      ],
      [
        "èĬ",
        "±"
      ],
      [
        "éĹ",
        "¨"
      ],
      [
        "å°",
        "Ĩ"
      ],
      [
        "æī",
        "ĭ"
      ],
      [
        "å·",
        "²"
      ],
      [
        "è¢",
        "Ń"
      ],
      [
        "çĪ",
        "·"
      ],
      [
        "èº",
        "«"
      ],
      [
        "å¹",
        "´"
      ],
      [
        "åĳ",
        "½"
      ],
      [
        "é",
        "¸"
      ],
      [
        "ä",
        "¿"
      ],
      [
        "âĢ",
        "Ļ"
      ],
      [
        "è",
        "Ī"
      ],
      [
        "è",
        "Ħ"
      ],
      [
        "æĭ",
        "¿"
      ],
      [
        "æ°",
        "Ķ"
      ],
      [
        "è",
        "į"
      ],
      [
        "âĢ",
        "ĺ"
      ],
      [
        "æ",
        "Į"
      ],
      [
        "å¤",
        "ĸ"
      ],
      [
        "å",
        "£"
      ],
      [
        "åĲ¬",
        "äºĨ"
      ],
      [
        "ä»",
        "¥"
      ],
      [
        "æĪ",
        "¿"
      ],
      [
        "èµ",
        "°"
      ],
      [
        "æ",
        "¬"
      ],
      [
        "è¢Ń",
        "äºº"
      ],
      [
        "åİ»",
        "äºĨ"
      ],
      [
        "æĺ",
        "¥"
      ],
      [
        "ç",
        "ĥ"
      ],
      [
        "ä¸",
        "Ķ"
      ],
      [
        "éĴ",
        "Ĺ"
      ],
      [
        "æĺ",
        "İ"
      ],
      [
        "å¤",
        "Ħ"
      ],
      [
        "æĬ",
        "Ĭ"
      ],
      [
        "è",
        "¶"
      ],
      [
        "è",
        "ĸ"
      ],
      [
        "åİ",
        "Ł"
      ],
      [
        "åĿ",
        "Ĳ"
      ],
      [
        "é",
        "ħ"
      ],
      [
        "è°",
        "ģ"
      ],
      [
        "èĩ",
        "³"
      ],
      [
        "ç",
        "´"
      ],
      [
        "èĭ",
        "¥"
      ],
      [
        "å®Ŀ",
        "éĴĹ"
      ],
      [
        "å§ĳ",
        "å¨ĺ"
      ],
      [
        "ç",
        "Ĥ"
      ],
      [
        "ç»",
        "Ļ"
      ],
      [
        "è",
        "½"
      ],
      [
        "éĤ£",
        "éĩĮ"
      ],
      [
        "ä½ł",
        "ä»¬"
      ],
      [
        "çĶ",
        "¨"
      ],
      [
        "é",
        "¢"
      ],
      [
        "é¦",
        "Ļ"
      ],
      [
        "ä¸Ģ",
        "éĿ¢"
      ],
      [
        "å¦Ĥ",
        "ä»Ĭ"
      ],
      [
        "æ",
        "Ĥ"
      ],
      [
        "æĢ",
        "İ"
      ],
      [
        "ä»ĸ",
        "ä»¬"
      ],
      [
        "åħ",
        "Ī"
      ],
      [
        "³",
        "åĦ¿"
      ],
      [
        "åĩº",
        "æĿ¥"
      ],
      [
        "åı",
        "ĳ"
      ],
      [
        "é",
        "¥"
      ],
      [
        "äº",
        "²"
      ],
      [
        "ç®",
        "¡"
      ],
      [
        "ä¸«",
        "å¤´"
      ],
      [
        "ç",
        "Ĺ"
      ],
      [
        "åĨ",
        "ħ"
      ],
      [
        "å",
        "©"
      ],
      [
        "ç",
        "ı"
      ],
      [
        "åĽ",
        "Ľ"
      ],
      [
        "ä¸į",
        "çŁ¥"
      ],
      [
        "è",
        "Į"
      ],
      [
        "ç",
        "ŀ"
      ],
      [
        "ä¼Ĺ",
        "äºº"
      ],
      [
        "è¯´",
        "èĳĹ"
      ],
      [
        "èµ·",
        "æĿ¥"
      ],
      [
        "å¾",
        "Ģ"
      ],
      [
        "æ",
        "³"
      ],
      [
        "äº",
        "ĳ"
      ],
      [
        "éĢ",
        "ģ"
      ],
      [
        "èĸ",
        "Ľ"
      ],
      [
        "ç",
        "¥"
      ],
      [
        "ç",
        "ī"
      ],
      [
        "æī",
        "Ģ"
      ],
      [
        "ä¼",
        "ļ"
      ],
      [
        "æľ",
        "Ī"
      ],
      [
        "åĪ",
        "Ĩ"
      ],
      [
        "æŀ",
        "Ĺ"
      ],
      [
        "è¯",
        "·"
      ],
      [
        "å§",
        "¨"
      ],
      [
        "ä¸¤",
        "ä¸ª"
      ],
      [
        "å¸",
        "¦"
      ],
      [
        "å¥¶",
        "å¥¶"
      ],
      [
        "é",
        "£"
      ],
      [
        "è¾",
        "¹"
      ],
      [
        "çİĭ",
        "å¤«äºº"
      ],
      [
        "è¿",
        "ŀ"
      ],
      [
        "å¦",
        "Ī"
      ],
      [
        "æĿ¥",
        "äºĨ"
      ],
      [
        "ä½",
        "ı"
      ],
      [
        "å·",
        "±"
      ],
      [
        "è¯´",
        "éģĵ"
      ],
      [
        "ä¸",
        "ľ"
      ],
      [
        "æ",
        "¸"
      ],
      [
        "è",
        "¥"
      ],
      [
        "å½",
        "ĵ"
      ],
      [
        "ä¸į",
        "å¾Ĺ"
      ],
      [
        "æ",
        "·"
      ],
      [
        "ï¼ģ",
        "âĢĿ"
      ],
      [
        "ç",
        "ģ"
      ],
      [
        "æĢİ",
        "ä¹Ī"
      ],
      [
        "æ",
        "¹"
      ],
      [
        "é",
        "ĺ"
      ],
      [
        "æľ",
        "ª"
      ],
      [
        "æĹ",
        "©"
      ],
      [
        "è",
        "Ļ½"
      ],
      [
        "è¿Ļ",
        "éĩĮ"
      ],
      [
        "è¥",
        "¿"
      ],
      [
        "ä»",
        "İ"
      ],
      [
        "æ",
        "´"
      ],
      [
        "æĪ",
        "Ĳ"
      ],
      [
        "è",
        "Ĥ"
      ],
      [
        "å",
        "Į"
      ],
      [
        "æ",
        "µ"
      ],
      [
        "ä¸į",
        "æĺ¯"
      ],
      [
        "åı",
        "£"
      ],
      [
        "è¿Ļ",
        "ä¸ª"
      ],
      [
        "æ¹",
        "ĺ"
      ],
      [
        "èĢģ",
        "å¤ªå¤ª"
      ],
      [
        "çº",
        "¢"
      ],
      [
        "é",
        "ĵ"
      ],
      [
        "ç",
        "ķ"
      ],
      [
        "åĳ",
        "Ĭ"
      ],
      [
        "çŀ",
        "§"
      ],
      [
        "åıª",
        "è§ģ"
      ],
      [
        "èĩª",
        "å·±"
      ],
      [
        "å¿",
        "ħ"
      ],
      [
        "åŃ",
        "Ĺ"
      ],
      [
        "å",
        "Ķ"
      ],
      [
        "ç",
        "©"
      ],
      [
        "å§",
        "¥"
      ],
      [
        "å",
        "²"
      ],
      [
        "éĩ",
        "ĳ"
      ],
      [
        "æĢ",
        "ķ"
      ],
      [
        "å®¶",
        "çļĦ"
      ],
      [
        "æĶ",
        "¾"
      ],
      [
        "è",
        "ĥ"
      ],
      [
        "æ",
        "±"
      ],
      [
        "å¹",
        "³åĦ¿"
      ],
      [
        "å£",
        "°"
      ],
      [
        "æ",
        "¡"
      ],
      [
        "ç«",
        "Ł"
      ],
      [
        "åį",
        "Ĭ"
      ],
      [
        "çĲ",
        "ı"
      ],
      [
        "æĥ",
        "ħ"
      ],
      [
        "æŃ",
        "»"
      ],
      [
        "éļ",
        "¾"
      ],
      [
        "è",
        "ĥ½"
      ],
      [
        "å°",
        "¤"
      ],
      [
        "éħ",
        "Ĵ"
      ],
      [
        "çľ",
        "¼"
      ],
      [
        "äº",
        "Ķ"
      ],
      [
        "å®",
        "ĺ"
      ],
      [
        "å¼",
        "Ģ"
      ],
      [
        "è",
        "ı"
      ],
      [
        "åĲ",
        "ĳ"
      ],
      [
        "åľ",
        "°"
      ],
      [
        "åį",
        "´"
      ],
      [
        "äº",
        "İ"
      ],
      [
        "åĸ",
        "ľ"
      ],
      [
        "æĿ",
        "İ"
      ],
      [
        "è",
        "ī"
      ],
      [
        "æ°",
        "ı"
      ],
      [
        "åĩ¤å§Ĳ",
        "åĦ¿"
      ],
      [
        "å©",
        "Ĩ"
      ],
      [
        "çĲ",
        "Ĩ"
      ],
      [
        "åº",
        "Ķ"
      ],
      [
        "ä½",
        "¿"
      ],
      [
        "æĪ",
        "ĸ"
      ],
      [
        "çŁ¥",
        "éģĵ"
      ],
      [
        "åĽ",
        "Ń"
      ],
      [
        "ç",
        "Ŀ"
      ],
      [
        "åĵ",
        "¥"
      ],
      [
        "è¿Ļ",
        "æł·"
      ],
      [
        "çĤ",
        "¹"
      ],
      [
        "éĴ",
        "±"
      ],
      [
        "çľ",
        "Ł"
      ],
      [
        "é",
        "ķ"
      ],
      [
        "åĲ",
        "Į"
      ],
      [
        "åĲ",
        "Ħ"
      ],
      [
        "åĲ",
        "į"
      ],
      [
        "è´¾",
        "çĲı"
      ],
      [
        "åı",
        "¥"
      ],
      [
        "å¹",
        "¶"
      ],
      [
        "æ",
        "Ł"
      ],
      [
        "æ¯",
        "Ķ"
      ],
      [
        "ç",
        "ĸ"
      ],
      [
        "å¥",
        "³"
      ],
      [
        "æķ",
        "¢"
      ],
      [
        "èĮ",
        "¶"
      ],
      [
        "éĵ",
        "¶"
      ],
      [
        "å®",
        "ī"
      ],
      [
        "çı",
        "į"
      ],
      [
        "ä¹",
        "¦"
      ],
      [
        "æķ",
        "ħ"
      ],
      [
        "ä¸ľ",
        "è¥¿"
      ],
      [
        "å",
        "ĺ"
      ],
      [
        "ç",
        "Ļ½"
      ],
      [
        "èĢ",
        "Į"
      ],
      [
        "å§Ĳ",
        "å§Ĳ"
      ],
      [
        "åĴ",
        "±"
      ],
      [
        "å°",
        "ĳ"
      ],
      [
        "æ",
        "ı"
      ],
      [
        "è·",
        "Ł"
      ],
      [
        "æ",
        "į"
      ],
      [
        "è§",
        "ī"
      ],
      [
        "é",
        "ª"
      ],
      [
        "é",
        "¬"
      ],
      [
        "ä¸į",
        "è¿ĩ"
      ],
      [
        "ãĢĢ",
        "ãĢĢ"
      ],
      [
        "åĴ±",
        "ä»¬"
      ],
      [
        "çļ",
        "Ĩ"
      ],
      [
        "é£",
        "İ"
      ],
      [
        "ç",
        "¼"
      ],
      [
        "è¯",
        "ī"
      ],
      [
        "æ",
        "¢"
      ],
      [
        "è¿Ľ",
        "æĿ¥"
      ],
      [
        "æİ",
        "¢"
      ],
      [
        "ç",
        "Ļ"
      ],
      [
        "è¯",
        "¥"
      ],
      [
        "æ¹ĺ",
        "äºĳ"
      ],
      [
        "å¤§",
        "å®¶"
      ],
      [
        "æ",
        "»"
      ],
      [
        "è¡",
        "Į"
      ],
      [
        "å°±",
        "æĺ¯"
      ],
      [
        "é",
        "Ķ"
      ],
      [
        "ç",
        "¤"
      ],
      [
        "åħ",
        "¶"
      ],
      [
        "åº",
        "ľ"
      ],
      [
        "æŀ",
        "ľ"
      ],
      [
        "çĹ",
        "ħ"
      ],
      [
        "æĽ",
        "´"
      ],
      [
        "å¦Ĥ",
        "æŃ¤"
      ],
      [
        "å¿",
        "«"
      ],
      [
        "åĳĬ",
        "è¯ī"
      ],
      [
        "è",
        "İ"
      ],
      [
        "å®",
        "ļ"
      ],
      [
        "äº",
        "¦"
      ],
      [
        "æĶ",
        "¿"
      ],
      [
        "ç",
        "¢"
      ],
      [
        "é¥",
        "Ń"
      ],
      [
        "ç»",
        "Ĩ"
      ],
      [
        "å¦",
        "ĩ"
      ],
      [
        "ç¬",
        "¬"
      ],
      [
        "éĹ",
        "´"
      ],
      [
        "å",
        "«"
      ],
      [
        "ç",
        "²"
      ],
      [
        "çļĦ",
        "äºº"
      ],
      [
        "æ",
        "Ĳ"
      ],
      [
        "å¸",
        "¸"
      ],
      [
        "èĦ",
        "¸"
      ],
      [
        "è¿Ļ",
        "äºĽ"
      ],
      [
        "è",
        "£"
      ],
      [
        "è§ģ",
        "äºĨ"
      ],
      [
        "åıª",
        "æĺ¯"
      ],
      [
        "æ",
        "Ĵ"
      ],
      [
        "äºĮ",
        "äºº"
      ],
      [
        "èī",
        "²"
      ],
      [
        "è",
        "Ł"
      ],
      [
        "åħ",
        "¥"
      ],
      [
        "åĩº",
        "åİ»"
      ],
      [
        "çĽ",
        "¸"
      ],
      [
        "æİ¢",
        "æĺ¥"
      ],
      [
        "è´¾",
        "æĶ¿"
      ],
      [
        "è¯",
        "Ń"
      ],
      [
        "æĹ",
        "¢"
      ],
      [
        "æ²¡",
        "æľī"
      ],
      [
        "æĻ",
        "´"
      ],
      [
        "¨",
        "Ģ"
      ],
      [
        "åıª",
        "å¾Ĺ"
      ],
      [
        "è´¾",
        "çıį"
      ],
      [
        "æ°",
        "´"
      ],
      [
        "æĤ",
        "Ħ"
      ],
      [
        "è",
        "ĵ"
      ],
      [
        "ä¸Ģ",
        "æĹ¶"
      ],
      [
        "å¹",
        "²"
      ],
      [
        "å",
        "ª"
      ],
      [
        "ä»",
        "¶"
      ],
      [
        "å¿",
        "½"
      ],
      [
        "æİ",
        "¥"
      ],
      [
        "çĿ",
        "¡"
      ],
      [
        "ç½¢",
        "äºĨ"
      ],
      [
        "æ",
        "ļ"
      ],
      [
        "ç",
        "ĭ"
      ],
      [
        "å¤",
        "ľ"
      ],
      [
        "è",
        "Ĳ"
      ],
      [
        "èĢ",
        "ħ"
      ],
      [
        "çŃ",
        "Ķ"
      ],
      [
        "ä¸",
        "»"
      ],
      [
        "æĪĳ",
        "çļĦ"
      ],
      [
        "ç»",
        "ı"
      ],
      [
        "è¡",
        "£"
      ],
      [
        "å°¤",
        "æ°ı"
      ],
      [
        "æ",
        "ĳ"
      ],
      [
        "æ¬",
        "¡"
      ],
      [
        "éĽ",
        "¯"
      ],
      [
        "æĻ´",
        "éĽ¯"
      ],
      [
        "è",
        "¨Ģ"
      ],
      [
        "æ",
        "ħ"
      ],
      [
        "ç",
        "³"
      ],
      [
        "å¼",
        "ł"
      ],
      [
        "ç",
        "ĳ"
      ],
      [
        "åı",
        "ĸ"
      ],
      [
        "æĢ",
        "Ŀ"
      ],
      [
        "ä¸į",
        "å¥½"
      ],
      [
        "éķ",
        "¿"
      ],
      [
        "å",
        "¬"
      ],
      [
        "å®Ŀçİī",
        "éģĵ"
      ],
      [
        "é¸",
        "³"
      ],
      [
        "å¬",
        "·"
      ],
      [
        "è¯´",
        "çļĦ"
      ],
      [
        "ç",
        "¾"
      ],
      [
        "éĹ",
        "¹"
      ],
      [
        "è®",
        "¸"
      ],
      [
        "éĻ",
        "¢"
      ],
      [
        "å§¨",
        "å¦Ī"
      ],
      [
        "å±",
        "ĭ"
      ],
      [
        "è¯",
        "Ĺ"
      ],
      [
        "è¶",
        "Ĭ"
      ],
      [
        "ç",
        "¦"
      ],
      [
        "æĶ",
        "¶"
      ],
      [
        "é¸",
        "¯"
      ],
      [
        "æŀĹ",
        "é»Ľçİī"
      ],
      [
        "å®",
        "Į"
      ],
      [
        "é¸³",
        "é¸¯"
      ],
      [
        "ç®",
        "Ĺ"
      ],
      [
        "ç´",
        "ł"
      ],
      [
        "å©Ĩ",
        "åŃĲ"
      ],
      [
        "è",
        "ħ"
      ],
      [
        "çī",
        "©"
      ],
      [
        "é",
        "©"
      ],
      [
        "åª",
        "³"
      ],
      [
        "è",
        "ģ"
      ],
      [
        "æ¯",
        "ı"
      ],
      [
        "æĭ",
        "ī"
      ],
      [
        "ç",
        "¿"
      ],
      [
        "åħ",
        "´"
      ],
      [
        "é¡",
        "½"
      ],
      [
        "åĲ¬",
        "è§ģ"
      ],
      [
        "åĵ",
        "Ń"
      ],
      [
        "å¯",
        "¹"
      ],
      [
        "é",
        "ľ"
      ],
      [
        "è¯´",
        "äºĨ"
      ],
      [
        "ä¾",
        "Ŀ"
      ],
      [
        "å²",
        "Ĥ"
      ],
      [
        "éĵ¶",
        "åŃĲ"
      ],
      [
        "ç",
        "ª"
      ],
      [
        "åĨ",
        "·"
      ],
      [
        "åĽŀ",
        "æĿ¥"
      ],
      [
        "æīĢ",
        "ä»¥"
      ],
      [
        "ä¸",
        "ĸ"
      ],
      [
        "èĵ",
        "ī"
      ],
      [
        "ç",
        "ħ"
      ],
      [
        "åĪ",
        "Ļ"
      ],
      [
        "çĻ",
        "¾"
      ],
      [
        "å¼",
        "Ł"
      ],
      [
        "æī",
        "¾"
      ],
      [
        "æĿİ",
        "çº"
      ],
      [
        "åĲ¬",
        "è¯´"
      ],
      [
        "ä¼ļ",
        "åŃĲ"
      ],
      [
        "è§",
        "£"
      ],
      [
        "ç¤",
        "¼"
      ],
      [
        "æĽ",
        "¾"
      ],
      [
        "åª³",
        "å¦ĩ"
      ],
      [
        "è¿Ļ",
        "ä¸Ģ"
      ],
      [
        "äºĨ",
        "ä»ĸ"
      ],
      [
        "åģ",
        "ļ"
      ],
      [
        "çĳ",
        "ŀ"
      ],
      [
        "åĩł",
        "ä¸ª"
      ],
      [
        "ä¹Ł",
        "æĺ¯"
      ],
      [
        "æķ",
        "£"
      ],
      [
        "è¿ĺ",
        "æľī"
      ],
      [
        "æĻ",
        "ļ"
      ],
      [
        "è®",
        "©"
      ],
      [
        "åĬ",
        "¨"
      ],
      [
        "åĬ",
        "Ŀ"
      ],
      [
        "å§¥",
        "å§¥"
      ],
      [
        "æĿİçº",
        "¨"
      ],
      [
        "åĳ",
        "¨"
      ],
      [
        "éĥ½",
        "æĺ¯"
      ],
      [
        "èŁ",
        "ł"
      ],
      [
        "æ¯",
        "ķ"
      ],
      [
        "å¦Ĥ",
        "ä½ķ"
      ],
      [
        "åıª",
        "ç®¡"
      ],
      [
        "èĬ",
        "³"
      ],
      [
        "æ",
        "£"
      ],
      [
        "åĪ",
        "ĺ"
      ],
      [
        "åħ",
        "¬"
      ],
      [
        "å§",
        "Ĭ"
      ],
      [
        "åħ",
        "Ħ"
      ],
      [
        "å¦¹",
        "å¦¹"
      ],
      [
        "èĸĽ",
        "èŁł"
      ],
      [
        "é",
        "¹"
      ],
      [
        "éĹ",
        "²"
      ],
      [
        "æĸ",
        "°"
      ],
      [
        "ä»",
        "¤"
      ],
      [
        "è¯´",
        "è¯Ŀ"
      ],
      [
        "è¿Ļ",
        "è¯Ŀ"
      ],
      [
        "ä¹Ł",
        "æľī"
      ],
      [
        "éļ",
        "ı"
      ],
      [
        "ç",
        "Į"
      ],
      [
        "åģ",
        "ı"
      ],
      [
        "ä¸į",
        "èĥ½"
      ],
      [
        "è¿Ļ",
        "ä¹Ī"
      ],
      [
        "åº",
        "ķ"
      ],
      [
        "èĪ",
        "¬"
      ],
      [
        "è",
        "±"
      ],
      [
        "èĸĽ",
        "å§¨å¦Ī"
      ],
      [
        "çķ",
        "Ļ"
      ],
      [
        "ä»Ĭ",
        "æĹ¥"
      ],
      [
        "çĪ",
        "¶"
      ],
      [
        "èı",
        "±"
      ],
      [
        "é",
        "«"
      ],
      [
        "ä¸į",
        "æķ¢"
      ],
      [
        "èĢģ",
        "çĪ·"
      ],
      [
        "æĽ",
        "¿"
      ],
      [
        "åĨ",
        "Ļ"
      ],
      [
        "é¬",
        "Ł"
      ],
      [
        "åĪĺ",
        "å§¥å§¥"
      ],
      [
        "åħ",
        "«"
      ],
      [
        "å§Ĭ",
        "å¦¹"
      ],
      [
        "è¿",
        "İ"
      ],
      [
        "æĺ¯",
        "ä¸ª"
      ],
      [
        "å°",
        "½"
      ],
      [
        "ç¥",
        "ŀ"
      ],
      [
        "æ¸",
        "ħ"
      ],
      [
        "æľ",
        "¬"
      ],
      [
        "ä¼",
        "¼"
      ],
      [
        "èį",
        "¯"
      ],
      [
        "åı",
        "į"
      ],
      [
        "ä¸«",
        "é¬Ł"
      ],
      [
        "éĤ",
        "¢"
      ],
      [
        "è§ģ",
        "ä»ĸ"
      ],
      [
        "å¾",
        "ħ"
      ],
      [
        "é",
        "Ĩ"
      ],
      [
        "éĽ",
        "¨"
      ],
      [
        "å±",
        "±"
      ],
      [
        "æ",
        "¶"
      ],
      [
        "é",
        "º"
      ],
      [
        "æĢ",
        "§"
      ],
      [
        "é¢",
        "Ĩ"
      ],
      [
        "äºĮ",
        "çĪ·"
      ],
      [
        "ä»Ĭ",
        "åĦ¿"
      ],
      [
        "æ»",
        "¡"
      ],
      [
        "èĲ",
        "½"
      ],
      [
        "æĺ",
        "¨"
      ],
      [
        "åĲĥ",
        "äºĨ"
      ],
      [
        "ä½",
        "Ĩ"
      ],
      [
        "åİŁ",
        "æĿ¥"
      ],
      [
        "é",
        "½"
      ],
      [
        "ä¿",
        "¡"
      ],
      [
        "åĺ",
        "´"
      ],
      [
        "éģ",
        "Ĥ"
      ],
      [
        "å®Ŀçİī",
        "ç¬ĳéģĵ"
      ],
      [
        "ç§",
        "ĭ"
      ],
      [
        "èį",
        "£"
      ],
      [
        "é«",
        "ĺ"
      ],
      [
        "å",
        "ł"
      ],
      [
        "èĩª",
        "çĦ¶"
      ],
      [
        "å",
        "ķ"
      ],
      [
        "è¿",
        "ĳ"
      ],
      [
        "ç§",
        "¦"
      ],
      [
        "æĪ",
        "ı"
      ],
      [
        "ç´",
        "«"
      ],
      [
        "æı",
        "Ĳ"
      ],
      [
        "çĪ",
        "±"
      ],
      [
        "ãĢ",
        "ģ"
      ],
      [
        "çļĦ",
        "äºĭ"
      ],
      [
        "ç©",
        "¿"
      ],
      [
        "ç",
        "Ĭ"
      ],
      [
        "ä¸į",
        "æĪĲ"
      ],
      [
        "è¿Ļ",
        "ä¼ļåŃĲ"
      ],
      [
        "è¿ĩ",
        "æĿ¥"
      ],
      [
        "å¿",
        "µ"
      ],
      [
        "çŃĶ",
        "åºĶ"
      ],
      [
        "åŃ",
        "¦"
      ],
      [
        "åŃ",
        "©"
      ],
      [
        "æ³",
        "ª"
      ],
      [
        "è",
        "Ļ"
      ],
      [
        "è¿Ļ",
        "æĺ¯"
      ],
      [
        "æīĵ",
        "åıĳ"
      ],
      [
        "å®",
        "ŀ"
      ],
      [
        "èµ",
        "¶"
      ],
      [
        "è´¾",
        "èĵī"
      ],
      [
        "çħ",
        "§"
      ],
      [
        "çĥ",
        "Ł"
      ],
      [
        "æ±",
        "Ĥ"
      ],
      [
        "º",
        "åĦ¿"
      ],
      [
        "åŃ",
        "Ŀ"
      ],
      [
        "åĨ",
        "µ"
      ],
      [
        "å¯",
        "»"
      ],
      [
        "ãĢ",
        "Ĭ"
      ],
      [
        "ãĢ",
        "ĭ"
      ],
      [
        "åİ",
        "®"
      ],
      [
        "çŁ",
        "³"
      ],
      [
        "æľī",
        "ä¸Ģ"
      ],
      [
        "å¼",
        "Ħ"
      ],
      [
        "ä¹",
        "±"
      ],
      [
        "èµ",
        "ı"
      ],
      [
        "å·",
        "§"
      ],
      [
        "é¦Ļ",
        "èı±"
      ],
      [
        "æĢ",
        "¥"
      ],
      [
        "éª",
        "Ĥ"
      ],
      [
        "æĿ¥",
        "çļĦ"
      ],
      [
        "éĹ",
        "»"
      ],
      [
        "é½",
        "Ĳ"
      ],
      [
        "åı",
        "Ĭ"
      ],
      [
        "æĸ",
        "ĩ"
      ],
      [
        "é©",
        "¬"
      ],
      [
        "æ",
        "¦"
      ],
      [
        "å¤",
        "ĩ"
      ],
      [
        "æĿ",
        "¯"
      ],
      [
        "æĪĳ",
        "ä¹Ł"
      ],
      [
        "éĤ£",
        "è¾¹"
      ],
      [
        "è®",
        "°"
      ],
      [
        "å§¨",
        "å¨ĺ"
      ],
      [
        "å°ı",
        "ä¸«å¤´"
      ],
      [
        "åı«",
        "ä»ĸ"
      ],
      [
        "æĸ¹",
        "æīį"
      ],
      [
        "âĢĻ",
        "ï¼Į"
      ],
      [
        "åĪ«",
        "äºº"
      ],
      [
        "æĹ",
        "§"
      ],
      [
        "æŁ",
        "³"
      ],
      [
        "çİ",
        "°"
      ],
      [
        "æŃ",
        "ĩ"
      ],
      [
        "åį",
        "ĥ"
      ],
      [
        "ä¼",
        "ł"
      ],
      [
        "çģ",
        "¯"
      ],
      [
        "ç",
        "ł"
      ],
      [
        "åı",
        "¹"
      ],
      [
        "ä½",
        "į"
      ],
      [
        "éĤ¢",
        "å¤«äºº"
      ],
      [
        "ä»ĸ",
        "çļĦ"
      ],
      [
        "å¿ĥ",
        "ä¸Ń"
      ],
      [
        "åı",
        "¤"
      ],
      [
        "åľ¨",
        "è¿ĻéĩĮ"
      ],
      [
        "ç«",
        "Ļ"
      ],
      [
        "éĻ",
        "ª"
      ],
      [
        "æ³",
        "ķ"
      ],
      [
        "å±ĭ",
        "éĩĮ"
      ],
      [
        "ä¸Ĭ",
        "æĿ¥"
      ],
      [
        "çĶ",
        "»"
      ],
      [
        "äºº",
        "æĿ¥"
      ],
      [
        "å¿",
        "ĺ"
      ],
      [
        "æ",
        "®"
      ],
      [
        "é¦",
        "ĸ"
      ],
      [
        "è°ģ",
        "çŁ¥"
      ],
      [
        "è½",
        "»"
      ],
      [
        "ç¥",
        "ĸ"
      ],
      [
        "æĿ",
        "ĳ"
      ],
      [
        "æľ",
        "į"
      ],
      [
        "å¥½",
        "äºĨ"
      ],
      [
        "è·",
        "¯"
      ],
      [
        "å®",
        "¹"
      ],
      [
        "å¥½",
        "çļĦ"
      ],
      [
        "å",
        "¢"
      ],
      [
        "å",
        "Ĺ"
      ],
      [
        "äºº",
        "å®¶"
      ],
      [
        "çľ",
        "ģ"
      ],
      [
        "åĴ",
        "Ĳ"
      ],
      [
        "æĺİ",
        "åĦ¿"
      ],
      [
        "è±",
        "¡"
      ],
      [
        "å¿ĥ",
        "éĩĮ"
      ],
      [
        "å½",
        "©"
      ],
      [
        "è¿",
        "ľ"
      ],
      [
        "ä½ł",
        "çļĦ"
      ],
      [
        "è®",
        "¤"
      ],
      [
        "éĴ",
        "Ł"
      ],
      [
        "æģ",
        "Ĳ"
      ],
      [
        "åĲ",
        "Ī"
      ],
      [
        "åĪ",
        "ļ"
      ],
      [
        "æ¬",
        "¢"
      ],
      [
        "ä»",
        "į"
      ],
      [
        "æµ",
        "ģ"
      ],
      [
        "è",
        "Ĺ"
      ],
      [
        "éĩ",
        "į"
      ],
      [
        "æĢ",
        "¨"
      ],
      [
        "éº",
        "Ŀ"
      ],
      [
        "ä¸į",
        "åľ¨"
      ],
      [
        "åıĪ",
        "æľī"
      ],
      [
        "å°ı",
        "åİ®"
      ],
      [
        "ä¸",
        "ĩ"
      ],
      [
        "åħ",
        "¨"
      ],
      [
        "å¸",
        "Ń"
      ],
      [
        "ç«",
        "ĭ"
      ],
      [
        "èĤ",
        "¯"
      ],
      [
        "åĳ¨",
        "çĳŀ"
      ],
      [
        "è¢",
        "«"
      ],
      [
        "ç´ł",
        "æĹ¥"
      ],
      [
        "äº",
        "¤"
      ],
      [
        "ä¹",
        "°"
      ],
      [
        "è¶Ĭ",
        "åıĳ"
      ],
      [
        "ä¸į",
        "å¦Ĥ"
      ],
      [
        "å¥",
        "³åĦ¿"
      ],
      [
        "ä¾",
        "į"
      ],
      [
        "æĢ",
        "ª"
      ],
      [
        "æŀ",
        "ģ"
      ],
      [
        "æĮ",
        "ĩ"
      ],
      [
        "çĥ",
        "Ń"
      ],
      [
        "æ´",
        "Ĺ"
      ],
      [
        "åŃ©",
        "åŃĲ"
      ],
      [
        "åħ",
        "»"
      ],
      [
        "åľ¨",
        "éĤ£éĩĮ"
      ],
      [
        "è®",
        "º"
      ],
      [
        "åĽł",
        "æŃ¤"
      ],
      [
        "èµ·",
        "èº«"
      ],
      [
        "è·",
        "ĳ"
      ],
      [
        "åĸ",
        "Ŀ"
      ],
      [
        "åĶ",
        "¤"
      ],
      [
        "çĸ",
        "¼"
      ],
      [
        "ä¹",
        "Ĳ"
      ],
      [
        "åıĪ",
        "æĺ¯"
      ],
      [
        "éĿ",
        "ŀ"
      ],
      [
        "éļ¾",
        "éģĵ"
      ],
      [
        "å¹",
        "³"
      ],
      [
        "è¿Ľ",
        "åİ»"
      ],
      [
        "ä¹",
        "ĥ"
      ],
      [
        "æĥ",
        "ľ"
      ],
      [
        "å«",
        "Ĥ"
      ],
      [
        "åı",
        "Ĺ"
      ],
      [
        "å®",
        "ģ"
      ],
      [
        "åĢ",
        "Ļ"
      ],
      [
        "éĽ",
        "ª"
      ],
      [
        "èĬ³",
        "å®ĺ"
      ],
      [
        "åıĪ",
        "è¯´"
      ],
      [
        "èĭ",
        "¦"
      ],
      [
        "å¤ĸ",
        "å¤´"
      ],
      [
        "æĪĳ",
        "è¯´"
      ],
      [
        "è´",
        "µ"
      ],
      [
        "è¶",
        "£"
      ],
      [
        "äºİ",
        "æĺ¯"
      ],
      [
        "æŀľ",
        "çĦ¶"
      ],
      [
        "éºĿ",
        "æľĪ"
      ],
      [
        "å¦",
        "Ļ"
      ],
      [
        "åħ",
        "į"
      ],
      [
        "éĶ",
        "Ļ"
      ],
      [
        "ç",
        "Ĩ"
      ],
      [
        "å®¶",
        "éĩĮ"
      ],
      [
        "å¼",
        "º"
      ],
      [
        "è®",
        "®"
      ],
      [
        "å",
        "Ł"
      ],
      [
        "äºĮ",
        "å§Ĳ"
      ],
      [
        "è½",
        "¬"
      ],
      [
        "ä¸įçŁ¥",
        "éģĵ"
      ],
      [
        "ı",
        "äºĨ"
      ],
      [
        "åĽ",
        "½"
      ],
      [
        "åħ",
        "Ń"
      ],
      [
        "éĤ£",
        "äºĽ"
      ],
      [
        "è°",
        "¢"
      ],
      [
        "æ",
        "¼"
      ],
      [
        "äºĨ",
        "ä¸¤"
      ],
      [
        "æĪĳ",
        "å°±"
      ],
      [
        "ä¼",
        "ı"
      ],
      [
        "å¾Ĺ",
        "äºĨ"
      ],
      [
        "çĽ",
        "´"
      ],
      [
        "æĻ",
        "¯"
      ],
      [
        "èĪ",
        "ħ"
      ],
      [
        "æ¬",
        "²"
      ],
      [
        "è·Ł",
        "åīį"
      ],
      [
        "æ",
        "¨"
      ],
      [
        "å°",
        "ļ"
      ],
      [
        "åĩ",
        "¡"
      ],
      [
        "åĳ¨çĳŀ",
        "å®¶çļĦ"
      ],
      [
        "åĪ",
        "»"
      ],
      [
        "ä¿",
        "Ĺ"
      ],
      [
        "å¬·",
        "å¬·"
      ],
      [
        "çª",
        "Ĺ"
      ],
      [
        "æķ",
        "Ļ"
      ],
      [
        "çĽ",
        "®"
      ],
      [
        "åĪ°",
        "äºĨ"
      ],
      [
        "æĦı",
        "æĢĿ"
      ],
      [
        "ç³",
        "»"
      ],
      [
        "åİ»",
        "ç½¢"
      ],
      [
        "æĬ",
        "±"
      ],
      [
        "éĢ",
        "ļ"
      ],
      [
        "ç«",
        "¯"
      ],
      [
        "å²",
        "ģ"
      ],
      [
        "ä½",
        "ĵ"
      ],
      [
        "çĶ",
        "ļ"
      ],
      [
        "éĹ®",
        "éģĵ"
      ],
      [
        "æ·",
        "»"
      ],
      [
        "çļĦ",
        "è¯Ŀ"
      ],
      [
        "çİ",
        "¯"
      ],
      [
        "ä¼",
        "¤"
      ],
      [
        "çĲ",
        "´"
      ],
      [
        "ä¸ĢéĿ¢",
        "è¯´"
      ],
      [
        "ä¸",
        "ĥ"
      ],
      [
        "âĢ",
        "Ķ"
      ],
      [
        "åı",
        "Ķ"
      ],
      [
        "åħ",
        "ī"
      ],
      [
        "ç©",
        "º"
      ],
      [
        "è¿ĺ",
        "æĺ¯"
      ],
      [
        "é",
        "Ń"
      ],
      [
        "æĹ",
        "ģ"
      ],
      [
        "å£",
        "«"
      ],
      [
        "çŀ§",
        "çŀ§"
      ],
      [
        "åĵ¥",
        "åĵ¥"
      ],
      [
        "ãĢĢãĢĢ",
        "ãĢĢ"
      ],
      [
        "æ",
        "¥"
      ],
      [
        "å®",
        "Ĺ"
      ],
      [
        "æľ",
        "Ģ"
      ],
      [
        "ç´",
        "§"
      ],
      [
        "æĤĦ",
        "æĤĦ"
      ],
      [
        "å®Į",
        "äºĨ"
      ],
      [
        "åħĦ",
        "å¼Ł"
      ],
      [
        "ç",
        "ĵ"
      ],
      [
        "å¥",
        "ĩ"
      ],
      [
        "å¸¦",
        "äºĨ"
      ],
      [
        "èİ",
        "²"
      ],
      [
        "å²Ĥ",
        "ä¸į"
      ],
      [
        "ç",
        "¨"
      ],
      [
        "é",
        "¼"
      ],
      [
        "èµ",
        "µ"
      ],
      [
        "ä¾¿",
        "æĺ¯"
      ],
      [
        "æĪ¿",
        "éĩĮ"
      ],
      [
        "æĪ¿",
        "ä¸Ń"
      ],
      [
        "é¹",
        "ĥ"
      ],
      [
        "ä¸Ģ",
        "æł·"
      ],
      [
        "æľī",
        "äºĨ"
      ],
      [
        "æŃ",
        "¥"
      ],
      [
        "éĿ",
        "Ĵ"
      ],
      [
        "äºĮ",
        "åįģ"
      ],
      [
        "é¢",
        "ĺ"
      ],
      [
        "ä¼Ĺäºº",
        "éĥ½"
      ],
      [
        "åĮ",
        "ħ"
      ],
      [
        "ç",
        "¦ģ"
      ],
      [
        "ä¸Ģ",
        "æĹ¥"
      ],
      [
        "åį",
        "³"
      ],
      [
        "æĸ",
        "Ń"
      ],
      [
        "æ´",
        "»"
      ],
      [
        "èĥ",
        "¡"
      ],
      [
        "ç´«",
        "é¹ĥ"
      ],
      [
        "ä¸į",
        "çĶ¨"
      ],
      [
        "éĹ",
        "·"
      ],
      [
        "åį",
        "ķ"
      ],
      [
        "ç§",
        "į"
      ],
      [
        "é¡",
        "¾"
      ],
      [
        "æĭ¿",
        "äºĨ"
      ],
      [
        "ä¸Ģ",
        "å¤Ħ"
      ],
      [
        "æľ",
        "Ľ"
      ],
      [
        "æľī",
        "äºº"
      ],
      [
        "èº«",
        "ä¸Ĭ"
      ],
      [
        "æ¢",
        "¦"
      ],
      [
        "è¿İ",
        "æĺ¥"
      ],
      [
        "å«Ĥ",
        "åŃĲ"
      ],
      [
        "©",
        "åĴĲ"
      ],
      [
        "åı",
        "¦"
      ],
      [
        "åı",
        "²"
      ],
      [
        "ä¸Ģ",
        "å£°"
      ],
      [
        "åĲ",
        "©åĴĲ"
      ],
      [
        "åıĪ",
        "ä¸į"
      ],
      [
        "æĸ",
        "Ļ"
      ],
      [
        "éĹ®",
        "ä»ĸ"
      ],
      [
        "æģ",
        "¨"
      ],
      [
        "èĦ",
        "ļ"
      ],
      [
        "åįĬ",
        "æĹ¥"
      ],
      [
        "åŃ",
        "Ļ"
      ],
      [
        "åĪ°",
        "åºķ"
      ],
      [
        "ç»Ļ",
        "ä»ĸ"
      ],
      [
        "èĥ",
        "Į"
      ],
      [
        "æŃ»",
        "äºĨ"
      ],
      [
        "ä¸į",
        "è§ī"
      ],
      [
        "å®Ŀçİī",
        "åĲ¬äºĨ"
      ],
      [
        "ä½ľ",
        "ä»Ģä¹Ī"
      ],
      [
        "¯",
        "äºĨ"
      ],
      [
        "ä¸Ģ",
        "åı¥"
      ],
      [
        "éģ",
        "ĩ"
      ],
      [
        "åıª",
        "è¯´"
      ],
      [
        "éĤ£",
        "ä¸ª"
      ],
      [
        "å¼",
        "ķ"
      ],
      [
        "è¿ĩ",
        "åİ»"
      ],
      [
        "éĢ",
        "Ľ"
      ],
      [
        "èĮ",
        "Ĺ"
      ],
      [
        "æ·",
        "·"
      ],
      [
        "çģ",
        "µ"
      ],
      [
        "æµ",
        "·"
      ],
      [
        "çķ",
        "¥"
      ],
      [
        "å°±æĺ¯",
        "äºĨ"
      ],
      [
        "ç",
        "¯"
      ],
      [
        "Ł",
        "äºĨ"
      ],
      [
        "åĩ",
        "Ģ"
      ],
      [
        "èµ",
        "ĸ"
      ],
      [
        "æķ",
        "°"
      ],
      [
        "äºĨä¸Ģ",
        "åĽŀ"
      ],
      [
        "åįģ",
        "åĪĨ"
      ],
      [
        "åİŁ",
        "æĺ¯"
      ],
      [
        "è®¸",
        "å¤ļ"
      ],
      [
        "åı",
        "¸"
      ],
      [
        "å·",
        "¥"
      ],
      [
        "å",
        "ĭ"
      ],
      [
        "ä»",
        "Ļ"
      ],
      [
        "ä¹Ł",
        "æ²¡"
      ],
      [
        "çĶ",
        "±"
      ],
      [
        "å¸",
        "Ĳ"
      ],
      [
        "ç¿",
        "ł"
      ],
      [
        "é",
        "Ł"
      ],
      [
        "çļĦ",
        "æĺ¯"
      ],
      [
        "ä¹",
        "Ŀ"
      ],
      [
        "åº",
        "Ĭ"
      ],
      [
        "è¿ĺ",
        "ä¸į"
      ],
      [
        "çľĭ",
        "èĳĹ"
      ],
      [
        "åĳ½",
        "äºº"
      ],
      [
        "ä¸Ģ",
        "èĪ¬"
      ],
      [
        "çĽ",
        "ĺ"
      ],
      [
        "æģ",
        "¼"
      ],
      [
        "æļ",
        "Ĺ"
      ],
      [
        "éĽ¨",
        "æĿĳ"
      ],
      [
        "åķ",
        "Ĩ"
      ],
      [
        "åħ",
        "±"
      ],
      [
        "å¾",
        "Ī"
      ],
      [
        "ç»",
        "Ī"
      ],
      [
        "æŃ£",
        "æĺ¯"
      ],
      [
        "èµ°",
        "æĿ¥"
      ],
      [
        "è½",
        "¦"
      ],
      [
        "å©",
        "¶"
      ],
      [
        "æ¡",
        "Į"
      ],
      [
        "è",
        "ķ"
      ],
      [
        "å¤",
        "į"
      ],
      [
        "æĢ",
        "»"
      ],
      [
        "çĶ",
        "·"
      ],
      [
        "æİ",
        "¨"
      ],
      [
        "è¿ŀ",
        "å¿Ļ"
      ],
      [
        "æį",
        "¢"
      ],
      [
        "è®",
        "¾"
      ],
      [
        "èĬ",
        "¸"
      ],
      [
        "åĢĴ",
        "æĺ¯"
      ],
      [
        "æĺİ",
        "çĻ½"
      ],
      [
        "é¬",
        "¼"
      ],
      [
        "æĳ",
        "Ĩ"
      ],
      [
        "ï¼ļ",
        "âĢĺ"
      ],
      [
        "å¥",
        "´"
      ],
      [
        "åıª",
        "æĢķ"
      ],
      [
        "åĢ",
        "ĺ"
      ],
      [
        "çº",
        "¸"
      ],
      [
        "ç¢",
        "Ĺ"
      ],
      [
        "æ",
        "Ħ¿"
      ],
      [
        "å®",
        "¢"
      ],
      [
        "åĽŀ",
        "åİ»"
      ],
      [
        "åĽł",
        "éĹ®"
      ],
      [
        "éĢ",
        "Ĵ"
      ],
      [
        "ç½",
        "ª"
      ],
      [
        "äºĨ",
        "ä¸Ģä¸ª"
      ],
      [
        "ä½ł",
        "å°±"
      ],
      [
        "ä¸ĭ",
        "æĿ¥"
      ],
      [
        "é¡",
        "»"
      ],
      [
        "çĥ",
        "¦"
      ],
      [
        "å",
        "»"
      ],
      [
        "ç",
        "±"
      ],
      [
        "é",
        "²"
      ],
      [
        "ä½",
        "Ļ"
      ],
      [
        "âĢĿ",
        "ï¼Į"
      ],
      [
        "ä¿",
        "Ŀ"
      ],
      [
        "çĤ",
        "ķ"
      ],
      [
        "ç¦",
        "»"
      ],
      [
        "è¯",
        "¸"
      ],
      [
        "ä¸į",
        "åı¯"
      ],
      [
        "æĬ",
        "¬"
      ],
      [
        "æł",
        "¹"
      ],
      [
        "ä¸ī",
        "ä¸ª"
      ],
      [
        "æĤ",
        "²"
      ],
      [
        "æ·",
        "±"
      ],
      [
        "åĶ",
        "¬"
      ],
      [
        "æ¡",
        "Ĥ"
      ],
      [
        "èģ",
        "Ķ"
      ],
      [
        "æ",
        "º"
      ],
      [
        "ä¸į",
        "ä½ı"
      ],
      [
        "ä½",
        "Ľ"
      ],
      [
        "æĺ",
        "ĵ"
      ],
      [
        "æľ",
        "Ŀ"
      ],
      [
        "åĪ",
        "©"
      ],
      [
        "çı",
        "ł"
      ],
      [
        "çĭ",
        "¬"
      ],
      [
        "å¿ĺ",
        "äºĨ"
      ],
      [
        "å",
        "ĥ"
      ],
      [
        "è",
        "¸"
      ],
      [
        "ä¸Ģ",
        "ä»¶"
      ],
      [
        "æŃ",
        "¢"
      ],
      [
        "çľĭ",
        "è§ģ"
      ],
      [
        "çģ",
        "«"
      ],
      [
        "ä¸»",
        "æĦı"
      ],
      [
        "ä¸",
        "¢"
      ],
      [
        "å¦",
        "»"
      ],
      [
        "çľĭ",
        "äºĨ"
      ],
      [
        "ä¸İ",
        "ä»ĸ"
      ],
      [
        "å",
        "¡"
      ],
      [
        "è",
        "¹"
      ],
      [
        "è¯",
        "»"
      ],
      [
        "äºĮ",
        "å¥¶å¥¶"
      ],
      [
        "é»",
        "Ħ"
      ],
      [
        "æĦ",
        "Ł"
      ],
      [
        "æģ",
        "©"
      ],
      [
        "åģ",
        "·"
      ],
      [
        "å¿½",
        "è§ģ"
      ],
      [
        "åĨµ",
        "ä¸Ķ"
      ],
      [
        "æĤĦæĤĦ",
        "çļĦ"
      ],
      [
        "ç¬",
        "Ķ"
      ],
      [
        "æľī",
        "ä¸ª"
      ],
      [
        "æľī",
        "äºĽ"
      ],
      [
        "ç¬ĳ",
        "è¯´"
      ],
      [
        "åıª",
        "åĲ¬"
      ],
      [
        "æķ",
        "¬"
      ],
      [
        "çľĭ",
        "æĹ¶"
      ],
      [
        "é¢",
        "Ħ"
      ],
      [
        "åł",
        "Ĥ"
      ],
      [
        "å",
        "Ĥ"
      ],
      [
        "ä¸Ģ",
        "åĽŀ"
      ],
      [
        "æľī",
        "ä»Ģä¹Ī"
      ],
      [
        "æ²",
        "»"
      ],
      [
        "æģ",
        "¯"
      ],
      [
        "æĺİ",
        "æĹ¥"
      ],
      [
        "è¶",
        "ģ"
      ],
      [
        "æ¸",
        "Ĳ"
      ],
      [
        "ç²",
        "¾"
      ],
      [
        "éĨ",
        "Ĵ"
      ],
      [
        "ç§¦",
        "éĴŁ"
      ],
      [
        "æ",
        "ĵ"
      ],
      [
        "åŃĲ",
        "æĿ¥"
      ],
      [
        "éĴ",
        "ı"
      ],
      [
        "æĮ",
        "ī"
      ],
      [
        "æĺ¨",
        "åĦ¿"
      ],
      [
        "å¤",
        "±"
      ],
      [
        "ä¹Ł",
        "å°±"
      ],
      [
        "åıª",
        "æľī"
      ],
      [
        "èĩ",
        "´"
      ],
      [
        "å½",
        "Ĵ"
      ],
      [
        "é¡",
        "º"
      ],
      [
        "è¶",
        "³"
      ],
      [
        "ç³",
        "Ĭ"
      ],
      [
        "å",
        "ŀ"
      ],
      [
        "äº",
        "ı"
      ],
      [
        "äºĨ",
        "æĿ¥"
      ],
      [
        "åİ»",
        "çļĦ"
      ],
      [
        "å®Ŀ",
        "çĲ´"
      ],
      [
        "æĥ",
        "Ĭ"
      ],
      [
        "æĭ",
        "¾"
      ],
      [
        "éĿ",
        "Ļ"
      ],
      [
        "åĵ",
        "Ħ"
      ],
      [
        "åĴĮ",
        "ä»ĸ"
      ],
      [
        "ç§",
        "°"
      ],
      [
        "å¤ļ",
        "å°ĳ"
      ],
      [
        "å¤©",
        "å¤©"
      ],
      [
        "èİ",
        "ºåĦ¿"
      ],
      [
        "éľ",
        "²"
      ],
      [
        "ãĢĤ",
        "âĢĻ"
      ],
      [
        "å¦",
        "¥"
      ],
      [
        "åħ",
        "³"
      ],
      [
        "è°",
        "ĥ"
      ],
      [
        "æŃ¤",
        "æĹ¶"
      ],
      [
        "èĪ",
        "į"
      ],
      [
        "èį",
        "ī"
      ],
      [
        "æĮ",
        "Ĥ"
      ],
      [
        "çĸ",
        "ĳ"
      ],
      [
        "èµ",
        "¦"
      ],
      [
        "ä¾¿",
        "è¯´"
      ],
      [
        "ä¸¤",
        "éĵ¶åŃĲ"
      ],
      [
        "è¾",
        "ŀ"
      ],
      [
        "ç",
        "ĩ"
      ],
      [
        "è§",
        "Ĵ"
      ],
      [
        "å¹",
        "¸"
      ],
      [
        "è¿ĺ",
        "è¦ģ"
      ],
      [
        "åĪ«",
        "çļĦ"
      ],
      [
        "çĦ¶",
        "åĲİ"
      ],
      [
        "æį",
        "§"
      ],
      [
        "å¦",
        "ĥ"
      ],
      [
        "è®",
        "¡"
      ],
      [
        "å¸",
        "ĺ"
      ],
      [
        "éĢ",
        "Ģ"
      ],
      [
        "æĥ³",
        "èĳĹ"
      ],
      [
        "çĥ",
        "§"
      ],
      [
        "é¥",
        "®"
      ],
      [
        "åĽĽ",
        "ä¸ª"
      ],
      [
        "ä¸įè¿ĩ",
        "æĺ¯"
      ],
      [
        "æħ",
        "¢"
      ],
      [
        "çĬ",
        "¹"
      ],
      [
        "é",
        "ĥ"
      ],
      [
        "æĭ",
        "£"
      ],
      [
        "å¿Ļ",
        "éģĵ"
      ],
      [
        "æ¯į",
        "äº²"
      ],
      [
        "åı«",
        "æĪĳ"
      ],
      [
        "æĭ¿",
        "èĳĹ"
      ],
      [
        "åĵ¥",
        "åĦ¿"
      ],
      [
        "è¯",
        "į"
      ],
      [
        "ä¸į",
        "å¿ħ"
      ],
      [
        "äºº",
        "çļĦ"
      ],
      [
        "åľ",
        "º"
      ],
      [
        "åį",
        "Ĺ"
      ],
      [
        "è¯Ŀ",
        "è¯´"
      ],
      [
        "èĬ",
        "Ĥ"
      ],
      [
        "æ²¡",
        "äºĨ"
      ],
      [
        "åı«",
        "ä½ł"
      ],
      [
        "è´¾æ¯į",
        "ç¬ĳéģĵ"
      ],
      [
        "èµ°",
        "äºĨ"
      ],
      [
        "éħ",
        "į"
      ],
      [
        "åĨ·",
        "ç¬ĳéģĵ"
      ],
      [
        "æ",
        "§"
      ],
      [
        "åŃĲ",
        "éĩĮ"
      ],
      [
        "è§",
        "Ĥ"
      ],
      [
        "åīį",
        "åĦ¿"
      ],
      [
        "å§ĳå¨ĺ",
        "ä»¬"
      ],
      [
        "æĢİä¹Ī",
        "æł·"
      ],
      [
        "éĺ",
        "´"
      ],
      [
        "ç¥ĸ",
        "å®Ĺ"
      ],
      [
        "ä¼ı",
        "ä¾į"
      ],
      [
        "è",
        "Ķ"
      ],
      [
        "å®",
        "«"
      ],
      [
        "åĩ",
        "Ń"
      ],
      [
        "ç»",
        "£"
      ],
      [
        "åı¯",
        "æĺ¯"
      ],
      [
        "æīį",
        "æĺ¯"
      ],
      [
        "ä¸į",
        "è§ģ"
      ],
      [
        "æĺ¯",
        "è°ģ"
      ],
      [
        "è¯´",
        "æ¯ķ"
      ],
      [
        "åĽŀ",
        "å¤´"
      ],
      [
        "æĬ",
        "¥"
      ],
      [
        "æŀ",
        "Ŀ"
      ],
      [
        "åī",
        "©"
      ],
      [
        "åĬ",
        "Ľ"
      ],
      [
        "é£",
        "ŀ"
      ],
      [
        "èĻ½",
        "çĦ¶"
      ],
      [
        "æ¥",
        "¼"
      ],
      [
        "é¢Ħ",
        "å¤ĩ"
      ],
      [
        "ç",
        "£"
      ],
      [
        "ä¸į",
        "èĤ¯"
      ],
      [
        "æĿ",
        "¡"
      ],
      [
        "è´¾",
        "èĬ¸"
      ],
      [
        "å¼",
        "Ĥ"
      ],
      [
        "åĢ",
        "¼"
      ],
      [
        "æĶ",
        "¹"
      ],
      [
        "å½",
        "¼"
      ],
      [
        "è´¾æ¯į",
        "éģĵ"
      ],
      [
        "å·²",
        "ç»ı"
      ],
      [
        "è¢Ńäºº",
        "éģĵ"
      ],
      [
        "åĽŃ",
        "ä¸Ń"
      ],
      [
        "æ",
        "ĩ"
      ],
      [
        "äºĨ",
        "åĩł"
      ],
      [
        "æĪĳ",
        "ä¸į"
      ],
      [
        "æĪĳ",
        "ä¹Łä¸į"
      ],
      [
        "èµ",
        "Į"
      ],
      [
        "éĤ£",
        "ä¸Ģ"
      ],
      [
        "æĢ",
        "Ģ"
      ],
      [
        "åĿ",
        "Ĺ"
      ],
      [
        "æ¶",
        "Ĥ"
      ],
      [
        "èĻ",
        "ļ"
      ],
      [
        "èµµ",
        "å§¨å¨ĺ"
      ],
      [
        "åķĨ",
        "è®®"
      ],
      [
        "å§",
        "Ķ"
      ],
      [
        "åĳ",
        "Ĩ"
      ],
      [
        "åį",
        "İ"
      ],
      [
        "å°ı",
        "å§Ĳ"
      ],
      [
        "çº",
        "µ"
      ],
      [
        "è°",
        "Ī"
      ],
      [
        "åĬ",
        "ŀ"
      ],
      [
        "éļ",
        "Ĳ"
      ],
      [
        "çĹ",
        "´"
      ],
      [
        "æ´",
        "¾"
      ],
      [
        "åĸľ",
        "æ¬¢"
      ],
      [
        "ç¾",
        "İ"
      ],
      [
        "åĢĺ",
        "æĪĸ"
      ],
      [
        "æ",
        "½"
      ],
      [
        "è¿Ļ",
        "åĩł"
      ],
      [
        "ä½ł",
        "ä¹Ł"
      ],
      [
        "ä¹Ł",
        "éĥ½"
      ],
      [
        "è´",
        "¹"
      ],
      [
        "è´¾",
        "èµ¦"
      ],
      [
        "åį",
        "ĸ"
      ],
      [
        "æĢ",
        "ľ"
      ],
      [
        "ç»",
        "Ŀ"
      ],
      [
        "ä»¥",
        "åĲİ"
      ],
      [
        "ä¸Ķ",
        "è¯´"
      ],
      [
        "æŀĹ",
        "ä¹ĭ"
      ],
      [
        "æ¬¡",
        "æĹ¥"
      ],
      [
        "ç¦",
        "ı"
      ],
      [
        "çĩ",
        "ķ"
      ],
      [
        "ä¸į",
        "æĽ¾"
      ],
      [
        "èĳĹ",
        "äºĨ"
      ],
      [
        "åı¯",
        "å·§"
      ],
      [
        "æŃ£",
        "ç»ı"
      ],
      [
        "çī",
        "Į"
      ],
      [
        "æ£",
        "ĭ"
      ],
      [
        "å®",
        "Ī"
      ],
      [
        "æľ",
        "¨"
      ],
      [
        "ä¹ĭ",
        "äºĭ"
      ],
      [
        "éĻ",
        "¤"
      ],
      [
        "åĸ",
        "Ħ"
      ],
      [
        "åİŁ",
        "æķħ"
      ],
      [
        "åĿĲ",
        "äºĨ"
      ],
      [
        "å®ĿéĴĹ",
        "éģĵ"
      ],
      [
        "å®ĿéĴĹ",
        "ç¬ĳéģĵ"
      ],
      [
        "æ¸",
        "¸"
      ],
      [
        "çĤ¹",
        "å¤´"
      ],
      [
        "çĮ",
        "ľ"
      ],
      [
        "æ¨",
        "ª"
      ],
      [
        "æŀĹä¹ĭ",
        "åŃĿ"
      ],
      [
        "è",
        "Ŀ"
      ],
      [
        "é",
        "¾"
      ],
      [
        "äºĨ",
        "æĪĳ"
      ],
      [
        "åº",
        "¦"
      ],
      [
        "çº",
        "±"
      ],
      [
        "ç§",
        "ģ"
      ],
      [
        "ç»Ļ",
        "æĪĳ"
      ],
      [
        "æĶ¾",
        "å¿ĥ"
      ],
      [
        "å¦ĤæŃ¤",
        "è¯´"
      ],
      [
        "è",
        "Ĩ"
      ],
      [
        "ç¬ĳ",
        "äºĨ"
      ],
      [
        "è§ģ",
        "è¿ĩ"
      ],
      [
        "è®",
        "¨"
      ],
      [
        "æīį",
        "å¥½"
      ],
      [
        "å«",
        "Į"
      ],
      [
        "èĮĹ",
        "çĥŁ"
      ],
      [
        "ä½",
        "İ"
      ],
      [
        "æī",
        "ĩ"
      ],
      [
        "è´¾",
        "çİ¯"
      ],
      [
        "å®¶",
        "åİ»"
      ],
      [
        "æĽ",
        "²"
      ],
      [
        "è·",
        "ª"
      ],
      [
        "è½",
        "¿"
      ],
      [
        "åĮ",
        "»"
      ],
      [
        "æ¹ĺ",
        "èİ²"
      ],
      [
        "çĪ¶",
        "æ¯į"
      ],
      [
        "èĳĹ",
        "ä»ĸ"
      ],
      [
        "æŃ",
        "¹"
      ],
      [
        "æĭ",
        "ľ"
      ],
      [
        "çº",
        "¿"
      ],
      [
        "éĢ",
        "ł"
      ],
      [
        "åı¯",
        "ä»¥"
      ],
      [
        "å°¤",
        "äºĮå§Ĳ"
      ],
      [
        "å°ĳ",
        "ä¸įå¾Ĺ"
      ],
      [
        "ç¿",
        "»"
      ],
      [
        "æĺ¨",
        "æĹ¥"
      ],
      [
        "å",
        "ļ"
      ],
      [
        "å°",
        "Ŀ"
      ],
      [
        "åİ",
        "ħ"
      ],
      [
        "ä½ł",
        "ä¸į"
      ],
      [
        "æī",
        "¿"
      ],
      [
        "åĪ",
        "Ŀ"
      ],
      [
        "æĢ",
        "¡"
      ],
      [
        "åįģ",
        "äºĮ"
      ],
      [
        "åı",
        "ĭ"
      ],
      [
        "è¿Ļ",
        "ä¸¤"
      ],
      [
        "ä¾",
        "ĭ"
      ],
      [
        "ä¾",
        "Ľ"
      ],
      [
        "éĩĮ",
        "éĿ¢"
      ],
      [
        "åĩ¤å§Ĳ",
        "éģĵ"
      ],
      [
        "åĿĲ",
        "åľ¨"
      ],
      [
        "ç²",
        "ī"
      ],
      [
        "æĿ",
        "¿"
      ],
      [
        "è¿Ļ",
        "è¾¹"
      ],
      [
        "å§",
        "ĵ"
      ],
      [
        "æī",
        "ĺ"
      ],
      [
        "åŃĲ",
        "çļĦ"
      ],
      [
        "æľī",
        "çļĦ"
      ],
      [
        "è´",
        "´"
      ],
      [
        "å¥½",
        "çĶŁ"
      ],
      [
        "èĢ",
        "³"
      ],
      [
        "ç»",
        "¿"
      ],
      [
        "å·",
        "®"
      ],
      [
        "æĬ",
        "ĺ"
      ],
      [
        "éĴ",
        "Ī"
      ],
      [
        "åĲĥ",
        "é¥Ń"
      ],
      [
        "å½",
        "¢"
      ],
      [
        "èĪ",
        "ĸ"
      ],
      [
        "ä¸«å¤´",
        "ä»¬"
      ],
      [
        "åĮ",
        "ĸ"
      ],
      [
        "åĶ",
        "±"
      ],
      [
        "åŁ",
        "İ"
      ],
      [
        "ç",
        "°"
      ],
      [
        "ä»",
        "»"
      ],
      [
        "æĿ¥",
        "èĩ³"
      ],
      [
        "åĲ",
        "«"
      ],
      [
        "ä½ł",
        "è¯´"
      ],
      [
        "å¤§",
        "çĪ·"
      ],
      [
        "çŁ",
        "Ń"
      ],
      [
        "ç»",
        "ĵ"
      ],
      [
        "æ²",
        "¹"
      ],
      [
        "åĲĥ",
        "éħĴ"
      ],
      [
        "ç»Ļ",
        "ä½ł"
      ],
      [
        "èı",
        "ľ"
      ],
      [
        "çĻ",
        "»"
      ],
      [
        "ä¸",
        "ļ"
      ],
      [
        "äºĨ",
        "åĩºæĿ¥"
      ],
      [
        "âĢĿ",
        "ãĢĤ"
      ],
      [
        "äºº",
        "åİ»"
      ],
      [
        "å¥",
        "Ī"
      ],
      [
        "åıĪ",
        "éģĵ"
      ],
      [
        "éĩĮ",
        "å¤´"
      ],
      [
        "å·",
        "¦"
      ],
      [
        "ç½",
        "ļ"
      ],
      [
        "çĽ",
        "ĳ"
      ],
      [
        "åĬ",
        "¿"
      ],
      [
        "å¯",
        "¿"
      ],
      [
        "å¯",
        "Ĵ"
      ],
      [
        "å¸¦",
        "èĳĹ"
      ],
      [
        "åĲĦ",
        "å¤Ħ"
      ],
      [
        "è¡£",
        "æľį"
      ],
      [
        "çł",
        "´"
      ],
      [
        "æĥľ",
        "æĺ¥"
      ],
      [
        "éĴı",
        "åĦ¿"
      ],
      [
        "ç³Ĭ",
        "æ¶Ĥ"
      ],
      [
        "è",
        "¤"
      ],
      [
        "è¯",
        "ķ"
      ],
      [
        "ä¸į",
        "è®¸"
      ],
      [
        "åĲİ",
        "æĿ¥"
      ],
      [
        "ä¿",
        "±"
      ],
      [
        "éĺ",
        "³"
      ],
      [
        "åľ°",
        "ä¸ĭ"
      ],
      [
        "æŁ",
        "¥"
      ],
      [
        "è",
        "Ĵ"
      ],
      [
        "åı",
        "ĺ"
      ],
      [
        "å¿",
        "į"
      ],
      [
        "å¦",
        "Ĩ"
      ],
      [
        "åĽŀ",
        "è¯´"
      ],
      [
        "åº",
        "Ļ"
      ],
      [
        "æł",
        "ĳ"
      ],
      [
        "æĹł",
        "äºº"
      ],
      [
        "åĿĲ",
        "èĳĹ"
      ],
      [
        "æ¢",
        "ħ"
      ],
      [
        "ç¤",
        "¾"
      ],
      [
        "æĴ",
        "Ĵ"
      ],
      [
        "æĶ¶",
        "æĭ¾"
      ],
      [
        "å°ıä¸«å¤´",
        "åŃĲ"
      ],
      [
        "å©¶",
        "åŃĲ"
      ],
      [
        "æ",
        "¤"
      ],
      [
        "åı",
        "¶"
      ],
      [
        "è¯",
        "Ĩ"
      ],
      [
        "éģ",
        "£"
      ],
      [
        "ä½ł",
        "åıĪ"
      ],
      [
        "åĦ¿",
        "åŃĲ"
      ],
      [
        "å¾",
        "Ħ"
      ],
      [
        "çľ",
        "ī"
      ],
      [
        "è¦ģ",
        "ç´§"
      ],
      [
        "åı¯",
        "çŁ¥"
      ],
      [
        "åı«",
        "äºº"
      ],
      [
        "é»Ľçİī",
        "éģĵ"
      ],
      [
        "èı",
        "Ĭ"
      ],
      [
        "è£",
        "ħ"
      ],
      [
        "è¡£",
        "è£"
      ],
      [
        "çĪ¶",
        "äº²"
      ],
      [
        "ä¼¼",
        "çļĦ"
      ],
      [
        "åı²",
        "æ¹ĺäºĳ"
      ],
      [
        "åŀ",
        "Ĥ"
      ],
      [
        "æĢ¡",
        "çº¢"
      ],
      [
        "æĪ",
        "ļ"
      ],
      [
        "æĪĳ",
        "æīį"
      ],
      [
        "å°",
        "ģ"
      ],
      [
        "åĳ",
        "³"
      ],
      [
        "éĤ£",
        "ä¸Ģä¸ª"
      ],
      [
        "å¨",
        "¶"
      ],
      [
        "æĶ",
        "¯"
      ],
      [
        "ç«",
        "¹"
      ],
      [
        "é»Ľçİī",
        "ç¬ĳéģĵ"
      ],
      [
        "çĶŁ",
        "æ°Ķ"
      ],
      [
        "é¡",
        "¿"
      ],
      [
        "é¸",
        "¡"
      ],
      [
        "å¦Ī",
        "å¦Ī"
      ],
      [
        "å¼Ģ",
        "äºĨ"
      ],
      [
        "ç¾",
        "ŀ"
      ],
      [
        "æ¯ı",
        "æĹ¥"
      ],
      [
        "æ¦",
        "Ĥ"
      ],
      [
        "å®¹",
        "æĺĵ"
      ],
      [
        "å·¥",
        "å¤«"
      ],
      [
        "åı",
        "Į"
      ],
      [
        "ä½ł",
        "èĢģ"
      ],
      [
        "çº",
        "¦"
      ],
      [
        "æİ",
        "©"
      ],
      [
        "æĦ",
        "ģ"
      ],
      [
        "å¯",
        "Į"
      ],
      [
        "è¡",
        "¥"
      ],
      [
        "æĮ",
        "¨"
      ],
      [
        "æĹ©",
        "å·²"
      ],
      [
        "éĶ",
        "¦"
      ],
      [
        "åºķ",
        "ä¸ĭ"
      ],
      [
        "éĨ",
        "ī"
      ],
      [
        "éŃ",
        "Ĥ"
      ],
      [
        "è¡£è£",
        "³"
      ],
      [
        "çļĦ",
        "ä¸ľè¥¿"
      ],
      [
        "ä¸į",
        "è¦ģ"
      ],
      [
        "éģ",
        "į"
      ],
      [
        "éģ",
        "Ń"
      ],
      [
        "åĩ",
        "ĳ"
      ],
      [
        "å¥",
        "Ĺ"
      ],
      [
        "è´¾",
        "çĳŀ"
      ],
      [
        "ä¾¿",
        "åĳ½"
      ],
      [
        "åĢ",
        "Ł"
      ],
      [
        "çº",
        "ª"
      ],
      [
        "æŀ",
        "ķ"
      ],
      [
        "çŁ¥éģĵ",
        "äºĨ"
      ],
      [
        "èĶ",
        "·"
      ],
      [
        "äº",
        "¬"
      ],
      [
        "è¿Ļ",
        "èĪ¬"
      ],
      [
        "åıĪ",
        "è§ģ"
      ],
      [
        "åıĪ",
        "åĳ½"
      ],
      [
        "åħ",
        "°"
      ],
      [
        "ä¸Ĭ",
        "éĿ¢"
      ],
      [
        "å¥½",
        "æŃ¹"
      ],
      [
        "åģ",
        "¶"
      ],
      [
        "åģ",
        "ĩ"
      ],
      [
        "æīĭ",
        "éĩĮ"
      ],
      [
        "è¯·",
        "å®ī"
      ],
      [
        "çº¢",
        "çİī"
      ],
      [
        "æ±",
        "¤"
      ],
      [
        "æİ¥",
        "äºĨ"
      ],
      [
        "å®",
        "³"
      ],
      [
        "äºº",
        "éĥ½"
      ],
      [
        "ä»ĸ",
        "è¯´"
      ],
      [
        "ä¼",
        "¸"
      ],
      [
        "æĸ",
        "Ĺ"
      ],
      [
        "äºĮ",
        "åĪĻ"
      ],
      [
        "ç«",
        "ĸ"
      ],
      [
        "éļ",
        "Ķ"
      ],
      [
        "èĤ",
        "ī"
      ],
      [
        "éª",
        "¨"
      ],
      [
        "åºľ",
        "éĩĮ"
      ],
      [
        "çļĦ",
        "äºĨ"
      ],
      [
        "çļĦ",
        "å¥½"
      ],
      [
        "ä¸į",
        "æĥ³"
      ],
      [
        "ä¸Ģ",
        "çľĭ"
      ],
      [
        "ä¸Ģ",
        "çĤ¹"
      ],
      [
        "æĺ¯",
        "ä»ĸ"
      ],
      [
        "çİ",
        "©"
      ],
      [
        "å®Ŀçİī",
        "å¿Ļ"
      ],
      [
        "åĩº",
        "äºĨ"
      ],
      [
        "æĹ¥",
        "åŃĲ"
      ],
      [
        "æĸ",
        "Ł"
      ],
      [
        "ä¸º",
        "ä»Ģä¹Ī"
      ],
      [
        "å¹´",
        "çºª"
      ],
      [
        "é¥",
        "¶"
      ],
      [
        "æļ",
        "Ĥ"
      ],
      [
        "æħ",
        "Į"
      ],
      [
        "å",
        "Ļ"
      ],
      [
        "ä»",
        "£"
      ],
      [
        "ä¸į",
        "å¤§"
      ],
      [
        "ä¸Ģ",
        "ä¸Ģ"
      ],
      [
        "ä¸Ģ",
        "å¹´"
      ],
      [
        "ä¸Ģ",
        "é½Ĳ"
      ],
      [
        "å¥",
        "ī"
      ],
      [
        "æī",
        "§"
      ],
      [
        "å¦",
        "¨"
      ],
      [
        "éĩ",
        "ı"
      ],
      [
        "åıĪ",
        "éĹ®"
      ],
      [
        "ä¾",
        "Ħ"
      ],
      [
        "ä¾¿",
        "çŁ¥"
      ],
      [
        "è¿ĩ",
        "äºĨ"
      ],
      [
        "éĺ",
        "ģ"
      ],
      [
        "åĺ",
        "»"
      ],
      [
        "âĢĶ",
        "âĢĶ"
      ],
      [
        "éĢĴ",
        "ä¸İ"
      ],
      [
        "æĩ",
        "Ĵ"
      ],
      [
        "åı",
        "°"
      ],
      [
        "ä¸į",
        "èĳĹ"
      ],
      [
        "åĲ",
        "Ľ"
      ],
      [
        "æĪĳ",
        "åıª"
      ],
      [
        "è§ģ",
        "å®Ŀçİī"
      ],
      [
        "å·",
        "´"
      ],
      [
        "åĽŀ",
        "å®¶"
      ],
      [
        "èĢģ",
        "ç¥ĸå®Ĺ"
      ],
      [
        "çº",
        "¹"
      ],
      [
        "åĩ¤å§Ĳ",
        "ç¬ĳéģĵ"
      ],
      [
        "è¾",
        "Ī"
      ],
      [
        "å°Ĩ",
        "æĿ¥"
      ],
      [
        "æĮ",
        "ĳ"
      ],
      [
        "æ¡",
        "Ī"
      ],
      [
        "åı¹",
        "éģĵ"
      ],
      [
        "ï¼",
        "Ľ"
      ],
      [
        "ä¸",
        "¾"
      ],
      [
        "æľ",
        "º"
      ],
      [
        "è¿Ļ",
        "äºĭ"
      ],
      [
        "ä½ł",
        "åıª"
      ],
      [
        "åĽ",
        "´"
      ],
      [
        "å½",
        "±"
      ],
      [
        "ä¸Ģä¸ª",
        "äºº"
      ],
      [
        "æ°Ķ",
        "çļĦ"
      ],
      [
        "å¤ĸ",
        "éĿ¢"
      ],
      [
        "è¢Ńäºº",
        "ç¬ĳéģĵ"
      ],
      [
        "éĺ",
        "²"
      ],
      [
        "åĮ",
        "Ĺ"
      ],
      [
        "çķ",
        "ª"
      ],
      [
        "ä¸»",
        "åŃĲ"
      ],
      [
        "æĳ",
        "ĩ"
      ],
      [
        "åı¸",
        "æ£ĭ"
      ],
      [
        "æĢ¡çº¢",
        "éĻ¢"
      ],
      [
        "äºĨ",
        "äºĽ"
      ],
      [
        "å¤§",
        "äºĭ"
      ],
      [
        "æĭ",
        "į"
      ],
      [
        "èĢģ",
        "å©ĨåŃĲ"
      ],
      [
        "ä»Ĭ",
        "å¹´"
      ],
      [
        "çĽ",
        "Ľ"
      ],
      [
        "åĴĮ",
        "æĪĳ"
      ],
      [
        "éĹ¨",
        "åīį"
      ],
      [
        "åį´",
        "æĺ¯"
      ],
      [
        "åĽŃ",
        "éĩĮ"
      ],
      [
        "éķ",
        "ľ"
      ],
      [
        "äºĨ",
        "ä½ł"
      ],
      [
        "è¯´",
        "ä»ĸ"
      ],
      [
        "æĹ",
        "ı"
      ],
      [
        "èµ",
        "ŀ"
      ],
      [
        "ç¬ĳ",
        "èĳĹ"
      ],
      [
        "åĽł",
        "ç¬ĳéģĵ"
      ],
      [
        "çŃī",
        "æĪĳ"
      ],
      [
        "åĲĥ",
        "èĮ¶"
      ],
      [
        "åĬ",
        "¡"
      ],
      [
        "åĬ",
        "ł"
      ],
      [
        "è·",
        "³"
      ],
      [
        "èĸ",
        "Ħ"
      ],
      [
        "æĤ",
        "Ķ"
      ],
      [
        "éĹ²",
        "è¯Ŀ"
      ],
      [
        "å¢",
        "¨"
      ],
      [
        "è¯»",
        "ä¹¦"
      ],
      [
        "æŀĹä¹ĭåŃĿ",
        "å®¶çļĦ"
      ],
      [
        "çļ",
        "®"
      ],
      [
        "ä¸į",
        "çĦ¶"
      ],
      [
        "ä¹Ł",
        "è¦ģ"
      ],
      [
        "ä¸Ĭ",
        "çļĦ"
      ],
      [
        "åĩº",
        "åİ»äºĨ"
      ],
      [
        "ä¸ĭ",
        "åĽŀ"
      ],
      [
        "å°ı",
        "çļĦ"
      ],
      [
        "å¨",
        "ĩ"
      ],
      [
        "åĲĥ",
        "çļĦ"
      ],
      [
        "åĴĮ",
        "ä½ł"
      ],
      [
        "æŀĹ",
        "å§ĳå¨ĺ"
      ],
      [
        "å½ĵ",
        "æĹ¥"
      ],
      [
        "åľ°",
        "æĸ¹"
      ],
      [
        "æļ",
        "ĸ"
      ],
      [
        "ç§¦",
        "æ°ı"
      ],
      [
        "çŃĶåºĶ",
        "äºĨ"
      ],
      [
        "ãĢĭ",
        "ï¼Į"
      ],
      [
        "èĹ",
        "ı"
      ],
      [
        "è¯´",
        "æĪĳ"
      ],
      [
        "èĳĹ",
        "ä¸Ģ"
      ],
      [
        "ä¸Ĭ",
        "äºĨ"
      ],
      [
        "ä¸ĭ",
        "äºĨ"
      ],
      [
        "å¿ĥ",
        "ä¸ĭ"
      ],
      [
        "çĽ",
        "Ĩ"
      ],
      [
        "çĽ",
        "Ĭ"
      ],
      [
        "äº²",
        "æĪļ"
      ],
      [
        "éĺ",
        "µ"
      ],
      [
        "åĺ",
        "±"
      ],
      [
        "ç¼",
        "ĸ"
      ],
      [
        "ç¼",
        "ĺ"
      ],
      [
        "èĹ",
        "ķ"
      ],
      [
        "ä¸",
        "§"
      ],
      [
        "ä¸į",
        "ç®¡"
      ],
      [
        "æĹ",
        "ºåĦ¿"
      ],
      [
        "å®Ŀçİī",
        "åĲ¬è¯´"
      ],
      [
        "è¯Ŀ",
        "ä¸ĭ"
      ],
      [
        "çŃī",
        "èĳĹ"
      ],
      [
        "æŃ£",
        "è¯´èĳĹ"
      ],
      [
        "æĪ¿",
        "åĨħ"
      ],
      [
        "ç¥",
        "Ń"
      ],
      [
        "åĪĨ",
        "è§£"
      ],
      [
        "çİĭå¤«äºº",
        "éģĵ"
      ],
      [
        "æ¡",
        "ĥ"
      ],
      [
        "å»",
        "Ĭ"
      ],
      [
        "äºĨ",
        "ä¸ª"
      ],
      [
        "ä¹",
        "ł"
      ],
      [
        "åĩ",
        "ī"
      ],
      [
        "ä¹Ł",
        "ç½¢äºĨ"
      ],
      [
        "è§",
        "Ħ"
      ],
      [
        "åħ",
        "ĥ"
      ],
      [
        "å¥½",
        "äºĽ"
      ],
      [
        "åĽł",
        "è¯´éģĵ"
      ],
      [
        "é»",
        "ĳ"
      ],
      [
        "ä½ķ",
        "å¿ħ"
      ],
      [
        "åĿĲ",
        "ä¸ĭ"
      ],
      [
        "äº²",
        "èĩª"
      ],
      [
        "è¯´èĳĹ",
        "ä¾¿"
      ],
      [
        "ä½ı",
        "äºĨ"
      ],
      [
        "æľª",
        "äºĨ"
      ],
      [
        "æĶ¾",
        "åľ¨"
      ],
      [
        "è·Ł",
        "èĳĹ"
      ],
      [
        "èİ",
        "«"
      ],
      [
        "é«ĺ",
        "åħ´"
      ],
      [
        "å¥´",
        "æīį"
      ],
      [
        "Ħ",
        "åŃĲ"
      ],
      [
        "å¤",
        "Ł"
      ],
      [
        "æĪĳ",
        "æĺ¯"
      ],
      [
        "æĺ¯",
        "ä½ł"
      ],
      [
        "ç¬ĳ",
        "è¯Ŀ"
      ],
      [
        "åľ",
        "Ł"
      ],
      [
        "ä¾¿",
        "å°Ĩ"
      ],
      [
        "å¤§",
        "å¤«"
      ],
      [
        "å¸",
        "ķ"
      ],
      [
        "åĽł",
        "åıĪ"
      ],
      [
        "æĥ³",
        "èµ·"
      ],
      [
        "å±",
        "ħ"
      ],
      [
        "éĢģ",
        "äºĨ"
      ],
      [
        "é£",
        "Ł"
      ],
      [
        "å½ĵ",
        "ä¸ĭ"
      ],
      [
        "åı¥",
        "è¯Ŀ"
      ],
      [
        "èĦ¸",
        "ä¸Ĭ"
      ],
      [
        "åĽ½",
        "åºľ"
      ],
      [
        "éŁ",
        "µ"
      ],
      [
        "é²",
        "ľ"
      ],
      [
        "æ¤",
        "ħ"
      ],
      [
        "ä¸Ģ",
        "è¯Ń"
      ],
      [
        "æĪ",
        "´"
      ],
      [
        "éģĵ",
        "å£«"
      ],
      [
        "æĺ¯",
        "ä»Ģä¹Ī"
      ],
      [
        "ä¹ĭ",
        "çī©"
      ],
      [
        "èĩª",
        "åľ¨"
      ],
      [
        "åĽł",
        "è§ģ"
      ],
      [
        "çĽ",
        "ĸ"
      ],
      [
        "éĻ",
        "Ĳ"
      ],
      [
        "èĪ",
        "Į"
      ],
      [
        "çī",
        "Ļ"
      ],
      [
        "éĩĳ",
        "æ¡Ĥ"
      ],
      [
        "åĩ¤å§ĲåĦ¿",
        "ç¬ĳéģĵ"
      ],
      [
        "æ¢",
        "³"
      ],
      [
        "è£",
        "ģ"
      ],
      [
        "çķĻ",
        "ä¸ĭ"
      ],
      [
        "ä¸įåľ¨",
        "è¯Ŀä¸ĭ"
      ],
      [
        "é",
        "ŀ"
      ],
      [
        "äº",
        "ī"
      ],
      [
        "äºĨ",
        "è¿Ļ"
      ],
      [
        "åı",
        "³"
      ],
      [
        "ä¸į",
        "åİ»"
      ],
      [
        "å®",
        "¤"
      ],
      [
        "ä»ĸ",
        "åİ»"
      ],
      [
        "ä½ł",
        "è¿ĺ"
      ],
      [
        "æī",
        "¶"
      ],
      [
        "åį",
        "§"
      ],
      [
        "ä¼",
        "º"
      ],
      [
        "åľ¨",
        "å®¶"
      ],
      [
        "å¹",
        "»"
      ],
      [
        "å¿Ļ",
        "ç¬ĳéģĵ"
      ],
      [
        "åĬ",
        "³"
      ],
      [
        "å±",
        "Ī"
      ],
      [
        "çĶŁ",
        "æĹ¥"
      ],
      [
        "åīį",
        "æĹ¥"
      ],
      [
        "æĲ",
        "º"
      ],
      [
        "åħ´",
        "åĦ¿"
      ],
      [
        "å°ıåİ®",
        "ä»¬"
      ],
      [
        "ç£",
        "ķ"
      ],
      [
        "ä¸ĭåĽŀ",
        "åĪĨè§£"
      ],
      [
        "ä»",
        "Ĺ"
      ],
      [
        "å¤",
        "º"
      ],
      [
        "è¿",
        "¹"
      ],
      [
        "ä¸į",
        "åĪ°"
      ],
      [
        "ä¸Ģ",
        "å¾Ħ"
      ],
      [
        "ä¸Ģ",
        "æ¦Ĥ"
      ],
      [
        "éģĵ",
        "æĺ¯"
      ],
      [
        "æĪĳ",
        "åĢĴ"
      ],
      [
        "è¯´",
        "æĺ¯"
      ],
      [
        "æī",
        "«"
      ],
      [
        "éĤ£",
        "æĹ¶"
      ],
      [
        "ä¸Ĭ",
        "åİ»"
      ],
      [
        "åĨ",
        "¯"
      ],
      [
        "åĽŀ",
        "äºĨ"
      ],
      [
        "ä¹ĭ",
        "äºº"
      ],
      [
        "æķ",
        "´"
      ],
      [
        "èĮ¶",
        "æĿ¥"
      ],
      [
        "æĴ",
        "ŀ"
      ],
      [
        "å§Ĭå¦¹",
        "ä»¬"
      ],
      [
        "éĹ»",
        "å¾Ĺ"
      ],
      [
        "æ¨ª",
        "ç«ĸ"
      ],
      [
        "è",
        "ĺ"
      ],
      [
        "äºĨ",
        "åİ»"
      ],
      [
        "ä¸į",
        "çĲĨ"
      ],
      [
        "ä¹",
        "ħ"
      ],
      [
        "æĪĳ",
        "è¿ĺ"
      ],
      [
        "è¿Ļ",
        "æĹ¥"
      ],
      [
        "ç¬ĳ",
        "èµ·æĿ¥"
      ],
      [
        "åĩº",
        "éĹ¨"
      ],
      [
        "åĽł",
        "è¯´"
      ],
      [
        "çľĭ",
        "ä»ĸ"
      ],
      [
        "çĽ",
        "Ĵ"
      ],
      [
        "æİ",
        "·"
      ],
      [
        "åĵ",
        "Ł"
      ],
      [
        "æĽ",
        "°"
      ],
      [
        "éĽ",
        "Ģ"
      ],
      [
        "èĦ",
        "Ĥ"
      ],
      [
        "çĹ",
        "Ľ"
      ],
      [
        "æĽ¿",
        "ä½ł"
      ],
      [
        "åĹ",
        "³"
      ],
      [
        "æ½",
        "ĩ"
      ],
      [
        "é¾",
        "Ļ"
      ],
      [
        "è",
        "Ľ"
      ],
      [
        "è",
        "ŀ"
      ],
      [
        "ä¸",
        "´"
      ],
      [
        "å¤",
        "®"
      ],
      [
        "æĪĳ",
        "æĿ¥"
      ],
      [
        "åİ",
        "Ĩ"
      ],
      [
        "ä½ł",
        "è¿Ļ"
      ],
      [
        "åŃĲ",
        "ä¸Ĭ"
      ],
      [
        "å¾",
        "®"
      ],
      [
        "å¾",
        "·"
      ],
      [
        "æŀ",
        "¶"
      ],
      [
        "ç½",
        "Ĺ"
      ],
      [
        "åĵ",
        "ģ"
      ],
      [
        "èĭ",
        "±"
      ],
      [
        "äºĨä¸Ģ",
        "å£°"
      ],
      [
        "æ¸",
        "©"
      ],
      [
        "æľª",
        "åħį"
      ],
      [
        "ç©",
        "¶"
      ],
      [
        "çľ¼",
        "çĿ"
      ],
      [
        "ç§ĭ",
        "çº¹"
      ],
      [
        "åĥ",
        "§"
      ],
      [
        "æ§",
        "Ľ"
      ],
      [
        "Ķ",
        "ç»Ĩ"
      ],
      [
        "ä»",
        "Ķç»Ĩ"
      ],
      [
        "ä¸į",
        "å°½"
      ],
      [
        "æĪĳ",
        "æĥ³"
      ],
      [
        "å°",
        "ĺ"
      ],
      [
        "åĦ¿",
        "çļĦ"
      ],
      [
        "åıĪ",
        "è¦ģ"
      ],
      [
        "ä¾",
        "¯"
      ],
      [
        "å¤§",
        "å¥¶å¥¶"
      ],
      [
        "çŁ",
        "£"
      ],
      [
        "æĥ",
        "Ł"
      ],
      [
        "ä¹ĭ",
        "åĲİ"
      ],
      [
        "å¿Ļ",
        "éĹ®"
      ],
      [
        "æīĵ",
        "åĲ¬"
      ],
      [
        "è¡",
        "¨"
      ],
      [
        "éĽ",
        "ħ"
      ],
      [
        "èĭ¥",
        "ä¸į"
      ],
      [
        "åĩ¤å§ĲåĦ¿",
        "éģĵ"
      ],
      [
        "ç²",
        "Ĺ"
      ],
      [
        "æĽ¿",
        "ä»ĸ"
      ],
      [
        "èµ¶",
        "èĳĹ"
      ],
      [
        "å¢",
        "Ļ"
      ],
      [
        "çĥŃ",
        "éĹ¹"
      ],
      [
        "çĤķ",
        "ä¸Ĭ"
      ],
      [
        "è",
        "ľ"
      ],
      [
        "äºĨ",
        "èĦ¸"
      ],
      [
        "æĺ",
        "Ł"
      ],
      [
        "åĲ",
        "¹"
      ],
      [
        "åĲ",
        "Ĭ"
      ],
      [
        "æĪĳ",
        "åıĪ"
      ],
      [
        "è´",
        "Ł"
      ],
      [
        "æŃ",
        "ª"
      ],
      [
        "å®Ŀçİī",
        "ä¾¿"
      ],
      [
        "æĭ",
        "Ľ"
      ],
      [
        "åĽŀ",
        "éģĵ"
      ],
      [
        "éĿ",
        "ł"
      ],
      [
        "å¿Ļ",
        "çļĦ"
      ],
      [
        "è¡",
        "Ĺ"
      ],
      [
        "é¦",
        "Ĩ"
      ],
      [
        "ä¸ī",
        "äºº"
      ],
      [
        "åģ",
        "ľ"
      ],
      [
        "èĦ",
        "±"
      ],
      [
        "è½",
        "¯"
      ],
      [
        "åĽĽ",
        "åįģ"
      ],
      [
        "ä¼Ĺäºº",
        "åĲ¬äºĨ"
      ],
      [
        "çī",
        "¹"
      ],
      [
        "çģ",
        "°"
      ],
      [
        "äºĶ",
        "åįģ"
      ],
      [
        "çļĨ",
        "æĺ¯"
      ],
      [
        "é£İ",
        "æµģ"
      ],
      [
        "æķ£",
        "äºĨ"
      ],
      [
        "åħ¬",
        "åŃĲ"
      ],
      [
        "æ¶",
        "Ī"
      ],
      [
        "çŃĶåºĶ",
        "èĳĹ"
      ],
      [
        "æ¦",
        "»"
      ],
      [
        "ä¸",
        "Ŀ"
      ],
      [
        "å®",
        "½"
      ],
      [
        "å®",
        "ľ"
      ],
      [
        "ä½ł",
        "åĪ«"
      ],
      [
        "æī",
        "¯"
      ],
      [
        "ç¬",
        "¼"
      ],
      [
        "ä¼",
        "´"
      ],
      [
        "å®¶",
        "äºº"
      ],
      [
        "èĢ",
        "į"
      ],
      [
        "å¤ª",
        "çĽĳ"
      ],
      [
        "çŁ",
        "©"
      ],
      [
        "å¼",
        "±"
      ],
      [
        "å¿ĥ",
        "åĨħ"
      ],
      [
        "åĿ",
        "ł"
      ],
      [
        "æģ",
        "¶"
      ],
      [
        "å¤©",
        "ä¸ĭ"
      ],
      [
        "èĭ¥",
        "æĺ¯"
      ],
      [
        "èĻ½",
        "ä¸į"
      ],
      [
        "åı£",
        "åĨħ"
      ],
      [
        "å²",
        "«"
      ],
      [
        "ç¼",
        "ķ"
      ],
      [
        "ç»Ĩ",
        "ç»Ĩ"
      ],
      [
        "å¹²",
        "åĩĢ"
      ],
      [
        "æĻļ",
        "ä¸Ĭ"
      ],
      [
        "åºĬ",
        "ä¸Ĭ"
      ],
      [
        "ç",
        "Ĵ"
      ],
      [
        "äº",
        "Ń"
      ],
      [
        "ä¹",
        "¡"
      ],
      [
        "ä½",
        "³"
      ],
      [
        "æĿ",
        "Ĥ"
      ],
      [
        "ä¸Ģ",
        "æĹ©"
      ],
      [
        "åĩ",
        "Ĩ"
      ],
      [
        "ä½ł",
        "è¦ģ"
      ],
      [
        "åĽ",
        "¾"
      ],
      [
        "åıª",
        "å½ĵ"
      ],
      [
        "ä¼",
        "ĳ"
      ],
      [
        "å¤§",
        "çļĦ"
      ],
      [
        "å¤§",
        "è§Ĥ"
      ],
      [
        "æĥ",
        "¹"
      ],
      [
        "æİ",
        "Į"
      ],
      [
        "åī",
        "ª"
      ],
      [
        "åĬ",
        "Ł"
      ],
      [
        "æģ",
        "°"
      ],
      [
        "çĶŁ",
        "çļĦ"
      ],
      [
        "é¡",
        "¶"
      ],
      [
        "å£",
        "ģ"
      ],
      [
        "æ·",
        "«"
      ],
      [
        "æ±",
        "Ĺ"
      ],
      [
        "æ¹ĺäºĳ",
        "éģĵ"
      ],
      [
        "ç¢",
        "°"
      ],
      [
        "æĶ¶",
        "äºĨ"
      ],
      [
        "æĢ¥",
        "çļĦ"
      ],
      [
        "æ¬¢",
        "åĸľ"
      ],
      [
        "éĶĻ",
        "äºĨ"
      ],
      [
        "ä¼º",
        "åĢĻ"
      ],
      [
        "çľ¼çĿ",
        "Ľ"
      ],
      [
        "å²«",
        "çĥŁ"
      ],
      [
        "æĿ",
        "ı"
      ],
      [
        "ä»ĸ",
        "ä¸¤ä¸ª"
      ],
      [
        "åĪ",
        "ĩ"
      ],
      [
        "æľī",
        "è¶£"
      ],
      [
        "å¥½",
        "å¥½çļĦ"
      ],
      [
        "æĥ",
        "¯"
      ],
      [
        "ä¹ĭ",
        "æĦı"
      ],
      [
        "è®",
        "²"
      ],
      [
        "æ²¡",
        "äºº"
      ],
      [
        "åĵ",
        "į"
      ],
      [
        "æĥ³",
        "äºĨä¸Ģ"
      ],
      [
        "å±",
        "ı"
      ],
      [
        "èº",
        "²"
      ],
      [
        "âĢĻ",
        "ãĢĤ"
      ],
      [
        "èį",
        "·"
      ],
      [
        "æĢİ",
        "æł·"
      ],
      [
        "çĹ",
        "ķ"
      ],
      [
        "æľª",
        "å¿ħ"
      ],
      [
        "éĵ",
        "ģ"
      ],
      [
        "åĲĦ",
        "èĩª"
      ],
      [
        "æĲ",
        "¬"
      ],
      [
        "æĸĻ",
        "çĲĨ"
      ],
      [
        "éģĩ",
        "è§ģ"
      ],
      [
        "æ½ĩ",
        "æ¹ĺ"
      ],
      [
        "âĢ",
        "¦"
      ],
      [
        "è¿",
        "Ł"
      ],
      [
        "çļĦ",
        "ä¸«å¤´"
      ],
      [
        "ä¸į",
        "åħį"
      ],
      [
        "å°",
        "Ĭ"
      ],
      [
        "éĹ",
        "º"
      ],
      [
        "æĭ",
        "ĺ"
      ],
      [
        "äºĭ",
        "æĿ¥"
      ],
      [
        "åº",
        "§"
      ],
      [
        "æĬ",
        "ĵ"
      ],
      [
        "è¡",
        "Ģ"
      ],
      [
        "ä½ľ",
        "äºĨ"
      ],
      [
        "ä¹Łä¸į",
        "çĶ¨"
      ],
      [
        "è¯·",
        "äºĨ"
      ],
      [
        "ä½¿",
        "å¾Ĺ"
      ],
      [
        "åĲį",
        "åŃĹ"
      ],
      [
        "çĸ",
        "ı"
      ],
      [
        "å¥³",
        "åŃ©åŃĲ"
      ],
      [
        "æ»",
        "ļ"
      ],
      [
        "ç¢",
        "§"
      ],
      [
        "æĳ",
        "¸"
      ],
      [
        "ä¸«é¬Ł",
        "ä»¬"
      ],
      [
        "è¿ĳ",
        "æĹ¥"
      ],
      [
        "è®¤",
        "å¾Ĺ"
      ],
      [
        "çĵ",
        "¶"
      ],
      [
        "ä¸Ģåı¥",
        "è¯Ŀ"
      ],
      [
        "è§Ħ",
        "çŁ©"
      ],
      [
        "åı",
        "·"
      ],
      [
        "çļĦ",
        "å°ı"
      ],
      [
        "ä¸į",
        "äºĨ"
      ],
      [
        "ä¸į",
        "ä½Ĩ"
      ],
      [
        "ä¸Ģ",
        "æĬĬ"
      ],
      [
        "ä¸Ģ",
        "å®ļ"
      ],
      [
        "åĲ",
        "Ł"
      ],
      [
        "åİ",
        "ĭ"
      ],
      [
        "ä½ł",
        "æĺ¯"
      ],
      [
        "åĦ¿",
        "ä»¬"
      ],
      [
        "æľī",
        "äºĭ"
      ],
      [
        "å®Ŀ",
        "å§Ĳå§Ĳ"
      ],
      [
        "å¸",
        "®"
      ],
      [
        "å¸",
        "ĸ"
      ],
      [
        "åº",
        "Ħ"
      ],
      [
        "æĬ",
        "¹"
      ],
      [
        "èĢģ",
        "å¬·å¬·"
      ],
      [
        "è°",
        "İ"
      ],
      [
        "æİ",
        "Ĵ"
      ],
      [
        "è´¾æ¯į",
        "çŃī"
      ],
      [
        "çĤ",
        "ī"
      ],
      [
        "å¹³åĦ¿",
        "ç¬ĳéģĵ"
      ],
      [
        "èī",
        "¯"
      ],
      [
        "ç¬¬",
        "äºĮ"
      ],
      [
        "çĭ",
        "Ĺ"
      ],
      [
        "éľ",
        "ŀ"
      ],
      [
        "æĻļ",
        "éĹ´"
      ],
      [
        "èį£",
        "åºľ"
      ],
      [
        "å®ģ",
        "åºľ"
      ],
      [
        "å£«",
        "éļĲ"
      ],
      [
        "ä¸Ģ",
        "å¼ł"
      ],
      [
        "è¯´",
        "ç¬ĳ"
      ],
      [
        "ä»ĸ",
        "å°±"
      ],
      [
        "ä¸ª",
        "äºº"
      ],
      [
        "éĩ",
        "İ"
      ],
      [
        "ä¾¿",
        "è¯´éģĵ"
      ],
      [
        "æ¯",
        "Ľ"
      ],
      [
        "åľ¨",
        "å¤ĸ"
      ],
      [
        "å°±",
        "å¥½äºĨ"
      ],
      [
        "å¾Ĺ",
        "ç½ª"
      ],
      [
        "ä¹ĭ",
        "å¤Ħ"
      ],
      [
        "ä¹ĭ",
        "éĹ´"
      ],
      [
        "æ²",
        "ī"
      ],
      [
        "æĬ",
        "ķ"
      ],
      [
        "åĩ¤",
        "ä¸«å¤´"
      ],
      [
        "è¿Ľ",
        "åħ¥"
      ],
      [
        "èĬ±",
        "åĦ¿"
      ],
      [
        "ä¸ĢéĿ¢",
        "åıĪ"
      ],
      [
        "æĤ",
        "¬"
      ],
      [
        "çı",
        "Ń"
      ],
      [
        "èĥ",
        "ľ"
      ],
      [
        "ç«Ł",
        "æĺ¯"
      ],
      [
        "åĲĦ",
        "èī²"
      ],
      [
        "ç¼",
        "İ"
      ],
      [
        "èħ",
        "°"
      ],
      [
        "éľ",
        "ľ"
      ],
      [
        "å¦Ļ",
        "çİī"
      ],
      [
        "é¼",
        "ĵ"
      ],
      [
        "ï¼Į",
        "âĢĺ"
      ],
      [
        "çļĦ",
        "éĤ£"
      ],
      [
        "æĿ",
        "¾"
      ],
      [
        "æĪĳ",
        "çľĭ"
      ],
      [
        "ä¹Ł",
        "è¯¥"
      ],
      [
        "è§",
        "Ĩ"
      ],
      [
        "åĪ",
        "¶"
      ],
      [
        "èµ",
        "Ķ"
      ],
      [
        "è´¾",
        "èĶ·"
      ],
      [
        "ä¸Ĭ",
        "ä¸ĭ"
      ],
      [
        "å¤§",
        "äºĨ"
      ],
      [
        "å¸",
        "Ī"
      ],
      [
        "ç½",
        "ķ"
      ],
      [
        "åı¯",
        "æĢľ"
      ],
      [
        "åı«",
        "ä»ĸä»¬"
      ],
      [
        "è¢",
        "ĸ"
      ],
      [
        "ç®",
        "±"
      ],
      [
        "å¯",
        "º"
      ],
      [
        "åĲİ",
        "éĿ¢"
      ],
      [
        "ä¸ī",
        "å§Ĳ"
      ],
      [
        "ä¿",
        "®"
      ],
      [
        "èĦ",
        "ī"
      ],
      [
        "æŀĹ",
        "å¦¹å¦¹"
      ],
      [
        "éļ¾",
        "ä¸º"
      ],
      [
        "çľŁ",
        "æĺ¯"
      ],
      [
        "æĲ",
        "ľ"
      ],
      [
        "æĴ",
        "µ"
      ],
      [
        "æİ¢æĺ¥",
        "ç¬ĳéģĵ"
      ],
      [
        "è´¾æĶ¿",
        "éģĵ"
      ],
      [
        "é¸³é¸¯",
        "éģĵ"
      ],
      [
        "ä¿Ĺ",
        "è¯Ń"
      ],
      [
        "æĬ±",
        "æĢ¨"
      ],
      [
        "ç¯",
        "ĩ"
      ],
      [
        "æĵ",
        "į"
      ],
      [
        "èµĮ",
        "æ°Ķ"
      ],
      [
        "ä¼¸",
        "æīĭ"
      ],
      [
        "åĻ",
        "¨"
      ],
      [
        "è",
        "Ń"
      ],
      [
        "ï¼Į",
        "âĢĿ"
      ],
      [
        "ä»",
        "ª"
      ],
      [
        "åı",
        "Ĥ"
      ],
      [
        "å¤",
        "¹"
      ],
      [
        "éģ",
        "¿"
      ],
      [
        "æĪĳ",
        "ä¸Ģ"
      ],
      [
        "æĪĳ",
        "è¦ģ"
      ],
      [
        "ä¹Ł",
        "æĹł"
      ],
      [
        "åħ",
        "®"
      ],
      [
        "å®¶",
        "ä¸Ń"
      ],
      [
        "æĭ",
        "¦"
      ],
      [
        "æĭ",
        "Ĳ"
      ],
      [
        "é»",
        "ĺ"
      ],
      [
        "æĦ",
        "§"
      ],
      [
        "æł·",
        "åĦ¿"
      ],
      [
        "ä¹Łä¸į",
        "çŁ¥"
      ],
      [
        "å¹´",
        "è½»"
      ],
      [
        "åĲ¬äºĨ",
        "è¿Ļè¯Ŀ"
      ],
      [
        "çī",
        "ĩ"
      ],
      [
        "ä»İ",
        "æŃ¤"
      ],
      [
        "åı£",
        "éĩĮ"
      ],
      [
        "æ±",
        "ł"
      ],
      [
        "å¹³åĦ¿",
        "éģĵ"
      ],
      [
        "åĳĬè¯ī",
        "ä½ł"
      ],
      [
        "æĲ",
        "Ń"
      ],
      [
        "è£",
        "Ļ"
      ],
      [
        "çĬ",
        "¯"
      ],
      [
        "æ¨",
        "¡"
      ],
      [
        "åıĶ",
        "åıĶ"
      ],
      [
        "æĦ¿",
        "æĦı"
      ],
      [
        "åļ",
        "·"
      ],
      [
        "å¯Į",
        "è´µ"
      ],
      [
        "èĺ",
        "ħ"
      ],
      [
        "ç",
        "¡"
      ],
      [
[...]
