{"<s>":0,"<pad>":1,"</s>":2,"<unk>":3,"<mask>":4,"!":5,"\"":6,"#":7,"$":8,"%":9,"&":10,"'":11,"(":12,")":13,"*":14,"+":15,",":16,"-":17,".":18,"/":19,"0":20,"1":21,"2":22,"3":23,"4":24,"5":25,"6":26,"7":27,"8":28,"9":29,":":30,";":31,"<":32,"=":33,">":34,"?":35,"@":36,"A":37,"B":38,"C":39,"D":40,"E":41,"F":42,"G":43,"H":44,"I":45,"J":46,"K":47,"L":48,"M":49,"N":50,"O":51,"P":52,"Q":53,"R":54,"S":55,"T":56,"U":57,"V":58,"W":59,"X":60,"Y":61,"Z":62,"[":63,"\\":64,"]":65,"^":66,"_":67,"`":68,"a":69,"b":70,"c":71,"d":72,"e":73,"f":74,"g":75,"h":76,"i":77,"j":78,"k":79,"l":80,"m":81,"n":82,"o":83,"p":84,"q":85,"r":86,"s":87,"t":88,"u":89,"v":90,"w":91,"x":92,"y":93,"z":94,"{":95,"|":96,"}":97,"~":98,"¡":99,"¢":100,"£":101,"¤":102,"¥":103,"¦":104,"§":105,"¨":106,"©":107,"ª":108,"«":109,"¬":110,"®":111,"¯":112,"°":113,"±":114,"²":115,"³":116,"´":117,"µ":118,"¶":119,"·":120,"¸":121,"¹":122,"º":123,"»":124,"¼":125,"½":126,"¾":127,"¿":128,"À":129,"Á":130,"Â":131,"Ã":132,"Ä":133,"Å":134,"Æ":135,"Ç":136,"È":137,"É":138,"Ê":139,"Ë":140,"Ì":141,"Í":142,"Î":143,"Ï":144,"Ð":145,"Ñ":146,"Ò":147,"Ó":148,"Ô":149,"Õ":150,"Ö":151,"×":152,"Ø":153,"Ù":154,"Ú":155,"Û":156,"Ü":157,"Ý":158,"Þ":159,"ß":160,"à":161,"á":162,"â":163,"ã":164,"ä":165,"å":166,"æ":167,"ç":168,"è":169,"é":170,"ê":171,"ë":172,"ì":173,"í":174,"î":175,"ï":176,"ð":177,"ñ":178,"ò":179,"ó":180,"ô":181,"õ":182,"ö":183,"÷":184,"ø":185,"ù":186,"ú":187,"û":188,"ü":189,"ý":190,"þ":191,"ÿ":192,"Ā":193,"ā":194,"Ă":195,"ă":196,"Ą":197,"ą":198,"Ć":199,"ć":200,"Ĉ":201,"ĉ":202,"Ċ":203,"ċ":204,"Č":205,"č":206,"Ď":207,"ď":208,"Đ":209,"đ":210,"Ē":211,"ē":212,"Ĕ":213,"ĕ":214,"Ė":215,"ė":216,"Ę":217,"ę":218,"Ě":219,"ě":220,"Ĝ":221,"ĝ":222,"Ğ":223,"ğ":224,"Ġ":225,"ġ":226,"Ģ":227,"ģ":228,"Ĥ":229,"ĥ":230,"Ħ":231,"ħ":232,"Ĩ":233,"ĩ":234,"Ī":235,"ī":236,"Ĭ":237,"ĭ":238,"Į":239,"į":240,"İ":241,"ı":242,"Ĳ":243,"ĳ":244,"Ĵ":245,"ĵ":246,"Ķ":247,"ķ":248,"ĸ":249,"Ĺ":250,"ĺ":251,"Ļ":252,"ļ":253,"Ľ":254,"ľ":255,"Ŀ":256,"ŀ":257,"Ł":258,"ł":259,"Ń":260,"ï¼":261,"ï¼Į":262,"ä¸":263,"äº":264,"ãĢ":265,"ãĢĤ":266,"âĢ":267,"äºĨ":268,"ä»":269,"åı":270,"å¤":271,"è¿":272,"çļ":273,"è¯":274,"çļĦ":275,"ä¸į":276,"ä¹":277,"å®":278,"æĿ":279,"æĺ":280,"ä½":281,"ä¸Ģ":282,"âĢĿ":283,"æĪ":284,"éģ":285,"ï¼ļ":286,"âĢľ":287,"æĿ¥":288,"éģĵ":289,"ï¼ļâĢľ":290,"äºº":291,"æĺ¯":292,"åĲ":293,"è¯´":294,"æľ":295,"æĪĳ":296,"å°":297,"æĹ":298,"çİ":299,"ãĢĤâĢĿ":300,"åİ":301,"å¥":302,"è¿Ļ":303,"ä»ĸ":304,"åĩ":305,"åŃ":306,"å¿":307,"ä½ł":308,"å§":309,"åĽ":310,"æī":311,"éĩ":312,"è´":313,"Ħ¿":314,"èĳ":315,"è§":316,"åİ»":317,"èĳĹ":318,"ä¹Ł":319,"åĪ":320,"åĦ¿":321,"çİī":322,"ãĢĢ":323,"å¦":324,"æľī":325,"å®Ŀ":326,"ä¸ª":327,"èµ":328,"åŃĲ":329,"å¾":330,"éĤ":331,"ä¾":332,"åıĪ":333,"è´¾":334,"åľ":335,"éĹ":336,"éĩĮ":337,"åħ":338,"éĤ£":339,"ä»¬":340,"è§ģ":341,"ç¬":342,"æŃ":343,"åıª":344,"åĳ":345,"æĢ":346,"å¤ª":347,"çľ":348,"ä¾¿":349,"åį":350,"å¥½":351,"åľ¨":352,"å®Ŀçİī":353,"ç¬ĳ":354,"èĢ":355,"å®¶":356,"ä¸Ĭ":357,"ä¼":358,"ä¹Ī":359,"åĨ":360,"å¾Ĺ":361,"èĩ":362,"æ¯":363,"æĥ":364,"çŁ":365,"å¤§":366,"å¹":367,"å§Ĳ":368,"ĥ½":369,"å¤´":370,"çĶ":371,"åĲ¬":372,"ç»":373,"å°±":374,"åĩº":375,"åĽŀ":376,"ï¼Ł":377,"¦ģ":378,"å·":379,"çŁ¥":380,"æĹ¥":381,"è¦ģ":382,"æ²":383,"æĭ":384,"ä¸ĭ":385,"åĴ":386,"éĥ½":387,"äºĮ":388,"å¿ĥ":389,"äºĭ":390,"å¼":391,"çŃ":392,"åº":393,"èĢģ":394,"è¿ĩ":395,"çĪ":396,"æĸ":397,"éĿ":398,"è¿ĺ":399,"è¯Ŀ":400,"åĢ":401,"èµ·":402,"ç¬ĳéģĵ":403,"èĩª":404,"æĬ":405,"æĶ":406,"å¦Ĥ":407,"çľĭ":408,"æķ":409,"è®":410,"ĠĊ":411,"å¸":412,"åĪ°":413,"åı«":414,"ä¸¤":415,"æ²¡":416,"å¨":417,"éĴ":418,"æ¯į":419,"äºĽ":420,"æĹ¶":421,"ä¹ĭ":422,"ä»Ĭ":423,"æ°":424,"ç½":425,"å°ı":426,"éĢ":427,"éĹ®":428,"çº":429,"åĽł":430,"åĩ¤":431,"å¥¶":432,"æł":433,"çŃī":434,"çĲ":435,"ï¼ŁâĢĿ":436,"ï¼ģ":437,"å¤ªå¤ª":438,"åĵ":439,"å¨ĺ":440,"æŀ":441,"åı¯":442,"ä»Ģ":443,"åĬ":444,"ä»Ģä¹Ī":445,"èĬ":446,"åĳ¢":447,"å¿Ļ":448,"è°":449,"å¤«":450,"æĥ³":451,"éĿ¢":452,"çĽ":453,"æīį":454,"çĪ·":455,"åĩ¤å§Ĳ":456,"æİ":457,"æĦ":458,"ç«":459,"è¢":460,"äºĨä¸Ģ":461,"è´¾æ¯į":462,"é»":463,"ä¸Ń":464,"çİĭ":465,"åī":466,"è¾":467,"æīĵ":468,"èĭ":469,"è¿Ľ":470,"åĿ":471,"æŃ¤":472,"åĢĴ":473,"å½":474,"ç½¢":475,"æł·":476,"è·":477,"çĦ":478,"è¡":479,"åĴĮ":480,"åĲĥ":481,"ç®":482,"éĽ":483,"ä¹Łä¸į":484,"å¤«äºº":485,"æŃ£":486,"Ļ½":487,"æĹł":488,"æĽ":489,"å§ĳ":490,"åĩł":491,"æģ":492,"åĲİ":493,"é»Ľ":494,"é»Ľçİī":495,"åģ":496,"å¤©":497,"å¯":498,"èº":499,"åĸ":500,"ä¸Ģä¸ª":501,"éļ":502,"çĦ¶":503,"å±":504,"åīį":505,"ä¸º":506,"æĦı":507,"åĨį":508,"åĪ«":509,"æĻ":510,"ç´":511,"éĹ¨":512,"ä¸ī":513,"ä¸«":514,"å¤ĸ":515,"ä½ľ":516,"èµ°":517,"æĪĳä»¬":518,"è¢Ń":519,"æĢİ":520,"å¦¹":521,"ä¼Ĺ":522,"é¦":523,"çĶŁ":524,"éĤ£éĩĮ":525,"æĸ¹":526,"å¤ļ":527,"å°Ĩ":528,"æĺİ":529,"å·²":530,"ç§":531,"è¢Ńäºº":532,"èº«":533,"æĬĬ":534,"å§ĳå¨ĺ":535,"ä»¥":536,"ä¿":537,"åįģ":538,"æ°Ķ":539,"ä½ķ":540,"èĸ":541,"éĴĹ":542,"çŀ":543,"éĻ":544,"å£":545,"é¸":546,"çĹ":547,"äº²":548,"åİ»äºĨ":549,"å®ĿéĴĹ":550,"ç»Ļ":551,"æ¬":552,"æĭ¿":553,"çİĭå¤«äºº":554,"ä¸İ":555,"èµ·æĿ¥":556,"æīĭ":557,"åĿĲ":558,"åĩºæĿ¥":559,"èĦ":560,"å¹´":561,"çĤ":562,"çĶ¨":563,"èĪ":564,"é¡":565,"èĭ¥":566,"åĲ¬äºĨ":567,"è¯·":568,"æĪ¿":569,"æĢİä¹Ī":570,"è½":571,"å¦Ĥä»Ĭ":572,"ä½łä»¬":573,"æĮ":574,"ä¸Ķ":575,"æĺ¥":576,"ä¸«å¤´":577,"èĸĽ":578,"èį":579,"åıĳ":580,"çŁ¥éģĵ":581,"æ³":582,"âĢĻ":583,"âĢĺ":584,"è¯´éģĵ":585,"æĶ¿":586,"åĳ½":587,"èĢģå¤ªå¤ª":588,"å¦Ī":589,"èĬ±":590,"ç¥":591,"åİŁ":592,"çĥ":593,"æīĢ":594,"å§¨":595,"è¿ĻéĩĮ":596,"è´¾æĶ¿":597,"å¤Ħ":598,"å¥¶å¥¶":599,"éħ":600,"³åĦ¿":601,"åħĪ":602,"æĤ":603,"è¾¹":604,"è°ģ":605,"å·±":606,"ä»ĸä»¬":607,"è¯´èĳĹ":608,"çŀ§":609,"é¢":610,"ä½ı":611,"çĲı":612,"åĨħ":613,"ç®¡":614,"å©":615,"è¶":616,"çı":617,"ä¼Ĺäºº":618,"æŃ»":619,"ï¼ģâĢĿ":620,"éĢģ":621,"é¥":622,"æĿ¥äºĨ":623,"ä¸įæĺ¯":624,"èĩªå·±":625,"èĩ³":626,"ä¸ĢéĿ¢":627,"è¥":628,"è¿ŀ":629,"æĹ©":630,"é¦Ļ":631,"åĳĬ":632,"æŀĹ":633,"æ´":634,"ä¸ľ":635,"ä¼ļ":636,"çķ":637,"å¾Ģ":638,"ä¸įå¾Ĺ":639,"æľĪ":640,"è¥¿":641,"åĮ":642,"èĻ½":643,"å¸¦":644,"åıªè§ģ":645,"ä¸¤ä¸ª":646,"é£":647,"æ·":648,"æ¸":649,"åĽĽ":650,"åºĶ":651,"åĪĨ":652,"èĮ":653,"å¿ħ":654,"ä»İ":655,"æ²¡æľī":656,"åı£":657,"è´¾çĲı":658,"çģ":659,"æĢķ":660,"çī":661,"ä¸įè":662,"å£°":663,"å½ĵ":664,"æľª":665,"æĶ¾":666,"ç©":667,"äºĳ":668,"ä¸įçŁ¥":669,"æ±":670,"éĵ":671,"å®ī":672,"åį´":673,"æµ":674,"çĤ¹":675,"çľ¼":676,"å¼Ģ":677,"çĲĨ":678,"å¹³åĦ¿":679,"åĵ¥":680,"è¿Ļä¸ª":681,"æķ¢":682,"å®¶çļĦ":683,"åĸľ":684,"æĥħ":685,"åĲ¬è§ģ":686,"åĶ":687,"å¥³":688,"éĩĳ":689,"æĪĲ":690,"æĿİ":691,"åľ°":692,"æ¡":693,"çĿ":694,"åŃĹ":695,"çº¢":696,"éĺ":697,"ä¹¦":698,"å²":699,"è¿Ļæł·":700,"éļ¾":701,"çĹħ":702,"çĸ":703,"èĥ":704,"æ¹":705,"çľŁ":706,"ç«Ł":707,"èĢģçĪ·":708,"å§¥":709,"å®ĺ":710,"åįĬ":711,"è¿ĽæĿ¥":712,"å¹¶":713,"è¯ī":714,"è·Ł":715,"åı¥":716,"åĴ±":717,"ä¸ľè¥¿":718,"æĽ´":719,"¨Ģ":720,"å©Ĩ":721,"æ¹ĺ":722,"éħĴ":723,"æı":724,"éĵ¶":725,"åĺ":726,"åĲĦ":727,"çĻ½":728,"åĲĮ":729,"å°±æĺ¯":730,"åĵŃ":731,"åĴ±ä»¬":732,"åĲĳ":733,"åĳĬè¯ī":734,"èı":735,"äºĶ":736,"æŁ":737,"åĽŃ":738,"çļĦäºº":739,"ä½¿":740,"è§ī":741,"åºľ":742,"éĴ±":743,"äºİ":744,"é¹":745,"èĤ":746,"å§Ĳå§Ĳ":747,"èī":748,"æį":749,"åĲį":750,"å®ļ":751,"ç´«":752,"éķ":753,"å°ĳ":754,"åıªæĺ¯":755,"å¿«":756,"æ¯Ķ":757,"çıį":758,"åıªå¾Ĺ":759,"ä¸»":760,"æĪĸ":761,"å§¨å¦Ī":762,"è¯¥":763,"å¤§å®¶":764,"åģļ":765,"çŃĶ":766,"ç¼":767,"æİ¢":768,"éª":769,"éĹ¹":770,"è¡Į":771,"å°¤":772,"èĢĮ":773,"åĽŀæĿ¥":774,"ç»ı":775,"è¨Ģ":776,"çĿ¡":777,"ä»¶":778,"è¿ĻäºĽ":779,"æ°ı":780,"ä¸įå¥½":781,"äºĮçĪ·":782,"æħ":783,"æķħ":784,"å±ĭ":785,"èĮ¶":786,"æĲ":787,"å¸¸":788,"éĹ´":789,"æ¢":790,"æŀľ":791,"é£İ":792,"è¯Ń":793,"ç¢":794,"èŁ":795,"éĶ":796,"å¤ľ":797,"åĩ¤å§ĲåĦ¿":798,"ä¸įè¿ĩ":799,"æİ¥":800,"é¬":801,"è§ģäºĨ":802,"é¥Ń":803,"ç»Ĩ":804,"å«":805,"æ»":806,"å®Ŀçİīéģĵ":807,"çĭ":808,"æĴ":809,"çĽ¸":810,"æīĢä»¥":811,"åĩºåİ»":812,"èĦ¸":813,"ä¹Łæĺ¯":814,"ç¤":815,"çĻ":816,"èĸĽå§¨å¦Ī":817,"å¹²":818,"ç¦":819,"å¼ł":820,"è¡£":821,"ç³":822,"ç¬¬":823,"æİ¢æĺ¥":824,"çļĦè¯Ŀ":825,"ä¸ĢæĹ¶":826,"é¸³":827,"çļĦäºĭ":828,"å¿½":829,"é¹ĥ":830,"å¦ĩ":831,"æī¾":832,"ç´«é¹ĥ":833,"ç²":834,"è¿ĩæĿ¥":835,"æĳ":836,"æľ¬":837,"é¸¯":838,"ç¥ŀ":839,"é¸³é¸¯":840,"è£":841,"æĹ¢":842,"å¦ĤæŃ¤":843,"è¿Ļä¹Ī":844,"æĢĿ":845,"è¯´äºĨ":846,"åħ¥":847,"æ¹ĺäºĳ":848,"åħ¶":849,"èĢħ":850,"éĤ¢":851,"å¿ĥéĩĮ":852,"åª":853,"æ°´":854,"èĲ":855,"å®Į":856,"èī²":857,"èİ":858,"æĢ¥":859,"çħ":860,"ä½Ĩ":861,"åºķ":862,"ç®Ĺ":863,"æĤĦ":864,"åĬ¨":865,"æ¬¡":866,"æļ":867,"æĪĳçļĦ":868,"å¦¹å¦¹":869,"å©ĨåŃĲ":870,"è§£":871,"çļĨ":872,"æĿİçº":873,"éķ¿":874,"åĬĿ":875,"ç½¢äºĨ":876,"è´¾çıį":877,"è¯´çļĦ":878,"ä¾Ŀ":879,"æĶ¶":880,"ãĢĢãĢĢ":881,"éĥ½æĺ¯":882,"ä¸įæķ¢":883,"äº¦":884,"ä¸ĸ":885,"ä¸įèĥ½":886,"æĻļ":887,"èµ¶":888,"èĵ":889,"ä¿¡":890,"ç¿":891,"è®¸":892,"ä»ĬæĹ¥":893,"åĩłä¸ª":894,"éĵ¶åŃĲ":895,"æĿİçº¨":896,"æĭī":897,"åķ":898,"èĥ½":899,"æĻ´":900,"èħ":901,"äºĮäºº":902,"è¿ĺæľī":903,"ä¼¼":904,"éĻ¢":905,"çŃĶåºĶ":906,"çĳ":907,"è¶Ĭ":908,"çĪ¶":909,"è¯´è¯Ŀ":910,"åıĸ":911,"æķ£":912,"æ³ª":913,"å²Ĥ":914,"å¿µ":915,"å¯¹":916,"æıĲ":917,"çª":918,"èģ":919,"è¿Ļä¸Ģ":920,"åª³":921,"åıªç®¡":922,"å¼Ł":923,"è±":924,"åĳ¨":925,"åĨ·":926,"éĽ¯":927,"æĻ´éĽ¯":928,"ç´ł":929,"å°¤æ°ı":930,"æ¶":931,"åĢĻ":932,"ä¼ļåŃĲ":933,"å®ŀ":934,"åŃ©":935,"æ¸ħ":936,"çķĻ":937,"æ£":938,"äºĨä»ĸ":939,"åĪĻ":940,"æĢ§":941,"éĤ£è¾¹":942,"ç¾":943,"åŃ¦":944,"åħ´":945,"ä¹Łæľī":946,"åħĦ":947,"åĨĻ":948,"æ±Ĥ":949,"çĻ¾":950,"è¯Ĺ":951,"çħ§":952,"å¾ħ":953,"ç¤¼":954,"åª³å¦ĩ":955,"åı«ä»ĸ":956,"é¡½":957,"é©":958,"åĸĿ":959,"èı±":960,"å°ļ":961,"æ³ķ":962,"çī©":963,"æĺ¯ä¸ª":964,"ç«Ļ":965,"å§¥å§¥":966,"è¿Ļè¯Ŀ":967,"éº":968,"æĿ¥çļĦ":969,"å°½":970,"æĸ°":971,"å¤ĸå¤´":972,"éĨ":973,"åıį":974,"éľ":975,"åĪĺ":976,"éĽ¨":977,"åĺ´":978,"è¿Ļæĺ¯":979,"åľ¨è¿ĻéĩĮ":980,"å·§":981,"èĩªçĦ¶":982,"èĵī":983,"å¼Ħ":984,"æīĵåıĳ":985,"è¿İ":986,"æľį":987,"æĹ§":988,"éĹ²":989,"é«":990,"è§ģä»ĸ":991,"è®©":992,"èį¯":993,"çĳŀ":994,"æĽ¾":995,"åĪļ":996,"åģı":997,"å±ĭéĩĮ":998,"èŁł":999,"æĺ¨":1000,"æ¯ķ":1001,"èĪ¬":1002,"åŃĿ":1003,"åħ¬":1004,"æŃĩ":1005,"éļı":1006,"ä»¤":1007,"æ»¡":1008,"ä¼ł":1009,"æĥľ":1010,"åĨµ":1011,"æ¯ı":1012,"ä»ĬåĦ¿":1013,"è¿ĳ":1014,"äººå®¶":1015,"åħ«":1016,"ç§ĭ":1017,"æĽ¿":1018,"å¬":1019,"éĽª":1020,"ä¹±":1021,"éĤ£äºĽ":1022,"åĲ¬è¯´":1023,"å¦Ĥä½ķ":1024,"è½»":1025,"åĪĺå§¥å§¥":1026,"é½":1027,"å¬·":1028,"å°ıä¸«å¤´":1029,"æģĲ":1030,"æŀĹé»Ľçİī":1031,"è¢«":1032,"èĸĽèŁł":1033,"çĮ":1034,"åıĬ":1035,"æĸĩ":1036,"æ¬¢":1037,"éĤ¢å¤«äºº":1038,"éĹ®éģĵ":1039,"çĬ":1040,"ä½į":1041,"é«ĺ":1042,"åľ¨éĤ£éĩĮ":1043,"å§Ĭ":1044,"ä¾į":1045,"åł":1046,"ä»į":1047,"å¥½äºĨ":1048,"åıĹ":1049,"èį£":1050,"èĲ½":1051,"è®°":1052,"çİ°":1053,"é¢Ĩ":1054,"èĭ¦":1055,"ç©¿":1056,"çł":1057,"æĢª":1058,"å¦Ļ":1059,"è®¤":1060,"é¦Ļèı±":1061,"åĪ°äºĨ":1062,"è±¡":1063,"æĪĳä¹Ł":1064,"åħī":1065,"åİŁæĿ¥":1066,"åĬŀ":1067,"èĬ³":1068,"éĩį":1069,"çĪ±":1070,"åĲĥäºĨ":1071,"èĻ":1072,"ä¼¤":1073,"è¿Ľåİ»":1074,"é½Ĳ":1075,"å§Ĭå¦¹":1076,"éĻª":1077,"ç©º":1078,"ä¸įæĪĲ":1079,"åİ®":1080,"å±±":1081,"åŃ©åŃĲ":1082,"åĭ":1083,"å®¶éĩĮ":1084,"å¤ĩ":1085,"æĿĳ":1086,"ĠĠ":1087,"æľīä¸Ģ":1088,"éªĤ":1089,"åı¹":1090,"çĥŁ":1091,"äººæĿ¥":1092,"åıĶ":1093,"å¾Ī":1094,"åĴĲ":1095,"è¿ľ":1096,"è¿Ļä¼ļåŃĲ":1097,"ä»ĸçļĦ":1098,"éĹ»":1099,"å¥½çļĦ":1100,"æĪı":1101,"åį³":1102,"è·ĳ":1103,"çİ¯":1104,"å¯»":1105,"éºĿ":1106,"æ®":1107,"åĪ°åºķ":1108,"æŃ»äºĨ":1109,"åİ»ç½¢":1110,"ãĢĬ":1111,"ãĢĭ":1112,"å¢":1113,"äº¤":1114,"éģĤ":1115,"åĮħ":1116,"çĸ¼":1117,"èµı":1118,"åįĥ":1119,"èĬ¸":1120,"åı¤":1121,"é¬Ł":1122,"å®Ŀçİīç¬ĳéģĵ":1123,"ä¸ĬæĿ¥":1124,"æĺİåĦ¿":1125,"æĺİçĻ½":1126,"æ··":1127,"åħ»":1128,"å¿ĥä¸Ń":1129,"å§¨å¨ĺ":1130,"åĲĪ":1131,"äºĨä¸Ģä¸ª":1132,"åĪ«äºº":1133,"ä¸«é¬Ł":1134,"æĸ¹æīį":1135,"ç¥ĸ":1136,"åĹ":1137,"çŁ³":1138,"è·¯":1139,"ä¸įåľ¨":1140,"ä¸įçŁ¥éģĵ":1141,"æĻ¯":1142,"çģ¯":1143,"éºĿæľĪ":1144,"ãĢģ":1145,"è¿ŀå¿Ļ":1146,"ä¸įçĶ¨":1147,"å¿ĺ":1148,"çķ¥":1149,"åĵ¥åĵ¥":1150,"åŁ":1151,"è´¾èĵī":1152,"çĶļ":1153,"çĽ´":1154,"ç«ĭ":1155,"å®¹":1156,"éĿĻ":1157,"åıĪæĺ¯":1158,"éĩĮå¤´":1159,"æµģ":1160,"éŃ":1161,"èĪħ":1162,"æ´»":1163,"æĢ¨":1164,"çľĭè§ģ":1165,"å½©":1166,"æ¦":1167,"éĿŀ":1168,"ç§¦":1169,"æĿ¯":1170,"å¼º":1171,"èº«ä¸Ĭ":1172,"ä½łçļĦ":1173,"èµ¦":1174,"åħ¨":1175,"çľģ":1176,"äºĮå¥¶å¥¶":1177,"åı«äºº":1178,"å°ıåİ®":1179,"æĮĩ":1180,"åĽŀåİ»":1181,"è¿ĺæĺ¯":1182,"é©¬":1183,"æĦıæĢĿ":1184,"è¯´æĺ¯":1185,"æĸĻ":1186,"äºĨä¸ĢåĽŀ":1187,"æ¬²":1188,"çĥŃ":1189,"è´µ":1190,"éĹ·":1191,"âĢĻï¼Į":1192,"æ¡Ĥ":1193,"åĳ¨çĳŀ":1194,"å¹³":1195,"èµ·èº«":1196,"é¦ĸ":1197,"äºİæĺ¯":1198,"æŀľçĦ¶":1199,"ä¹Ĳ":1200,"éĤ£ä¸ª":1201,"æĢİä¹Īæł·":1202,"æĦ¿":1203,"ä¸ĩ":1204,"è°¢":1205,"è½¬":1206,"ä¸įå¦Ĥ":1207,"ç´§":1208,"å·²ç»ı":1209,"å«Ĥ":1210,"æ¨":1211,"ä»Ļ":1212,"èĹ":1213,"æĹģ":1214,"åħį":1215,"æĢ»":1216,"è®º":1217,"ç»Ļä»ĸ":1218,"ä¸»æĦı":1219,"æĪĳè¯´":1220,"æŀģ":1221,"æĪ¿ä¸Ń":1222,"è·Łåīį":1223,"ºåĦ¿":1224,"åĪ»":1225,"ä¼ı":1226,"å¥³åĦ¿":1227,"çĲ´":1228,"ä¹°":1229,"å¥´":1230,"åıĪè¯´":1231,"åĳĨ":1232,"æģ©":1233,"å£«":1234,"æĤ²":1235,"å¤į":1236,"åıªæľī":1237,"ç§į":1238,"è°ģçŁ¥":1239,"çŀ§çŀ§":1240,"éĶĻ":1241,"å¤±":1242,"èµµ":1243,"èµĸ":1244,"çĶ»":1245,"å®ĮäºĨ":1246,"è¶Ĭåıĳ":1247,"ä¾¿è¯´":1248,"æķĻ":1249,"åĶ¬":1250,"åĩ¡":1251,"æľīä»Ģä¹Ī":1252,"ç¨":1253,"å¥ĩ":1254,"æľīäºĨ":1255,"æľīäºº":1256,"ç½ª":1257,"åĶ¤":1258,"ä¸ĢæĹ¥":1259,"æĥľæĺ¥":1260,"æŁ³":1261,"çļĦæĺ¯":1262,"ä½ĵ":1263,"è´¾èµ¦":1264,"éĴŁ":1265,"è½¦":1266,"æ´Ĺ":1267,"éļ¾éģĵ":1268,"¯äºĨ":1269,"ıäºĨ":1270,"å®ģ":1271,"åıªæĢķ":1272,"è¿ĩåİ»":1273,"çģµ":1274,"èĥ¡":1275,"åı¥è¯Ŀ":1276,"èĿ":1277,"å¸¦äºĨ":1278,"çĭ¬":1279,"åķĨ":1280,"è´¾èĬ¸":1281,"å¥½äºĽ":1282,"å¸Ĳ":1283,"çĽ®":1284,"éĽ¨æĿĳ":1285,"åĢĴæĺ¯":1286,"æ´¾":1287,"é¬¼":1288,"åĤ":1289,"æľĢ":1290,"åŃĻ":1291,"éĢļ":1292,"è´¾æ¯įéģĵ":1293,"åĸľæ¬¢":1294,"å°±æĺ¯äºĨ":1295,"åļ":1296,"çĨ":1297,"æĸŃ":1298,"åĲ©":1299,"å¾ĹäºĨ":1300,"è®®":1301,"é¢ĺ":1302,"ç³Ĭ":1303,"âĢĶ":1304,"åľº":1305,"æĥĬ":1306,"æ¢¦":1307,"åĲ©åĴĲ":1308,"æ¼":1309,"éŁ":1310,"ä¸įä½ı":1311,"æĪĳå°±":1312,"ç»Ī":1313,"æĬ±":1314,"åĨµä¸Ķ":1315,"ä¸Ģå£°":1316,"åĦ¿çļĦ":1317,"åħŃ":1318,"å¸Ń":1319,"ä¸įèĤ":1320,"åı²":1321,"éĿĴ":1322,"æŃ¤æĹ¶":1323,"çªĹ":1324,"äºĨåĩł":1325,"çĶ·":1326,"çľĭèĳĹ":1327,"æħ¢":1328,"ç³»":1329,"åħĦå¼Ł":1330,"éĥ":1331,"å®Ĺ":1332,"å®ĿçİīåĲ¬äºĨ":1333,"é¡¾":1334,"æµ·":1335,"å«ĤåŃĲ":1336,"åĽ½":1337,"éĤ£ä¸Ģ":1338,"ä¾¿æĺ¯":1339,"æ¥":1340,"æľīäºĽ":1341,"åįķ":1342,"åı«æĪĳ":1343,"æ¯įäº²":1344,"æ¸Ĳ":1345,"èĦļ":1346,"æ·»":1347,"æĤĦæĤĦ":1348,"æĩ":1349,"ä¸¢":1350,"åı¸":1351,"éģĩ":1352,"æľĽ":1353,"è¢Ńäººéģĵ":1354,"çĸĳ":1355,"ç´łæĹ¥":1356,"ï¼ļâĢĺ":1357,"åĩĢ":1358,"æĬ¥":1359,"æģ¨":1360,"ä¸ĥ":1361,"å¦ĥ":1362,"åĽłæŃ¤":1363,"æĦŁ":1364,"è¶£":1365,"ä¿Ĺ":1366,"çĥ¦":1367,"ä¼Ĺäººéĥ½":1368,"çĤ¹å¤´":1369,"é¼":1370,"ä¸įå¿ħ":1371,"åħ°":1372,"æĥ³èĳĹ":1373,"æĪ¿éĩĮ":1374,"æŁ¥":1375,"ç¦ģ":1376,"äºĨä¸¤":1377,"æķ°":1378,"èĥĮ":1379,"éĨĴ":1380,"ä¸įèĤ¯":1381,"ä¹Ŀ":1382,"æŃ¥":1383,"éĹ®ä»ĸ":1384,"è´¾æĶ¿éģĵ":1385,"å²ģ":1386,"çļĦäºĨ":1387,"ä¹Łæ²¡":1388,"åıĪä¸į":1389,"åįĹ":1390,"è¿ĺä¸į":1391,"æģ¯":1392,"äºı":1393,"ä¹ĥ":1394,"ä¸Ģå¤Ħ":1395,"åıªè¯´":1396,"åİŁæĺ¯":1397,"åĳ¨çĳŀå®¶çļĦ":1398,"çĶ±":1399,"åºĬ":1400,"æīįå¥½":1401,"çģ«":1402,"ŁäºĨ":1403,"å·¥":1404,"æĭ¾":1405,"çıł":1406,"æĶ¾å¿ĥ":1407,"ç¢Ĺ":1408,"è¿ĺè¦ģ":1409,"åĩ¤å§Ĳéģĵ":1410,"èµ°äºĨ":1411,"æį¢":1412,"ä½Ļ":1413,"ä¸Ģæł·":1414,"åıªåĲ¬":1415,"ç«¯":1416,"éĽģ":1417,"åįĬæĹ¥":1418,"ä¸įè¦ģ":1419,"ä¸įè§ī":1420,"ä¸Ģä»¶":1421,"å¤§çĪ·":1422,"åĿĹ":1423,"èĭ¥æĺ¯":1424,"çĵ":1425,"ä¹Łå°±":1426,"ä¸ºä»Ģä¹Ī":1427,"æĺİæĹ¥":1428,"ç¦»":1429,"èĬ³å®ĺ":1430,"åıĪæľī":1431,"å¼ķ":1432,"åĢĺ":1433,"ä¿Ŀ":1434,"é²":1435,"çľĭäºĨ":1436,"çĤķ":1437,"èĮĹ":1438,"æ¶Ĥ":1439,"æĭ¿äºĨ":1440,"æĳĨ":1441,"å¾®":1442,"èµ°æĿ¥":1443,"å©¶":1444,"ä¸įè§ģ":1445,"å®«":1446,"ä½Ľ":1447,"çľĭæĹ¶":1448,"ä¸Ķè¯´":1449,"äºĮå§Ĳ":1450,"äºĮåįģ":1451,"éĢĴ":1452,"åģ·":1453,"ç¿ł":1454,"æĵ":1455,"ãĢĤâĢĻ":1456,"è´¾çİ¯":1457,"å®¶äºº":1458,"æ²»":1459,"éĩĳæ¡Ĥ":1460,"æ¡Į":1461,"è¸":1462,"å¤ļå°ĳ":1463,"éħį":1464,"çĽĺ":1465,"è¾ŀ":1466,"æģ¼":1467,"æ·±":1468,"å¦Ļçİī":1469,"ç£":1470,"åħ³":1471,"å¹¸":1472,"æĹ¶åĢĻ":1473,"é¢Ħ":1474,"ä¸ĢéĿ¢è¯´":1475,"éĽªéĽģ":1476,"äº¬":1477,"è¯¸":1478,"ä¸ĢåĽŀ":1479,"ä¸ĭæĿ¥":1480,"è°ĥ":1481,"æŃ£æĺ¯":1482,"åģĩ":1483,"ä¸Ģä¸ªäºº":1484,"ä¸ĢèĪ¬":1485,"å¨¶":1486,"æİ¨":1487,"è·ŁèĳĹ":1488,"åłĤ":1489,"åı¦":1490,"å®Ī":1491,"èĩ´":1492,"æĥ³èµ·":1493,"å½Ĵ":1494,"æº":1495,"æīĺ":1496,"çº¸":1497,"æļĹ":1498,"è®¸å¤ļ":1499,"è¿İæĺ¥":1500,"å®¢":1501,"æī¶":1502,"æĬ¬":1503,"çĦ¶åĲİ":1504,"åĪ©":1505,"ä¿±":1506,"æŀĹä¹ĭ":1507,"é£ŀ":1508,"å¬·å¬·":1509,"éģį":1510,"æľīä¸ª":1511,"è®¾":1512,"é¡»":1513,"èįī":1514,"ç±":1515,"ä»»":1516,"âĢĿï¼Į":1517,"ä½ľä»Ģä¹Ī":1518,"æĮī":1519,"ä¼ıä¾į":1520,"æŀĹä¹ĭåŃĿ":1521,"åĥ":1522,"æŃ¢":1523,"ä»¥åĲİ":1524,"ç³Ĭæ¶Ĥ":1525,"ç¯":1526,"ä¸įåı¯":1527,"æĺĵ":1528,"æľīçļĦ":1529,"è®¡":1530,"é»Ľçİīéģĵ":1531,"åĳ½äºº":1532,"ç²¾":1533,"å¿ĺäºĨ":1534,"å¡":1535,"éĢĢ":1536,"éļĲ":1537,"çİĭå¤«äººéģĵ":1538,"å®³":1539,"åĦ¿åŃĲ":1540,"æķ¬":1541,"æł¹":1542,"å»":1543,"äººçļĦ":1544,"æľĿ":1545,"è¿ĩäºĨ":1546,"éĢĽ":1547,"åĬĽ":1548,"åĬł":1549,"é¡º":1550,"ãĢĢãĢĢãĢĢ":1551,"æ½":1552,"åİ»çļĦ":1553,"åĲİæĿ¥":1554,"å¤©å¤©":1555,"åįģåĪĨ":1556,"èİ²":1557,"å¥´æīį":1558,"è¹":1559,"èĴ":1560,"ä½łå°±":1561,"åĽŀå®¶":1562,"å·®":1563,"è¶ģ":1564,"å¦¥":1565,"æĢľ":1566,"ç»ĵ":1567,"åĴĮä»ĸ":1568,"åĪ«çļĦ":1569,"çĶŁæ°Ķ":1570,"ç§°":1571,"æĭ¿èĳĹ":1572,"è¯·å®ī":1573,"è¡£æľį":1574,"å²Ĥä¸į":1575,"é¢Ħå¤ĩ":1576,"æĪļ":1577,"éĩı":1578,"èĳĹäºĨ":1579,"ä¾Ħ":1580,"çºª":1581,"è·ª":1582,"æŀĹå§ĳå¨ĺ":1583,"çł´":1584,"æĤĦæĤĦçļĦ":1585,"åŀ":1586,"èĶ":1587,"åħ±":1588,"æĭľ":1589,"è¯Ŀè¯´":1590,"è®²":1591,"å®ĿéĴĹéģĵ":1592,"åĿĲèĳĹ":1593,"èµµå§¨å¨ĺ":1594,"ä¹Łéĥ½":1595,"å¦»":1596,"æĹ¥åŃĲ":1597,"å¼Ĥ":1598,"æĶ¹":1599,"éĢł":1600,"åĽłéĹ®":1601,"æīĵåĲ¬":1602,"ä¸īä¸ª":1603,"åĿĲä¸ĭ":1604,"çķª":1605,"åĮĸ":1606,"åļ·":1607,"æĺ¯è°ģ":1608,"é»Ħ":1609,"åīįåĦ¿":1610,"çĥ§":1611,"ä»£":1612,"åĪĿ":1613,"å¸ĺ":1614,"åı«ä½ł":1615,"æĮĤ":1616,"çŁ¥éģĵäºĨ":1617,"è¶³":1618,"åºľéĩĮ":1619,"èİºåĦ¿":1620,"æĶ¶æĭ¾":1621,"åŁİ":1622,"åĽŀå¤´":1623,"éľ²":1624,"ä¸įå¤§":1625,"è¿Ļåĩł":1626,"åŃĲæĿ¥":1627,"ç¬Ķ":1628,"çĶĦ":1629,"ç¿»":1630,"çĪ¶äº²":1631,"æĪĳä¹Łä¸į":1632,"ä½łä¹Ł":1633,"åĵĦ":1634,"åı¯æĺ¯":1635,"çĽĳ":1636,"å¤ĸéĿ¢":1637,"ç¦ı":1638,"ĠĠĠ":1639,"å¤§å¤«":1640,"åı¯ä»¥":1641,"è¾Ī":1642,"çĹ´":1643,"ä¸İä»ĸ":1644,"å¹´çºª":1645,"å¦Īå¦Ī":1646,"ä¸įèĳĹ":1647,"èĪį":1648,"è¯·äºĨ":1649,"åĽŃä¸Ń":1650,"å¿½è§ģ":1651,"å¥Ī":1652,"å®ĿçĲ´":1653,"åŃĲéĩĮ":1654,"åĵ¥åĦ¿":1655,"æ¨ª":1656,"èĳĹä»ĸ":1657,"åħĥ":1658,"èĪĸ":1659,"åĲĦèĩª":1660,"ä¼¼çļĦ":1661,"çŃĶåºĶäºĨ":1662,"æĺ¨åĦ¿":1663,"çĬ¹":1664,"èĻļ":1665,"åĢĺæĪĸ":1666,"èķ":1667,"ä½İ":1668,"å¿į":1669,"ç¬ĳèĳĹ":1670,"æīįæĺ¯":1671,"å§ĳå¨ĺä»¬":1672,"èŁ¾":1673,"æ¬¡æĹ¥":1674,"äºĨæĪĳ":1675,"æĪĳæĺ¯":1676,"ä½łè¯´":1677,"æī¿":1678,"è´¹":1679,"è§Ĥ":1680,"èĬĤ":1681,"èĻ½çĦ¶":1682,"å¿ħæĺ¯":1683,"ç¥ĸå®Ĺ":1684,"å§Ķ":1685,"æĢĢ":1686,"æŃ£è¯´èĳĹ":1687,"æ£ĭ":1688,"æ§":1689,"åĬ¿":1690,"åĴĮå°ļ":1691,"ç»ĻæĪĳ":1692,"é¥®":1693,"åĮ»":1694,"åĽŃéĩĮ":1695,"èĤ¯":1696,"éŃĤ":1697,"åıĭ":1698,"åıĺ":1699,"è¯į":1700,"çļĦä¸ľè¥¿":1701,"è§Ĵ":1702,"å®ĿèŁ¾":1703,"ç»Ŀ":1704,"åī©":1705,"éĻ¤":1706,"åľ°ä¸ĭ":1707,"åĺ»":1708,"å«Į":1709,"è¯»":1710,"åº¦":1711,"ä¸¤éĵ¶åŃĲ":1712,"åİŁæķħ":1713,"å¼ĢäºĨ":1714,"åĲĦå¤Ħ":1715,"ä¸įè¿ĩæĺ¯":1716,"æ²¡äºĨ":1717,"é¡¿":1718,"è½¿":1719,"æ±¤":1720,"æį§":1721,"è£ħ":1722,"äºĨæĿ¥":1723,"ä½łä¸į":1724,"èµĮ":1725,"ä¾Ľ":1726,"å§ĲåĦ¿":1727,"è¦ģç´§":1728,"è·³":1729,"ä¸«å¤´ä»¬":1730,"èģĶ":1731,"æĿ¡":1732,"åľ¨å¤ĸ":1733,"ä¹ĭäºĭ":1734,"çº¹":1735,"è°Ī":1736,"å¯Ĵ":1737,"å°ĨæĿ¥":1738,"éĺ´":1739,"åķĨè®®":1740,"æľ¨":1741,"åĽŀéģĵ":1742,"æŃ£ç»ı":1743,"éĹ¨ä¸Ĭ":1744,"çĹĽ":1745,"åĿĲåľ¨":1746,"å¸¦èĳĹ":1747,"åĽĽä¸ª":1748,"æħĮ":1749,"ĠâĢ":1750,"ä¸ĢçĤ¹":1751,"ç¬ĳè¯´":1752,"å°ĳä¸įå¾Ĺ":1753,"æļĤ":1754,"æĺ¨æĹ¥":1755,"ĠâĢ¢":1756,"ä¸įè®¸":1757,"ä¸Ģçľĭ":1758,"æĪĳä¸į":1759,"åŃĲçļĦ":1760,"åįĸ":1761,"èĢ³":1762,"çŁŃ":1763,"åĢŁ":1764,"æĬĺ":1765,"åĲĥé¥Ń":1766,"äº²æĪļ":1767,"æĹ©å·²":1768,"åĮĹ":1769,"ç¼ĺ":1770,"è¿Ļä¸¤":1771,"åĩŃ":1772,"ä½łåıĪ":1773,"éĩĮéĿ¢":1774,"åį´æĺ¯":1775,"çĩ":1776,"éĴı":1777,"æŀĿ":1778,"è´¾æ¯įç¬ĳéģĵ":1779,"å½¢":1780,"æĹłäºº":1781,"åĲ«":1782,"è¯´æ¯ķ":1783,"å§ĵ":1784,"åĩºäºĨ":1785,"çŁ¥æĺ¯":1786,"ä¹Łä¸įæķ¢":1787,"ç»Ļä½ł":1788,"çīĮ":1789,"åĨ·ç¬ĳéģĵ":1790,"ç§¦éĴŁ":1791,"è¿ĻèĪ¬":1792,"åıĪéģĵ":1793,"éĤ£æĹ¶":1794,"ä¾¿åı«":1795,"æĥŁ":1796,"ç»£":1797,"èĢģå©ĨåŃĲ":1798,"åĢ¼":1799,"è®¨":1800,"å§¨å¤ªå¤ª":1801,"éĶ¦":1802,"åħīæĻ¯":1803,"èĿĮ":1804,"ä¸¾":1805,"çļ®":1806,"è´¼":1807,"åºµ":1808,"åĪ°è¿ĻéĩĮ":1809,"å½¼":1810,"éļĶ":1811,"åĿĲäºĨ":1812,"è´¾çĲıéģĵ":1813,"åľ°æĸ¹":1814,"æĴĴ":1815,"æ¥¼":1816,"è¯ķ":1817,"å¥ī":1818,"è¿Ļè¾¹":1819,"è§ģè¿ĩ":1820,"ç¬ĳäºĨ":1821,"åĲ¬å¾Ĺ":1822,"å·´":1823,"æĭ£":1824,"åºĻ":1825,"ç«ĸ":1826,"åĸĦ":1827,"ç§ģ":1828,"ç©¶":1829,"æĳĩ":1830,"ç£ķ":1831,"å¤Ł":1832,"æĪĳçľĭ":1833,"è´´":1834,"ä¾¿éģĵ":1835,"ä¾¿è¯´éģĵ":1836,"åįİ":1837,"åĽŀè¯´":1838,"ä¸ĭåĽŀ":1839,"æĶ¯":1840,"å¸Ī":1841,"åįģäºĮ":1842,"åĶ±":1843,"èĶ·":1844,"ä¸Ģä¸Ģ":1845,"ä¸Ģåı¥":1846,"æĪĳæĥ³":1847,"æĪĳæīį":1848,"ä¾ĭ":1849,"è§ģå®Ŀçİī":1850,"æĢ¡":1851,"ä¸Ĭå¤´":1852,"èµ°åĪ°":1853,"èĸĽèĿĮ":1854,"çĪ¶æ¯į":1855,"é¾":1856,"ä¹ħ":1857,"äººåİ»":1858,"è¯´ä»ĸ":1859,"å°ģ":1860,"æŃ¹":1861,"ä¼º":1862,"å¿Ļéģĵ":1863,"åĪĨè§£":1864,"ç¾İ":1865,"æĦ¿æĦı":1866,"çļĦå¥½":1867,"äººéĥ½":1868,"ä¾¿éĹ®":1869,"åĬŁ":1870,"å½±":1871,"çĻ»":1872,"ç°":1873,"äºĨåĩºæĿ¥":1874,"ä¸įçĦ¶":1875,"ä»ĸè¯´":1876,"æĭĽ":1877,"çºµ":1878,"è¡¥":1879,"æĽ²":1880,"åºķä¸ĭ":1881,"åŀĤ":1882,"ä¸įæĽ¾":1883,"éģŃ":1884,"åľ¨å®¶":1885,"åĽłåıĪ":1886,"èµ¶èĳĹ":1887,"ç§ĭçº¹":1888,"è¤":1889,"âĢĿãĢĤ":1890,"å¥Ĺ":1891,"å·¦":1892,"å°ıå§Ĳ":1893,"æİ©":1894,"ä½ıäºĨ":1895,"è¨Ģè¯Ń":1896,"å¿½çĦ¶":1897,"å®¹æĺĵ":1898,"æ¦Ĥ":1899,"ä¸ĭåĽŀåĪĨè§£":1900,"èĨ":1901,"äºĨä¸ª":1902,"å°Ŀ":1903,"ä¾¿å°Ĩ":1904,"å¿ĥä¸ĭ":1905,"æĥ³æĿ¥":1906,"åĴĮä½ł":1907,"åīįæĹ¥":1908,"æ¸¸":1909,"å²«":1910,"èıľ":1911,"è¡£è£":1912,"éĹ²è¯Ŀ":1913,"é«ĺåħ´":1914,"ä¸ļ":1915,"æľº":1916,"åİħ":1917,"åĩĨ":1918,"å¦Ĩ":1919,"å°ıçļĦ":1920,"çŃīèĳĹ":1921,"å¯¿":1922,"å²«çĥŁ":1923,"ä¸įæĿ¥":1924,"åĲĵ":1925,"è¯´æĪĳ":1926,"æīĩ":1927,"å¦¨":1928,"å®ĿäºĮçĪ·":1929,"ä¸ĬäºĨ":1930,"æłĳ":1931,"æŃ£åľ¨":1932,"æīĭéĩĮ":1933,"æĮĳ":1934,"æŀĹå¦¹å¦¹":1935,"æİ¥äºĨ":1936,"çŃĶåºĶèĳĹ":1937,"å°ıä¸«å¤´åŃĲ":1938,"çĮľ":1939,"éŁ³":1940,"çĩķ":1941,"æĢ¡çº¢":1942,"ä¸įæĥ³":1943,"èĳĹä¸Ģ":1944,"åıĪè§ģ":1945,"å¥½çĶŁ":1946,"åĨ¯":1947,"æĬĦ":1948,"åı¯ä¸įæĺ¯":1949,"æĦģ":1950,"æ½ĩ":1951,"åıĮ":1952,"ä½łè¿ĺ":1953,"è´¾åħ°":1954,"åıªè¦ģ":1955,"ä¸ĬçļĦ":1956,"åĽŀäºĨ":1957,"ç½ļ":1958,"çº¦":1959,"é¦Ĩ":1960,"å®ĿéĴĹç¬ĳéģĵ":1961,"æĲģ":1962,"å®ŀåľ¨":1963,"éĨī":1964,"âĢĶâĢĶ":1965,"äºĨäºĽ":1966,"çļĦå¿ĥ":1967,"æĺ¯ä»ĸ":1968,"æĪĳè¿ĺ":1969,"çľī":1970,"å¤§å¥¶å¥¶":1971,"éĴĪ":1972,"çº±":1973,"èĭ±":1974,"æ°ĶçļĦ":1975,"æ¡Ī":1976,"ç²ī":1977,"è¡£è£³":1978,"ä»Ĺ":1979,"è¯Ĩ":1980,"æĿ¿":1981,"éĤ£ä¸Ģä¸ª":1982,"åĳ³":1983,"æ²¹":1984,"ä¸ĭäºĨ":1985,"äºĮåĪĻ":1986,"åı¯å·§":1987,"å¯Į":1988,"èĦ±":1989,"æĮ¨":1990,"åĺ±":1991,"å°¤äºĮå§Ĳ":1992,"ä»¶äºĭ":1993,"åĻ":1994,"åı¶":1995,"ä¸įç®¡":1996,"æĹ¨":1997,"ç»¿":1998,"åĬ¡":1999,"æŃ£è¦ģ":2000,"é£Ł":2001,"éĺ³":2002,"å¢¨":2003,"æĩĴ":2004,"å·¥å¤«":2005,"æī§":2006,"çº¿":2007,"æİ·":2008,"èĸĦ":2009,"ä½¿å¾Ĺ":2010,"å®ļäºĨ":2011,"éª¨":2012,"å¦ĤæŃ¤è¯´":2013,"æıĲèµ·":2014,"ä¼¤å¿ĥ":2015,"èĹı":2016,"åı²æ¹ĺäºĳ":2017,"ä¸´":2018,"ä¸įçĲĨ":2019,"ä¸Ģå¤©":2020,"æĿ¥èĩ³":2021,"ä¹Łç½¢äºĨ":2022,"å¾Ħ":2023,"ä¾¯":2024,"å®¶åİ»":2025,"å¸ĸ":2026,"çŃīæĪĳ":2027,"åĵį":2028,"åı¯çŁ¥":2029,"è¡Ģ":2030,"åģ¶":2031,"çĶŁæĹ¥":2032,"åħĪçĶŁ":2033,"ç¢°":2034,"èĮĹçĥŁ":2035,"æ½ĩæ¹ĺ":2036,"æ¤":2037,"ä¸§":2038,"ä¸Ģé½Ĳ":2039,"è§Ħ":2040,"éĤ£äºº":2041,"ç¬ĳè¯Ŀ":2042,"ä¸ĬéĿ¢":2043,"åĩºåİ»äºĨ":2044,"å±Ī":2045,"å¥³äºº":2046,"æ¢ħ":2047,"ç»Ĩç»Ĩ":2048,"æĴŀ":2049,"ç¾ŀ":2050,"ä¼ºåĢĻ":2051,"ä¹Łè¦ģ":2052,"ä¹Łæ²¡æľī":2053,"å¾·":2054,"åıĪè¦ģ":2055,"åĬ³":2056,"å±ħ":2057,"ç´¢":2058,"æĢİæł·":2059,"èº«åŃĲ":2060,"ç¥Ń":2061,"éĺģ":2062,"æ¹ĺèİ²":2063,"æĳ¸":2064,"è®¤å¾Ĺ":2065,"éģ£":2066,"éģĵå£«":2067,"åĩī":2068,"ä½łæĺ¯":2069,"åıªå¥½":2070,"å¥½æŃ¹":2071,"æĸĹ":2072,"åĽłè¯´éģĵ":2073,"çĽĬ":2074,"äºĨä¸Ģå£°":2075,"åĴĮæĪĳ":2076,"åĲĥéħĴ":2077,"é»Ľçİīç¬ĳéģĵ":2078,"åģľ":2079,"ä¿®":2080,"ä¸¤ä¸ªäºº":2081,"éĺµ":2082,"ä¸»åŃĲ":2083,"å«ģ":2084,"ç¤¾":2085,"çİ°åľ¨":2086,"æĢ¡çº¢éĻ¢":2087,"ä¸įåĩº":2088,"å®¶ä¸Ń":2089,"ä¼¸":2090,"å¤§äºĨ":2091,"å¤§äºĭ":2092,"èº²":2093,"æĤĶ":2094,"éĢģäºĨ":2095,"é¥¶":2096,"éĺ²":2097,"æħ°":2098,"æ¯ıæĹ¥":2099,"ä¸įåħį":2100,"è¿Ļäºĭ":2101,"ä¾¿åĳ½":2102,"åı¯æĢľ":2103,"ç«¹":2104,"å±ı":2105,"ç«Łæĺ¯":2106,"äºĶåĦ¿":2107,"æ¢³":2108,"åı¹éģĵ":2109,"æĸĻçĲĨ":2110,"çĥŃéĹ¹":2111,"å©¶åŃĲ":2112,"åı°":2113,"ä¸įåİ»":2114,"ä¸įä½Ĩ":2115,"å®½":2116,"ä¸Ģå¹´":2117,"æĪĳåĢĴ":2118,"ä½łèĢģ":2119,"åıĪéĹ®":2120,"åľŁ":2121,"èĢģç¥ĸå®Ĺ":2122,"çĽĨ":2123,"æģ°":2124,"é¸¡":2125,"æį®":2126,"èİ«":2127,"æŀĹä¹ĭåŃĿå®¶çļĦ":2128,"æ¨ªç«ĸ":2129,"ä»ģ":2130,"ä¸įä¾Ŀ":2131,"æĪĳæĿ¥":2132,"åĩĳ":2133,"åĽ´":2134,"åħ®":2135,"å¤ªçĪ·":2136,"ä¸Ĭåİ»":2137,"éĿł":2138,"é»ĳ":2139,"èºº":2140,"èĢģå¤ªå¤ªçļĦ":2141,"èĤī":2142,"æĭīèĳĹ":2143,"æ¶Ī":2144,"åıĶåıĶ":2145,"åı¸æ£ĭ":2146,"éĤ£æĹ¥":2147,"å®ĿçİīçļĦ":2148,"æĭ¦":2149,"æĭį":2150,"èµ·æĿ¥äºĨ":2151,"ä¸įè¨Ģ":2152,"æĶ¾åľ¨":2153,"åģļä»Ģä¹Ī":2154,"èĦ¸ä¸Ĭ":2155,"å¢Ļ":2156,"éĴıåĦ¿":2157,"ä¹¡":2158,"å®Ŀå§Ĳå§Ĳ":2159,"æĢĶ":2160,"åĴ½":2161,"çľĭä»ĸ":2162,"çĽĸ":2163,"çĽĽ":2164,"äº²èĩª":2165,"èıĬ":2166,"çĬ¯":2167,"åĪ°åºķæĺ¯":2168,"èµĸå¤§":2169,"åıĤ":2170,"çļĦä¸Ģ":2171,"åĲĹ":2172,"åĲĽ":2173,"å°Ĭ":2174,"åİĨ":2175,"ä½łè¦ģ":2176,"åºĦ":2177,"ç½Ĺ":2178,"åĩ¤å§Ĳç¬ĳéģĵ":2179,"èĪĮ":2180,"å¹³åĦ¿éģĵ":2181,"èħ°":2182,"åĹ³":2183,"å£«éļĲ":2184,"åĤ»":2185,"éĥ¨":2186,"äºĨä½ł":2187,"æĪĳåıª":2188,"çİ©":2189,"åĪĩ":2190,"åľ£":2191,"åĩºéĹ¨":2192,"å¨ĩ":2193,"æŀķ":2194,"èĻ½æĺ¯":2195,"çī¹":2196,"çľ¼çĿ":2197,"èī¯":2198,"èĮ¶æĿ¥":2199,"çķĻä¸ĭ":2200,"ç«Ļèµ·æĿ¥":2201,"ãĢĭï¼Į":2202,"å¤®":2203,"ä¸Ģæ¦Ĥ":2204,"è´Ł":2205,"æľīäºĭ":2206,"åıĪåĳ½":2207,"æĸŁ":2208,"å¸®":2209,"ä»Ĭå¹´":2210,"äºĨä¸Ģéģį":2211,"ä¹Łä¸įçĶ¨":2212,"ä¼Ĺäººéģĵ":2213,"çº¢äºĨ":2214,"çľŁæĺ¯":2215,"æĻļä¸Ĭ":2216,"é²ľ":2217,"ä¾ĦåĦ¿":2218,"äºĨåİ»":2219,"åı³":2220,"è¿¹":2221,"éģ¿":2222,"æĪĳè¦ģ":2223,"å°ĺ":2224,"åľ¨å¤ĸå¤´":2225,"ä¼Ļ":2226,"çĽĴ":2227,"ç«ł":2228,"æ¸©":2229,"åĳĬè¯īä½ł":2230,"æĹģè¾¹":2231,"çĶ·äºº":2232,"æħ¢æħ¢":2233,"éĢĴä¸İ":2234,"æĵį":2235,"ï¼Ľ":2236,"âĢ¦":2237,"äºĨåįĬ":2238,"è¿Ł":2239,"éģĵæĺ¯":2240,"æĹı":2241,"æĹºåĦ¿":2242,"ä»ĸå°±":2243,"ä½łåĪ«":2244,"æī¯":2245,"è´¾çĳŀ":2246,"å¤ªçĽĳ":2247,"å¤´éĩĮ":2248,"åı«ä»ĸä»¬":2249,"åĵģ":2250,"è¢Ńäººç¬ĳéģĵ":2251,"çıŃ":2252,"éķľ":2253,"å¹²åĩĢ":2254,"ç§¦æ°ı":2255,"çĤķä¸Ĭ":2256,"ï¼ĮâĢĿ":2257,"äºĨè¿Ļ":2258,"æĺı":2259,"ä»ĸæĺ¯":2260,"èĳĹæĢ¥":2261,"èµŀ":2262,"åįĩ":2263,"çŁ©":2264,"å¹»":2265,"æķ´":2266,"è´¾æ¯įçŃī":2267,"åĲ¬äºĨè¿Ļè¯Ŀ":2268,"å¥³åŃ©":2269,"çº¢çİī":2270,"èĥĨ":2271,"å§Ĭå¦¹ä»¬":2272,"ä¸Ģäºº":2273,"åĲµ":2274,"æĪĳåıĪ":2275,"ä»ĸåİ»":2276,"éĩĮéĹ´":2277,"å¥½å¥½çļĦ":2278,"å®Ŀçİīå¿Ļ":2279,"ä¼´":2280,"æ¯Ľ":2281,"æŀ¶":2282,"è¡Ļ":2283,"éĹ¨åīį":2284,"ä»İæŃ¤":2285,"çīĻ":2286,"æ±Ĺ":2287,"åĲ¬è§ģäºĨ":2288,"ç¬¬äºĮ":2289,"çľ¼çĿĽ":2290,"éŀ":2291,"ä¸°":2292,"äºī":2293,"ä¸įåĪ°":2294,"äºĭæĿ¥":2295,"éĹ®ä½ł":2296,"æİĮ":2297,"åĲĥçļĦ":2298,"æĪ¿åĨħ":2299,"æŃ»çļĦ":2300,"ç©·":2301,"æĲ¬":2302,"æļĸ":2303,"èį£åºľ":2304,"éŁµ":2305,"åĽ½åºľ":2306,"åºĬä¸Ĭ":2307,"å»Ĭ":2308,"è¯»ä¹¦":2309,"ä¸įäºĨ":2310,"ä¸įå¤ļ":2311,"ä¹İ":2312,"æī«":2313,"ç¬¼":2314,"æ²ī":2315,"ä¸ĭæ³ª":2316,"èĩªåľ¨":2317,"å¸ķ":2318,"ä¹ĭçī©":2319,"æĥ³äºĨä¸Ģ":2320,"åĲĥèĮ¶":2321,"ç®±":2322,"æĹłå¥Ī":2323,"æģ¶":2324,"è¢ŃäººçŃī":2325,"ä½ķå¿ħ":2326,"éĻĲ":2327,"èĩªå·±çļĦ":2328,"æ¡ĥ":2329,"è®°å¾Ĺ":2330,"æ¨¡":2331,"åĥ§":2332,"æ½ĩæ¹ĺé¦Ĩ":2333,"å¥³åŃ©åĦ¿":2334,"ï¼ĮâĢľ":2335,"è¿·":2336,"ä¹ł":2337,"æĪ´":2338,"åĲ¹":2339,"è¯´èµ·":2340,"ä½łåıª":2341,"ä¹ŁæĹł":2342,"è´¾èĶ·":2343,"æĹ¶å¸¸":2344,"åĽłè§ģ":2345,"æĥ³éģĵ":2346,"æĦĪ":2347,"æł·åĦ¿":2348,"è¡¨":2349,"çİĭå¤«äººçŃī":2350,"å½ĵæĹ¥":2351,"æľªäºĨ":2352,"åĵŃèµ·æĿ¥":2353,"æİ¥èĳĹ":2354,"é¸³é¸¯éģĵ":2355,"æķ£äºĨ":2356,"ç«ĻèĳĹ":2357,"é¾Ļ":2358,"è§ĦçŁ©":2359,"è²":2360,"å®¤":2361,"å®ľ":2362,"ä¸ĢæĹ©":2363,"ä¸Ģåı¥è¯Ŀ":2364,"éģĵçĲĨ":2365,"æĺ¯ä»Ģä¹Ī":2366,"ä¾¿è¦ģ":2367,"åľ¨ä¸Ģå¤Ħ":2368,"çīĩ":2369,"è§īå¾Ĺ":2370,"ç¼ĸ":2371,"ç¦Ģ":2372,"ä¸įåľ¨å®¶":2373,"å°ıåİ®ä»¬":2374,"æĩĤ":2375,"æ¤ħ":2376,"ç¡":2377,"èľ":2378,"ä¸Ŀ":2379,"å¤ı":2380,"çļĦæĹ¶åĢĻ":2381,"æĺŁ":2382,"ä¸Ģå¾Ħ":2383,"åĲŁ":2384,"åĽ¾":2385,"æŃª":2386,"ä¸Ĭä¸ĭ":2387,"æĥ¹":2388,"å¤§äºº":2389,"å¤§èĢģçĪ·":2390,"éĥ½è¯´":2391,"è¯Ŀä¸ĭ":2392,"ä¸ŃçĶ¨":2393,"å¤©ä¸ĭ":2394,"åĩºæĿ¥äºĨ":2395,"èĦī":2396,"è½¯":2397,"è¿Ļä¹ĪèĳĹ":2398,"æĽ¿ä»ĸ":2399,"éĹ»å¾Ĺ":2400,"æĬ±æĢ¨":2401,"æ¸Ĳæ¸Ĳ":2402,"éģĩè§ģ":2403,"æĿ¾":2404,"åİĭ":2405,"è¿ĻæĹ¥":2406,"ä½łè¿Ļ":2407,"ä¹Łè¯¥":2408,"å®ĿçİīåĲ¬è¯´":2409,"æĬ¢":2410,"åĽłç¬ĳéģĵ":2411,"æľªåħį":2412,"ç²Ĺ":2413,"æĿİçº¨éģĵ":2414,"æ³ķåĦ¿":2415,"æ¬¢åĸľ":2416,"ä¸¢äºĨ":2417,"±¡":2418,"çļĦå°ı":2419,"çļĦä¸«å¤´":2420,"æĺ¯ä½ł":2421,"éĩİ":2422,"åŃĲä¸Ĭ":2423,"çŁ£":2424,"å¿ĥåĨħ":2425,"å¼±":2426,"åº§":2427,"åĽłä¸º":2428,"å¤ªå¤ªä»¬":2429,"åĵŁ":2430,"èĭ¥ä¸į":2431,"çģ°":2432,"ä¸įè±¡":2433,"åį´è¯´":2434,"å¥³åŃ©åŃĲ":2435,"æĪĲäºĨ":2436,"ç¼ķ":2437,"æĲº":2438,"èĹķ":2439,"åĤ¬":2440,"è·ªä¸ĭ":2441,"æ§Ľ":2442,"æļĤä¸Ķ":2443,"ä¸ĭæ³ªæĿ¥":2444,"ï¼ĮâĢĺ":2445,"è¯¯":2446,"ä¸įåıĬ":2447,"æĺ¯ä¸Ģ":2448,"åĲĬ":2449,"åĪ¶":2450,"åıªå½ĵ":2451,"å®Ŀçİīä¾¿":2452,"å¤§è§Ĥ":2453,"ä¹ĭåĲİ":2454,"éĢ¼":2455,"åĩ¤ä¸«å¤´":2456,"å¿ĻçļĦ":2457,"éĽħ":2458,"å±Ĥ":2459,"ä¸īäºº":2460,"ä½ķèĭ¦":2461,"çĹķ":2462,"åĽĽåįģ":2463,"å¹¶ä¸į":2464,"åĲįåŃĹ":2465,"ç´«èĭ±":2466,"æĴµ":2467,"æ¹ĺäºĳéģĵ":2468,"æĢ¥çļĦ":2469,"åĪļæīį":2470,"æģĲæĢķ":2471,"ä¸įåľ¨è¯Ŀä¸ĭ":2472,"é¼ĵ":2473,"åĺ±åĴĲ":2474,"èŃ":2475,"ĦåŃĲ":2476,"çļĩ":2477,"ä»ĸåıĪ":2478,"å¾Ĺç½ª":2479,"å¤´åĦ¿":2480,"æĬ«":2481,"æĬ¹":2482,"æķĳ":2483,"æ²¡äºº":2484,"ä¹ĭæĦı":2485,"è¡Ĺ":2486,"åĨįè¯´":2487,"éĤ£éĩĮåİ»":2488,"æĭ¿æĿ¥":2489,"èĭ¥è¯´":2490,"æ³£":2491,"âĢĻãĢĤ":2492,"æĲŃ":2493,"åĩ¤å§ĲåĦ¿ç¬ĳéģĵ":2494,"è£ģ":2495,"æħ¢æħ¢çļĦ":2496,"Ķç»Ĩ":2497,"ä»Ķç»Ĩ":2498,"å¤¹":2499,"ä¸įä¾¿":2500,"æĿĢ":2501,"æĪ·":2502,"ä¹Łå¥½":2503,"å®Ŀå§ĳå¨ĺ":2504,"éĤª":2505,"åį§":2506,"èĢ½":2507,"å°±å®ĮäºĨ":2508,"åĽŀåĪ°":2509,"å·ŀ":2510,"å¿ĻéĹ®":2511,"æĽ°":2512,"æģį":2513,"åĸĬ":2514,"ä½ľäºĨ":2515,"çŀħ":2516,"ä¼ĹäººåĲ¬äºĨ":2517,"æ·¡":2518,"éĵģ":2519,"çĸ¯":2520,"çĸı":2521,"åĳĬè¯īä»ĸ":2522,"çĿ¡äºĨ":2523,"è¿ĻäºĽäºº":2524,"èĸĽå§¨å¦Īéģĵ":2525,"å°ļæľª":2526,"è¿ĳæĹ¥":2527,"éĶĻäºĨ":2528,"èĽ":2529,"å¤º":2530,"ä¸įåĩºæĿ¥":2531,"ä¸įå°½":2532,"åĲĲ":2533,"æĪĳä¸Ģ":2534,"è§Ĩ":2535,"æľīä¸Ģä¸ª":2536,"ä¸ªäºº":2537,"åľ¨å®¶éĩĮ":2538,"ä¼ĳ":2539,"å°±å¥½äºĨ":2540,"äºĭæĥħ":2541,"æĬķ":2542,"çľĭçľĭ":2543,"èĬ¹":2544,"è°İ":2545,"äºĨä¸Ģåı£":2546,"éĽĢ":2547,"å§ĳåŃĲ":2548,"æĪĳä»¬çļĦ":2549,"èĦĤ":2550,"å½ĵä¸ĭ":2551,"æĶ¾ä¸ĭ":2552,"çĹħäºĨ":2553,"åĳĬè¯īäºĨ":2554,"äºĶåįģ":2555,"å±ĭåŃĲ":2556,"çªĿ":2557,"çħ§åºĶ":2558,"æīĵåıĳäºº":2559,"èŀ":2560,"äºŃ":2561,"åı·":2562,"ä¸Ģè¯Ń":2563,"æĺ¯æĪĳ":2564,"è¯´å®Į":2565,"ä»ĸä¸Ģ":2566,"ä»ĸä¾¿":2567,"ä»ĸä¸¤ä¸ª":2568,"ä¾¿çŁ¥":2569,"åĽŀæĿ¥äºĨ":2570,"æĭĺ":2571,"ä¹ĭäºº":2572,"å¿Ļç¬ĳéģĵ":2573,"è°ħ":2574,"æĥ³åĪ°":2575,"æİĴ":2576,"åĲİéĿ¢":2577,"å¯º":2578,"çŀĴ":2579,"èĦĳ":2580,"é¢ľ":2581,"æ·«":2582,"åĩ¤å§ĲåĦ¿éģĵ":2583,"æ»ļ":2584,"çĭł":2585,"æİ¢æĺ¥éģĵ":2586,"èģĮ":2587,"æĽ¿ä½ł":2588,"åĭĩ":2589,"ç¯ĩ":2590,"èĺ":2591,"æĿĤ":2592,"è¯´ç¬ĳ":2593,"å°¼":2594,"ä»ĸä¹Ł":2595,"å®ĿåħĦå¼Ł":2596,"åħ¼":2597,"ä¸Ĭå¤ľ":2598,"åĨ¤":2599,"å°±è¦ģ":2600,"ä¸ĭåİ»":2601,"æĬĵ":2602,"éĹ¨åı£":2603,"çĶŁçļĦ":2604,"å£ģ":2605,"é¡¶":2606,"é¡¹":2607,"éħ¸":2608,"çľ¼æ³ª":2609,"åľ°éĩĮ":2610,"é£İæµģ":2611,"çĭĹ":2612,"çĽ¸å¹²":2613,"æĶ¶äºĨ":2614,"åħ´åĦ¿":2615,"åħ¬åŃĲ":2616,"ä»įæĹ§":2617,"èĴĻ":2618,"æĥ³äºĨä¸Ģæĥ³":2619,"¥çı":2620,"ĻèĮĹ":2621,"ä¸ĢåĪĻ":2622,"æĪĳåĳ¢":2623,"åİ¿":2624,"ä½łåİ»":2625,"è´¾åºľ":2626,"ç¬ĳèµ·æĿ¥":2627,"éĥ½ä¸į":2628,"è¿ĩçļĦ":2629,"å°ıåĦ¿":2630,"åĽłè¯´":2631,"çĲ¥çı":2632,"åı¯æĥľ":2633,"é»ĺ":2634,"çĦĻèĮĹ":2635,"èį·":2636,"å¿ħå®ļ":2637,"ç¼ł":2638,"éĹ¹çļĦ":2639,"åķĲ":2640,"åĹ½":2641,"æ¦»":2642,"åĨ¯ç´«èĭ±":2643,"åĻ¨":2644,"ä¸įè¨Ģè¯Ń":2645,"çĲ¥çıĢ":2646,"åıĻ":2647,"ä¸įä¸Ĭ":2648,"ä¸Ģè§ģ":2649,"ä¸Ģå®ļ":2650,"æĺ¯ä¸į":2651,"æĪĳåİ»":2652,"ä½łæĿ¥":2653,"èĳĹåĳ¢":2654,"éĤ£ä¸«å¤´":2655,"æĢĴ":2656,"èĩĬ":2657,"å¤´ä¸Ĭ":2658,"å°±ä¸į":2659,"éĥ½åľ¨":2660,"äºĭçļĦ":2661,"è¿ĺæ²¡":2662,"æĬ¤":2663,"ä¹ĭå¤Ħ":2664,"ç½ķ":2665,"åĩ¤å§ĲåĲ¬äºĨ":2666,"åīª":2667,"æīĵçĤ¹":2668,"åĿıäºĨ":2669,"éĽ¶":2670,"ä¸īåįģ":2671,"æĬĬè¿Ļ":2672,"å¹´è½»":2673,"èĬ±åĦ¿":2674,"éļ¾ä¸º":2675,"è·ŁäºĨ":2676,"æĲľ":2677,"æĻļéĹ´":2678,"èģļ":2679,"æ£ł":2680,"å·§å§ĲåĦ¿":2681,"ç©¿èĳĹ":2682,"å½©äºĳ":2683,"åķĨéĩı":2684,"çĵ¶":2685,"å§Ķå±Ī":2686,"ç©¶ç«Ł":2687,"å¯Įè´µ":2688,"èł":2689,"åĽ¢":2690,"ä¹Łæľª":2691,"æľīè¶£":2692,"åıĪåı«":2693,"åĳĢ":2694,"çľ·":2695,"ä¾¿åĲĳ":2696,"å¥½å®¹æĺĵ":2697,"èĢį":2698,"åĨĮ":2699,"åĿł":2700,"æĮģ":2701,"æĶ¾äºĨ":2702,"æĻļé¥Ń":2703,"å²ĤçŁ¥":2704,"åĮħåĭĩ":2705,"æ¢³æ´Ĺ":2706,"çĴ":2707,"è¿°":2708,"ä¸Ģå¤ľ":2709,"ä¸ĢåĿĹ":2710,"æĿ¥åĽŀ":2711,"è¯´å¾Ĺ":2712,"è¯´ä»Ģä¹Ī":2713,"å¥ı":2714,"ä»ĸæĿ¥":2715,"ä½łåĢĴ":2716,"åİ»åĳ¢":2717,"åľĨ":2718,"éĹº":2719,"æĥ¯":2720,"æĥĳ":2721,"å¤§å¤ªå¤ª":2722,"å°ıåŃĲ":2723,"è¿ĽäºĨ":2724,"ä¹Łä¸įèĥ½":2725,"æ¬º":2726,"çŁ¥éģĵçļĦ":2727,"æĤ¬":2728,"æĹ©èµ·":2729,"åı£åĨħ":2730,"æ±Ł":2731,"æıŃ":2732,"éľľ":2733,"æ¼±":2734,"ç±³":2735,"éĢłåĮĸ":2736,"ä½İå¤´":2737,"åĺ»åĺ»":2738,"åĦ":2739,"çļĦéĤ£":2740,"ä¸įä¿¡":2741,"å®¿":2742,"ä½³":2743,"ä¸ĢæĬĬ":2744,"æľŁ":2745,"åİ¨":2746,"åıĪå°Ĩ":2747,"åıĪä¸įå¥½":2748,"åį·":2749,"å¤§çļĦ":2750,"æĬ½":2751,"ä¹ĭæĹ¶":2752,"æĦ§":2753,"è¢ĸ":2754,"è¿Ľåħ¥":2755,"å¯Ĥ":2756,"ä¸īæĹ¥":2757,"æĮª":2758,"è¯´èĳĹä¾¿":2759,"çľŁçľŁ":2760,"åĽŃåŃĲ":2761,"ç¼İ":2762,"æŀľåŃĲ":2763,"éĶģ":2764,"å¿µä¹¦":2765,"æ®µ":2766,"å®ģåºľ":2767,"é²į":2768,"æºľ":2769,"è²Į":2770,"èŃ¦":2771,"åĦĴ":2772,"ä¸ĵ":2773,"æĿı":2774,"ä¸Ģåı£":2775,"æĪĳè¿Ļ":2776,"è´«":2777,"å°±èµ°":2778,"åĽŀæĺİ":2779,"å·¾":2780,"åĴķ":2781,"æĸ½":2782,"è¿ĺè¯´":2783,"åĢļ":2784,"çº³":2785,"ä»Ģä¹Īäºĭ":2786,"çĪ·ä»¬":2787,"æİī":2788,"åī¯":2789,"å¯Ł":2790,"èĻ½ä¸į":2791,"èĤł":2792,"æĪĸèĢħ":2793,"ç¢į":2794,"æİ¢æĺ¥ç¬ĳéģĵ":2795,"èĩªçĦ¶æĺ¯":2796,"åĭ¾":2797,"åĭī":2798,"ä¸«é¬Łä»¬":2799,"ä¿Ĺè¯Ń":2800,"åĪ©å®³":2801,"å¦¥å½ĵ":2802,"åĮĹéĿĻ":2803,"ä¸įè¯´":2804,"å®ħ":2805,"åİļ":2806,"è¿Ļä¸Ģä¸ª":2807,"ä½łåı¯":2808,"ä¹Łç½¢":2809,"èµĶ":2810,"åıĪåĲĳ":2811,"åħ¸":2812,"çĶ°":2813,"èĩªåİ»":2814,"æ²¡çļĦ":2815,"åĢĴè±¡":2816,"åĩłå¹´":2817,"æĢİä¹Īè¯´":2818,"åı£éĩĮ":2819,"å¹³åĦ¿ç¬ĳéģĵ":2820,"åĲ¬è§ģè¯´":2821,"åĲĦèī²":2822,"åĵŃéģĵ":2823,"åĽŃåĨħ":2824,"èĢĮå·²":2825,"è¿ĻäºĽè¯Ŀ":2826,"æķħæĦı":2827,"æľ¬æĿ¥":2828,"å¡ŀ":2829,"è¯·äºĨå®ī":2830,"ç£ķå¤´":2831,"çº¢äºĨèĦ¸":2832,"äºĨä¸įå¾Ĺ":2833,"ä»ª":2834,"ä¸įèµ·":2835,"ä¸Ģéĺµ":2836,"æĿ¥è¯´":2837,"æĪĳçŁ¥éģĵ":2838,"è´¤":2839,"æľīåĩł":2840,"åľĪ":2841,"è§ģçļĦ":2842,"ä¼¶":2843,"æ²¿":2844,"æĭ©":2845,"ä¸ĭäºº":2846,"çĪ¬":2847,"å¨ĺåĦ¿":2848,"è¢Ħ":2849,"çİĭçĪ·":2850,"åĪ«è¯´":2851,"ä¸īå§Ĳ":2852,"çĤī":2853,"æĢķä»ĸ":2854,"éĺ¿":2855,"ä¸įå¥½äºĨ":2856,"ç¢§":2857,"æĴĤ":2858,"ç´«é¹ĥéģĵ":2859,"è£Ļ":2860,"èħ¿":2861,"ç¾¤":2862,"ç«Ļåľ¨":2863,"æŃĩæŃĩ":2864,"æĸĩç«ł":2865,"åłĨ":2866,"éĨĴäºĨ":2867,"ä¼¸æīĭ":2868,"è¡ĻéĹ¨":2869,"ä¹ī":2870,"å®´":2871,"ä¸ĢåºĶ":2872,"æĪĳåĨį":2873,"æī¬":2874,"åĪĢ":2875,"å¦¾":2876,"éĤ£å©ĨåŃĲ":2877,"å¥½å§Ĳå§Ĳ":2878,"åĽŀèº«":2879,"åĽŀæĪ¿":2880,"æĭĲ":2881,"æĭŁ":2882,"äºĮçĻ¾":2883,"å¼¥":2884,"ä¸¤è¾¹":2885,"ä¹ĭéĹ´":2886,"æŃ¤äºĭ":2887,"åĪ«å¤Ħ":2888,"éĻĪ":2889,"æ³¥":2890,"ä¸įçŁ¥æĺ¯":2891,"å¹¶æĹł":2892,"çļĨæĺ¯":2893,"éľŀ":2894,"å·§å§Ĳ":2895,"è½»è½»":2896,"åĪĺå§¥å§¥éģĵ":2897,"éĻªèĳĹ":2898,"éªĤéģĵ":2899,"èĪħèĪħ":2900,"ä½ĵéĿ¢":2901,"æ¥ļ":2902,"é¡»å¾Ĺ":2903,"ä»£åĦĴ":2904,"é²įäºĮ":2905,"äº®":2906,"äºĨäºº":2907,"äºĨå¤´":2908,"è¯§":2909,"ä¸įç¦ģ":2910,"å¿§":2911,"ä½łæĢİä¹Ī":2912,"åĳ¼":2913,"å¤ªåĮ»":2914,"æĥļ":2915,"å¤§çº¢":2916,"å¹¼":2917,"åĲ¬ä»ĸ":2918,"åĲ¬èĳĹ":2919,"åĲ¬ä¸ĭåĽŀåĪĨè§£":2920,"äºĮåŃĹ":2921,"èĢģå¬·å¬·":2922,"æķĪ":2923,"åı«äºĨ":2924,"éĹ®äºĨ":2925,"è¾ĵ":2926,"è¿ĽæĿ¥äºĨ":2927,"æł·åŃĲ":2928,"éĤ£éĩĮåİ»äºĨ":2929,"æĬĬéĤ£":2930,"éĻµ":2931,"èįĴ":2932,"æĹ©æĻļ":2933,"ä»İåīį":2934,"èĢĮåİ»":2935,"ç¬¬ä¸Ģ":2936,"åĬĿéģĵ":2937,"æĮĩèĳĹ":2938,"èµĮæ°Ķ":2939,"æĥŁæľī":2940,"åĭīå¼º":2941,"è¯ģ":2942,"ä¸įåĲĮ":2943,"ä¸įæıĲ":2944,"ä¹ĺ":2945,"è¿Ļä»¶äºĭ":2946,"åŃ¤":2947,"åĽº":2948,"èµĲ":2949,"åıĪæģĲ":2950,"åıªåĽł":2951,"åįĪ":2952,"åįł":2953,"ç¬ĳè¯´éģĵ":2954,"ä¸Ĭä¸Ģ":2955,"åĨĴ":2956,"å°±æľī":2957,"å¨ĺå¨ĺ":2958,"äºĨä¸Ģè·³":2959,"è¾Ľ":2960,"åĢĴä¹Ł":2961,"å¯Ĩ":2962,"æĻĮ":2963,"æĬĬæĪĳ":2964,"ä¸ĶåĲ¬ä¸ĭåĽŀåĪĨè§£":2965,"ä¸ĢéĿ¢åıĪ":2966,"æ±ł":2967,"çĿģ":2968,"åĳĬè¯īæĪĳ":2969,"ä½¿ä¸įå¾Ĺ":2970,"è¿Ļä¹Īè¯´":2971,"ä½Ĩæĺ¯":2972,"èģª":2973,"åĺ´éĩĮ":2974,"æĽ¿æĪĳ":2975,"åıĹçĶ¨":2976,"ç©ºåĦ¿":2977,"åı¤äºº":2978,"çĨŁ":2979,"æµ·æ£ł":2980,"ç±»":2981,"åħĥå¦ĥ":2982,"åĹ³åĵŁ":2983,"èĺħ":2984,"åĮĹéĿĻçİĭ":2985,"è¯§å¼Ĥ":2986,"æª":2987,"è¿Ĳ":2988,"çļĦå¾Ī":2989,"ä¸įèĩªåľ¨":2990,"æĿĲ":2991,"ä¸Ģåľº":2992,"æĺ¯äºĨ":2993,"å°¸":2994,"å¥Ķ":2995,"ä½łåħĪ":2996,"å¦ĸ":2997,"åıĪä¸įæķ¢":2998,"éĤ£æł·":2999,"åıªé¡¾":3000,"æ¯Ĵ":3001,"äºĮå¤«äºº":3002,"èĢģå¨ĺ":3003,"èĢģå©Ĩ":3004,"åĢª":3005,"ä¸¤æĹ¥":3006,"äºĽä»Ģä¹Ī":3007,"ç½®":3008,"æŀī":3009,"çĦļ":3010,"ä¹Łä¸įå¥½":3011,"ä¹Łä¸įçŁ¥":3012,"å§ĳå¥¶å¥¶":3013,"åĨįæĿ¥":3014,"éĤ£éĩĮçŁ¥éģĵ":3015,"å¤ļäºĨ":3016,"å·²æĺ¯":3017,"äº²åıĭ":3018,"æĭ¿åĩº":3019,"âĢĻãĢĤâĢĿ":3020,"æ´ĭ":3021,"å¾Ģåīį":3022,"æ·ĺ":3023,"åĽĽäºº":3024,"åºĶäºĨ":3025,"æıĴ":3026,"æĪĸæĺ¯":3027,"éĤ¢çİĭ":3028,"æĢ¥äºĨ":3029,"èħ¾":3030,"åłª":3031,"ä»įæĺ¯":3032,"èĥ¡è¯´":3033,"ç¿łç¼ķ":3034,"éĢĽéĢĽ":3035,"ç°ª":3036,"ä»ĹèĳĹ":3037,"ä¸¥":3038,"äºĨå¥½äºĽ":3039,"ä»°":3040,"å¤ŁäºĨ":3041,"éģĹ":3042,"è¿Ļä¹Ł":3043,"åŃ½":3044,"æīİ":3045,"éĤ£ä¹Ī":3046,"ä¾¿ç¬ĳéģĵ":3047,"å®Ŀçİīè§ģ":3048,"å¿ĥäºĨ":3049,"æīĵäºĨ":3050,"å½¹":3051,"æĹłäºĭ":3052,"åĩłåı¥":3053,"å¯Ħ":3054,"æ¬ł":3055,"æĪ¿åŃĲ":3056,"æĮ½":3057,"ç¥Ł":3058,"éĢģåİ»":3059,"éĢģåĪ°":3060,"åĮ¾":3061,"å¸¦é¢Ĩ":3062,"æ±ī":3063,"çĿ¡è§ī":3064,"æ»´":3065,"çĭĲ":3066,"å¿½åĲ¬":3067,"æĹ¢æĺ¯":3068,"åĬ¨äºĨ":3069,"èĻİ":3070,"æ®ĭ":3071,"çĵľ":3072,"å¸ĪçĪ¶":3073,"ä½łèĢģäººå®¶":3074,"ä¸¹":3075,"äºĨåįĬæĹ¥":3076,"çļĦè¯´":3077,"ä¸Ģç¬ĳ":3078,"ä¸Ģæĥ³":3079,"éģĵäºº":3080,"æī®":3081,"è´§":3082,"è´º":3083,"éĩĮçļĦ":3084,"åĲ¬åĲ¬":3085,"æĭħ":3086,"æĭĪ":3087,"åĴ¬":3088,"çĪ½":3089,"è¿ĺäºĨ":3090,"å°ıäºĭ":3091,"æł¼":3092,"çĽı":3093,"è¢ĭ":3094,"è´¾æ¯įçİĭå¤«äºº":3095,"æĹłè¯Ŀ":3096,"å®ĿéĴĹçŃī":3097,"çĥĤ":3098,"é¢Ŀ":3099,"é¥°":3100,"é£ĺ":3101,"æ¡Ĳ":3102,"ä¹¦æĪ¿":3103,"èĥľ":3104,"æĽ´åĬł":3105,"æĲĢ":3106,"æ¹ĺäºĳç¬ĳéģĵ":3107,"æĢ¥å¿Ļ":3108,"è´¾çıįéģĵ":3109,"åķ¼":3110,"å¢ĥ":3111,"æĺİçĻ½äºĨ":3112,"åŁĭ":3113,"ç¨ĭ":3114,"çĨ¬":3115,"å½¼æŃ¤":3116,"ç´¢æĢ§":3117,"ä¸°åĦ¿":3118,"äº¡":3119,"ä¸Ģå¼ł":3120,"ä¸Ģé¡¿":3121,"æľĭ":3122,"æĪĳè¿ĻéĩĮ":3123,"åİĮ":3124,"å¿Ĺ":3125,"ä½łä¸Ķ":3126,"åĳĪ":3127,"åĴ³":3128,"åĢį":3129,"éĢ¢":3130,"éĹ®æĪĳ":3131,"æīĵè°ħ":3132,"æĻº":3133,"ç´¯":3134,"ä¸īå§ĳå¨ĺ":3135,"ä½ľè¯Ĺ":3136,"å¦¹åŃĲ":3137,"çĹĩ":3138,"åĩºæĿ¥çļĦ":3139,"èĪ¹":3140,"ä»İå°ıåĦ¿":3141,"çĸ¾":3142,"å¹¶ä¸įæĺ¯":3143,"æ¯Ķä¸įå¾Ĺ":3144,"çŃĶè¨Ģ":3145,"ç¤º":3146,"ä½Ĩåıª":3147,"è¯´è¯ĿåĦ¿":3148,"æĻ´éĽ¯éģĵ":3149,"è®¤çľŁ":3150,"åİŁæĿ¥æĺ¯":3151,"èĥĮåľ°éĩĮ":3152,"æį¢äºĨ":3153,"è¾ĪåŃĲ":3154,"éĤ¢çİĭäºĮå¤«äºº":3155,"±¼":3156,"é±¼":3157,"ä¸¸":3158,"äºĨæīĭ":3159,"çļĦæīĭ":3160,"ä¸įè¯¥":3161,"ä¸ĢæĿ¯":3162,"æĿ¥çŀ§":3163,"æĪĳäºĨ":3164,"ä»ĸäºĮäºº":3165,"åŃĺ":3166,"ä½łå¿«":3167,"æīŃ":3168,"è´¥":3169,"çİīéĴıåĦ¿":3170,"åıĪç¬ĳéģĵ":3171,"è§ģè´¾æ¯į":3172,"æŃĮ":3173,"ä¾¿æĬĬ":3174,"å¼ĥ":3175,"çŃ¾":3176,"å°ıåŃ©åŃĲ":3177,"è´¾æ¯įåĲ¬äºĨ":3178,"å±ŀ":3179,"èµ°èĩ³":3180,"ç§»":3181,"åįģäºĶ":3182,"ä½ķä¸į":3183,"çĹ°":3184,"èĦ¾":3185,"åĶĲ":3186,"èĥİ":3187,"åĲĦäºº":3188,"èĤļ":3189,"èī³":3190,"ç¢İ":3191,"æĭīäºĨ":3192,"åıĸç¬ĳ":3193,"åĨĻèĳĹ":3194,"åıįåĢĴ":3195,"æīĵåıĳäººæĿ¥":3196,"æ··å¸Ĳ":3197,"éŃĦ":3198,"éĥİ":3199,"ç«¯çļĦ":3200,"æĬ¬å¤´":3201,"æīĩåŃĲ":3202,"å¸®èĳĹ":3203,"å¤§è§ĤåĽŃ":3204,"èĺħèĬ":3205,"åı©":3206,"è¯Ħ":3207,"ä¸Ģçŀ§":3208,"ä¸Ģä¼ļåŃĲ":3209,"æĿ¥è¯·":3210,"éģĵå©Ĩ":3211,"äººäºĨ":3212,"åĲ¯":3213,"åĲī":3214,"æĪĳæľī":3215,"å§ĭ":3216,"åıĪæĢķ":3217,"æŃ¦":3218,"ä¾¿å¾Ģ":3219,"åľ¨æĹģ":3220,"åľ¨åľ°ä¸ĭ":3221,"ä¼¯":3222,"åĨ²":3223,"æĸ¤":3224,"è¯ĿæĿ¥":3225,"èĩªæľī":3226,"è®ª":3227,"åĪ°éĤ£éĩĮ":3228,"æĹłåı¯":3229,"æĻĵ":3230,"éĹ¨å¤ĸ":3231,"ä½ķæĽ¾":3232,"å£¶":3233,"èį¡":3234,"æ³¼":3235,"ç¥¸":3236,"é¥¿":3237,"æĶ¾èĳĹ":3238,"æµİ":3239,"æĿİè´µ":3240,"ä½¿åĶ¤":3241,"æĪĸæľī":3242,"è¡Įäºĭ":3243,"æĴķ":3244,"è¿Ļä¹Īå¤§":3245,"æĭīä½ı":3246,"å¼ŁåħĦ":3247,"ä»¤äºº":3248,"æ¯ıäºº":3249,"åĲĥäºĨé¥Ń":3250,"è·ĳäºĨ":3251,"éºĿæľĪéģĵ":3252,"ç«ĭåĪ»":3253,"å¾®å¾®":3254,"æ¡Įä¸Ĭ":3255,"è¹ĦåŃĲ":3256,"ç¡¬":3257,"ä¸Ģè¯ŃæľªäºĨ":3258,"æ¿":3259,"èª":3260,"Ģä½Ľ":3261,"åıł":3262,"ä¸ĢçĻ¾":3263,"äººå®¶çļĦ":3264,"æĪĳåĴĮ":3265,"æĪĳåİŁ":3266,"éĩĩ":3267,"è´¢":3268,"èµİ":3269,"åıĪæĿ¥":3270,"è§ģæĺ¯":3271,"ä¾¿éĹ®éģĵ":3272,"åľ¨åºĬä¸Ĭ":3273,"ä¸ĬæĪ¿":3274,"å¹½":3275,"ç»µ":3276,"ä¸ĭçļĦ":3277,"å¿ĥçļĦ":3278,"èĢģåŃĲ":3279,"å¸ĥ":3280,"å¤«å¦»":3281,"è¿Ľäº¬":3282,"å¤©æ°Ķ":3283,"å¯¼":3284,"åĨįèĢħ":3285,"å§ĳå¨ĺçļĦ":3286,"ä½ķå¤Ħ":3287,"éĻĢä½Ľ":3288,"ä½ıèĳĹ":3289,"å©¿":3290,"éĢģæĿ¥":3291,"åĽĽäºĶ":3292,"æµª":3293,"æµĳ":3294,"åĸľçļĦ":3295,"éĺ¶":3296,"åįĬå¤©":3297,"åĴ±ä»¬å®¶":3298,"èı©":3299,"è®©åĿĲ":3300,"æŃĩæģ¯":3301,"è¿ĳæĿ¥":3302,"çĮ®":3303,"æĵ¦":3304,"è¸ı":3305,"è¤¥":3306,"æĭįæīĭ":3307,"éŀĭ":3308,"æ¸Ĳæ¸ĲçļĦ":3309,"éĺ¿å¼¥":3310,"éĺ¿å¼¥éĻĢä½Ľ":3311,"Âł":3312,"ä»Ĩ":3313,"æĺ¾":3314,"ä¸Ģè¡Į":3315,"ä¸Ģçķª":3316,"ä»ĸè¿ĺ":3317,"å¿ł":3318,"ä½łåıªç®¡":3319,"ä¹Łç®Ĺ":3320,"æľīåĩłä¸ª":3321,"ä¾¿ä¸į":3322,"å¥½å¤Ħ":3323,"åľ¨åĨħ":3324,"å®ĿçİīåĽł":3325,"ç¬ĳéĹ®éģĵ":3326,"ç»¢":3327,"æĭŃ":3328,"å¿ĥä¸Ĭ":3329,"å¼ı":3330,"çĪ¹":3331,"èĩªæĺ¯":3332,"çŃīäºĭ":3333,"èĬ¦":3334,"æīįè¦ģ":3335,"æĦļ":3336,"æīĵå¼Ģ":3337,"åĢĴäºĨ":3338,"ä¸ºäºº":3339,"ç§Ģ":3340,"æ¬¾":3341,"ä¸İå®Ŀçİī":3342,"æĮ£":3343,"æĤŁ":3344,"åĳĬè¾ŀ":3345,"åĮ£":3346,"åĮ¹":3347,"å®īæħ°":3348,"å¥³åŃĲ":3349,"éĩĳéĻµ":3350,"æŁĶ":3351,"éªĮ":3352,"æ¢¨":3353,"ç¢Ł":3354,"æĹ¢è¿Ļæł·":3355,"åĨĻäºĨ":3356,"æĢªéģĵ":3357,"åį³åĪ»":3358,"æĢİä¹Īæł·åĳ¢":3359,"åĶ¬çļĦ":3360,"æŁ³å®¶çļĦ":3361,"åŃĻåŃĲ":3362,"çªĹå¤ĸ":3363,"é¼»":3364,"ä½ĻèĢħ":3365,"è¿Ļåĩłå¹´":3366,"éĴĪçº¿":3367,"åģ¶çĦ¶":3368,"æģįæĥļ":3369,"è¿½":3370,"ä¸Ģå¿ĥ":3371,"äººçŃī":3372,"åĲ´":3373,"æī¹":3374,"ä¹Łéļ¾":3375,"æľīä½ķ":3376,"éĤ£å®Ŀçİī":3377,"åĳĺ":3378,"å®¶åŃĲ":3379,"åĨ°":3380,"å¤§çº¦":3381,"å°±åľ¨":3382,"åĽŀèĩ³":3383,"äºĭäºĨ":3384,"å¼¹":3385,"è¿ĩåİ»äºĨ":3386,"è¿ĺå¥½":3387,"ä¸¤åı¥":3388,"å¨ģ":3389,"å°ıçº¢":3390,"å§ĳå¦Ī":3391,"åĩłå¤©":3392,"æģŃ":3393,"å¯¸":3394,"ä»¥ä¸º":3395,"ç»Ļä»ĸä»¬":3396,"æĭ¿åİ»":3397,"ä¸İæĪĳ":3398,"æĢİä¹Īä¸į":3399,"âĢĻâĢĺ":3400,"çĥĽ":3401,"æīĢæľī":3402,"åĽĽåŃĹ":3403,"å¿ħè¦ģ":3404,"æľªå¿ħ":3405,"æ¡¥":3406,"åĵŃèĳĹ":3407,"æįĨ":3408,"åĲįåĦ¿":3409,"æħĪ":3410,"å¼łåįİ":3411,"ç²®":3412,"å²Ĥæľī":3413,"è±Ĩ":3414,"è®©ä»ĸ":3415,"åģıçĶŁ":3416,"åŃĿæķ¬":3417,"åıĹäºĨ":3418,"æ·»äºĨ":3419,"çĸĳæĥĳ":3420,"ä¼Ĺäººéĥ½éģĵ":3421,"å¸ĺåŃĲ":3422,"èķĻ":3423,"å·´ä¸įå¾Ĺ":3424,"æ·ĺæ°Ķ":3425,"æ¿Ģ":3426,"åı¨":3427,"çļĦåĳ¢":3428,"çļĦä¸Ģå£°":3429,"ä¸įéĺ²":3430,"ä¹Į":3431,"å®¡":3432,"ä¸Ģå¤´":3433,"ä¸Ģä¼ļ":3434,"ä¸Ģè·¯":3435,"æĿ¥å¾Ģ":3436,"äººå¤ļ":3437,"è¿Ļä¸įæĺ¯":3438,"ä»ĸå®¶":3439,"åİ»åĲİ":3440,"åĦ¿åĳ¢":3441,"ç¬¦":3442,"åıªåľ¨":3443,"åĳľ":3444,"èĢĲ":3445,"æ¯¡":3446,"ç»«":3447,"è®¿":3448,"æ¯įå¥³":3449,"ä¹ĭå¿ĥ":3450,"éĢı":3451,"å¿Ļè¯´":3452,"å¿ĻèĳĹ":3453,"çĽĹ":3454,"æİĢ":3455,"è¾°":3456,"è¾ī":3457,"å±Ģ":3458,"å¤ĸäºº":3459,"ä½ķäºĭ":3460,"äº²å®¶":3461,"æīĭå¸ķ":3462,"è´¾æĶ¿åĲ¬äºĨ":3463,"åħĪåīį":3464,"ä¼ļæĦı":3465,"ä»İæĿ¥":3466,"çĤ¹åŃĲ":3467,"åĲĮèĳĹ":3468,"èĲ¨":3469,"å°¤æ°ıéģĵ":3470,"æĸ°é²ľ":3471,"è®©æĪĳ":3472,"èį£åĽ½åºľ":3473,"çłļ":3474,"è¿ľè¿ľ":3475,"æĢ¨ä¸įå¾Ĺ":3476,"æ¼Ķ":3477,"é¼ł":3478,"å¹¸èĢĮ":3479,"å¹¸äºı":3480,"èķĬ":3481,"æ¢ħèĬ±":3482,"ç»Ĩç»ĨçļĦ":3483,"é¢ľèī²":3484,"åĺ»åĺ»çļĦ":3485,"è¾Ľèĭ¦":3486,"åĢªäºĮ":3487,"èĺħèĬľ":3488,"èı©èĲ¨":3489,"ä¸įæĢķ":3490,"ä¸Ģå¹¶":3491,"æĪĳåı¯":3492,"æĪĳå¦Ĥä»Ĭ":3493,"æĪĳèĻ½":3494,"æĪĳç«Ł":3495,"è¿Ļå±ĭéĩĮ":3496,"ä»ĸæ¯įäº²":3497,"ä¹Łä¾¿":3498,"èµ¤":3499,"å¾¡":3500,"ä¾§":3501,"è´¾å¦ĥ":3502,"éĤ£åĴĮå°ļ":3503,"è§ģäºº":3504,"å¤§èĪħ":3505,"å¤§å«ĤåŃĲ":3506,"ç»®":3507,"ç»Ł":3508,"åĩºä¸Ģä¸ª":3509,"æĹ¥åĲİ":3510,"æ²³":3511,"æ²¾":3512,"æĸĭ":3513,"è¿ĺå¾Ĺ":3514,"èĩªä¸º":3515,"æĶĴ":3516,"åĵĢ":3517,"äºĨä¸Ģä¼ļ":3518,"åĢĴå¥½":3519,"åĸĺ":3520,"éĤ£éĩĮæľī":3521,"åįģæĿ¥":3522,"åįģåħŃ":3523,"æĭ¿åĩºæĿ¥":3524,"èĭ¥æľī":3525,"ä½łä»¬çļĦ":3526,"æľªçŁ¥":3527,"åĶ§":3528,"éĩĳéĴıåĦ¿":3529,"æĿİå¬·å¬·":3530,"å¹¶æ²¡":3531,"èĤ¡":3532,"èĤĿ":3533,"åĲįåĶ¤":3534,"åģļäºĨ":3535,"éªĳ":3536,"èĢĮä¸Ķ":3537,"ç¦Ħ":3538,"ç¦ħ":3539,"ç²¥":3540,"ç¥ŀä»Ļ":3541,"ç¿ģ":3542,"èħ¹":3543,"å¾ħè¦ģ":3544,"æ³ķåŃĲ":3545,"éĤ£äºĽäºº":3546,"ä¼¤æĦŁ":3547,"éĻªç¬ĳéģĵ":3548,"åĭ¤":3549,"äº¤ç»Ļ":3550,"ç¨į":3551,"åļ¼":3552,"åįĹè¾¹":3553,"ç²¾ç¥ŀ":3554,"æĿ¿åĦ¿":3555,"æĵįå¿ĥ":3556,"âĢ¦âĢ¦":3557,"å´":3558,"ä¸²":3559,"äºĨå®Ŀçİī":3560,"è¯Ĭ":3561,"è¯¯äºĨ":3562,"ä¹ı":3563,"ä¹ĸ":3564,"ä¸Ģè¯´":3565,"ä¸Ģä¸¤":3566,"ä¸Ģé¦ĸ":3567,"æĪĳåľ¨":3568,"æĪĳåĲ¬è§ģ":3569,"è¿Ļä¹Łæĺ¯":3570,"åĩı":3571,"ä½łæĹ¢":3572,"èĳ¬":3573,"åĦ¿äºĨ":3574,"æľīçĲĨ":3575,"å¤§åĵ¥":3576,"å§Ĳå¦¹":3577,"å¤´ä¸Ģ":3578,"ç»ķ":3579,"ç»ľ":3580,"äºĮåĵ¥åĵ¥":3581,"å°ıå¿ĥ":3582,"æłı":3583,"åĬ«":3584,"æĥ³æĺ¯":3585,"äºĨä¸Ģå¤ľ":3586,"çİĭä»ģ":3587,"çĦ¦":3588,"ä¹Łä¸įè¿ĩ":3589,"ä¹Łä¸įçŁ¥éģĵ":3590,"ä¹Łä¸įå¿ħ":3591,"åĲİæĤĶ":3592,"å±ķ":3593,"éĹ¨åŃĲ":3594,"ä¸īåĽĽ":3595,"åįģä¸ª":3596,"æ³¨":3597,"åĳ½ä»ĸ":3598,"æīĢæľīçļĦ":3599,"å¤ĦæĿ¥":3600,"å¥¶å¥¶çļĦ":3601,"èĩ³äºİ":3602,"èĻ½è¯´":3603,"çīĽ":3604,"çľ¼èī²":3605,"éĩĳèį£":3606,"å©Ĩå©Ĩ":3607,"éĵ¶éĴ±":3608,"ä½¿äºº":3609,"å®ļè¦ģ":3610,"å°¤ä¸īå§Ĳ":3611,"ä¸įå¥½æĦıæĢĿ":3612,"ä¾ĿæĪĳè¯´":3613,"æ£Ģ":3614,"è®°æĮĤ":3615,"çİ¯åĦ¿":3616,"æ®¡":3617,"è½¬èº«":3618,"åĶ¬äºĨä¸Ģè·³":3619,"æĥľæĺ¥éģĵ":3620,"è¯¸äºĭ":3621,"ä¸ĢçĤ¹åĦ¿":3622,"æĹıä¸Ń":3623,"Ļåĩ¤":3624,"è¿ŁäºĨ":3625,"ä¸įè§£":3626,"ä¸įéĶĻ":3627,"ä¸įå¦¨":3628,"æĿĥ":3629,"è¿Ļåı¯":3630,"è¿Ļç§į":3631,"ä»ĸåĢĴ":3632,"ä½łçľĭ":3633,"éĩĬ":3634,"è´£":3635,"ä¾¿èµ°":3636,"åľ¨æŃ¤":3637,"å®Ŀçİīä¹Ł":3638,"å®ĿçİīåıĪ":3639,"èĢĹ":3640,"åĨĽ":3641,"å¤´çļĦ":3642,"åĩºä¸Ģ":3643,"è¦ģåİ»":3644,"è¦ģçŁ¥":3645,"æĭĨ":3646,"åĴ§":3647,"éĥ½ç¬ĳéģĵ":3648,"è¿ĩæĿ¥äºĨ":3649,"èĩªä»İ":3650,"éĢĥ":3651,"çŃīäºº":3652,"åĬ©":3653,"è°ĵ":3654,"åĩłæĹ¥":3655,"åĲİå¤´":3656,"ä¸ºçļĦæĺ¯":3657,"ä½ľä¸»":3658,"æĺİå¹´":3659,"é¢ł":3660,"æĹ©äºĽ":3661,"æ´ŀ":3662,"å¾ĢæĹ¥":3663,"æľĪéĴ±":3664,"åıªè§ģä¸Ģä¸ª":3665,"çģĮ":3666,"æµ®":3667,"å¼ĢéĹ¨":3668,"å¹¶æ²¡æľī":3669,"æį¶":3670,"å±ĭåĨħ":3671,"æĳĶ":3672,"æĪĳçļĦå¿ĥ":3673,"èµ¶æĿ¥":3674,"åķĬ":3675,"èĥ½å¤Ł":3676,"éĻ¢åĨħ":3677,"è¶ĬæĢ§":3678,"é¡½ç¬ĳ":3679,"åĸĿéħĴ":3680,"ç«Ļä½ı":3681,"æĺ¨å¤ľ":3682,"ç§ĭæ¡Ĳ":3683,"è¿Ļä¼ļåŃĲåıĪ":3684,"æ®¿":3685,"éŃĶ":3686,"çĭ¬æľī":3687,"çĨĻåĩ¤":3688,"çĤ¹å¤´åĦ¿":3689,"å®ĪèĳĹ":3690,"åĥı":3691,"ç³Ĭæ¶ĤäºĨ":3692,"éĢĢåĩº":3693,"èĴĭ":3694,"èģĶéģĵ":3695,"åİħä¸Ĭ":3696,"è½»è½»çļĦ":3697,"èģªæĺİ":3698,"åĴ³åĹ½":3699,"12":3700,"è¯ļ":3701,"çļĦä¸į":3702,"çļĦæĿ¥":3703,"ä¸ĢåĲĮ":3704,"è¯´æĺİ":3705,"è¯´åĪ°è¿ĻéĩĮ":3706,"æĪĳå¿ĥéĩĮ":3707,"å°Ħ":3708,"è¿Ļä¸¤ä¸ª":3709,"èĳĹå®ŀ":3710,"ä¹Łè¯´":3711,"ä¹Łå¾Ĺ":3712,"æľīè¯Ŀ":3713,"éĤ£å¹´":3714,"ä¾¿åıĪ":3715,"ä¸ĬåŃ¦":3716,"åĨ¬":3717,"å¾Ĺä½ı":3718,"å¤§å°ı":3719,"çŁ¥ä»ĸ":3720,"æĭĮ":3721,"éĥ½è¦ģ":3722,"äºĮåıĶ":3723,"çľĭæĿ¥":3724,"è®Ń":3725,"å¸Į":3726,"éĴĵ":3727,"åĽłä»ĸ":3728,"å¤ªå¤ªçļĦ":3729,"å¿Ļåĳ½":3730,"å¿Ļå¿ĻçļĦ":3731,"çĪ·çĪ·":3732,"ç«¥":3733,"åīĳ":3734,"è¾ĥ":3735,"èĭı":3736,"åĢĴè¦ģ":3737,"åĲĥè¿ĩ":3738,"åīįæĿ¥":3739,"å¤ļå¿ĥ":3740,"æĬĬä»ĸ":3741,"ä¿Ĳ":3742,"æĢİä¹Īå°±":3743,"çĲıäºĮçĪ·":3744,"å½ĵèĳĹ":3745,"åĶĨ":3746,"åĵŃäºĨ":3747,"åĽŃåŃĲéĩĮ":3748,"è¡Įç¤¼":3749,"èĢĮæĿ¥":3750,"è¿ĻäºĽä¸ľè¥¿":3751,"å¤ľéĩĮ":3752,"çĭĤ":3753,"ç³Ł":3754,"è¯´çļĦæĺ¯":3755,"åıĸäºĨ":3756,"å¿µéģĵ":3757,"çħ§çľĭ":3758,"çħ§ç®¡":3759,"è¿Ļæĺ¯ä»Ģä¹Ī":3760,"çĬ¶":3761,"éĻªç¬ĳ":3762,"å¾Īæĺ¯":3763,"ç¨³":3764,"ä¹ĥæĺ¯":3765,"å©¶å¨ĺ":3766,"éĻ¤äºĨ":3767,"èĹķå®ĺ":3768,"èł¢":3769,"åĿłåĦ¿":3770,"æľĭåıĭ":3771,"äºĨä¹Ī":3772,"è¿Ŀ":3773,"ä¸įä¼ļ":3774,"ä½©":3775,"ä¸Ģå¤§":3776,"ä¸Ģè¾¹":3777,"äººè¯´":3778,"æĪĳä¾¿":3779,"æĪĳæ²¡":3780,"æĪĳåħĪ":3781,"å°¾":3782,"è¿Ļä½į":3783,"ä»ĸè¿Ļ":3784,"åĩ¶":3785,"ä½łäºĨ":3786,"è´ª":3787,"åİ»æī¾":3788,"å¾ĭ":3789,"åıĪä¸įæĺ¯":3790,"è´¾èĬ¹":3791,"æĢ¯":3792,"èĢĥ":3793,"åĨł":3794,"å°±åıª":3795,"ï¼ŁâĢĻ":3796,"è¦ģèµ°":3797,"åĴı":3798,"è¯ĿåĦ¿":3799,"æĬļ":3800,"ä¸¤åı£":3801,"æ²¡ä¸ª":3802,"æ²¡æ³ķ":3803,"æ²¡è¶£":3804,"æ°ĳ":3805,"éĢī":3806,"éĹ®éĹ®":3807,"åĽłèĢĮ":3808,"çŃīè¯Ń":3809,"è¾ľ":3810,"æīĵç®Ĺ":3811,"åĿĽ":3812,"ä¹Łä¸įæĺ¯":3813,"æĹłæ³ķ":3814,"ä½ľçļĦ":3815,"æĪĳä»¬å®¶":3816,"çĶŁäºĭ":3817,"æĬĬä½ł":3818,"ä¿Ĭ":3819,"çŀª":3820,"éĻį":3821,"æĢİä¹ĪäºĨ":3822,"æĺ¥çĩķ":3823,"é¢¦":3824,"èĻ½æľī":3825,"çĹħèĳĹ":3826,"æıĸ":3827,"æŁĵ":3828,"çĿ¡ä¸ĭ":3829,"éĻ¢ä¸Ń":3830,"çķĻèĳĹ":3831,"çķĻå¿ĥ":3832,"æ»¡éĿ¢":3833,"èĸĽèŁłéģĵ":3834,"çľģå¾Ĺ":3835,"åĳĨçļĦ":3836,"å¤įåıĪ":3837,"å¥ĩæĢª":3838,"å®ģåĽ½åºľ":3839,"é¢ĺçĽ®":3840,"åħŃåįģ":3841,"æī¶èĳĹ":3842,"èķī":3843,"çĻ»æĹ¶":3844,"æī§äºĭ":3845,"ä½ķèĭ¦æĿ¥":3846,"èŃ¦å¹»":3847,"æĨ":3848,"äº§":3849,"äºķ":3850,"çļĦçĹħ":3851,"çļĦæ¯įäº²":3852,"ä¸įä¸ŃçĶ¨":3853,"ä¸Ģäºĭ":3854,"æĺ¯è¦ģ":3855,"æľ±":3856,"ä½łéĤ£":3857,"ä½łçŀ§çŀ§":3858,"è´±":3859,"è§ģæĪĳ":3860,"æĢĦ":3861,"åľ¨èĢģå¤ªå¤ª":3862,"å¾ĹçļĦ":3863,"å°±è¯´":3864,"åĽŀè¿ĩ":3865,"åĽŀåİ»äºĨ":3866,"çľĭè§ģäºĨ":3867,"æ²¡æĦıæĢĿ":3868,"éĴ»":3869,"ä¹ĭå£°":3870,"éĹ®å¥½":3871,"çº·":3872,"åĽłåĲĳ":3873,"çŃīçī©":3874,"è°ķ":3875,"äºĨä¸Ģä¼ļåŃĲ":3876,"å½ķ":3877,"åĩłæ¬¡":3878,"é»ĽçİīåĲ¬äºĨ":3879,"é¸Ł":3880,"ç»ĻäºĨ":3881,"è½©":3882,"è½®":3883,"è½½":3884,"æ´Ĵ":3885,"å¾Ģå¤ĸ":3886,"åı£æ°Ķ":3887,"æĢķä»Ģä¹Ī":3888,"å®īæŃĩ":3889,"åį´ä¹Ł":3890,"å¥³å©¿":3891,"è¿Ļæł·çļĦ":3892,"è¿ĽæĿ¥è¯´":3893,"åĵŃçļĦ":3894,"äºĶæĽ´":3895,"å¤§å®¶éĥ½":3896,"çŃĶéģĵ":3897,"çĿ¡åİ»":3898,"èŁ¹":3899,"é¥ŃåĲİ":3900,"æĴĳ":3901,"å©ĨåŃĲä»¬":3902,"åĩłä¸ªäºº":3903,"æ¸ħæ¥ļ":3904,"çĬ¯äºĨ":3905,"å±±çŁ³":3906,"å¾Īå¥½":3907,"åĳĨåĳĨçļĦ":3908,"æ¼Ĩ":3909,"çĥ¦æģ¼":3910,"èĥĮåĲİ":3911,"é¥®é£Ł":3912,"è§ĴéĹ¨":3913,"å½¼æĹ¶":3914,"ä¸Ģä¸ĢçļĦ":3915,"æ¨¡æł·åĦ¿":3916,"ä¹Łæľªåı¯çŁ¥":3917,"çĴĥ":3918,"çº³éĹ·":3919,"è¿ĺäºĨå¾Ĺ":3920,"ä¸Ī":3921,"å¤ķ":3922,"è¯¾":3923,"ä¸įä¼¼":3924,"ä¸Ģæīĭ":3925,"ä¸Ģåĳ³":3926,"è¿ĻçŃī":3927,"ä½łæĺ¯ä¸ª":3928,"è§ħ":3929,"ä¹Łç¬ĳéģĵ":3930,"ä¹ŁæĽ¾":3931,"åĪĴ":3932,"åĪĹ":3933,"åıªåī©":3934,"ä¾¿åľ¨":3935,"ä¾¿å®ľ":3936,"å¥½äºĭ":3937,"å¥½ä¸įå¥½":3938,"å¤§å¨ĺ":3939,"å¤§åĵŃèµ·æĿ¥":3940,"å¤´æĿ¥":3941,"ç»Ń":3942,"å°±æĿ¥":3943,"æĹ¥å¤ľ":3944,"æ²ģ":3945,"äºĮå¹´":3946,"äºĮä½į":3947,"åºŃ":3948,"ä¹ĭå®¶":3949,"ä¹ĭä¸Ń":3950,"éĢŁ":3951,"çĽ¼":3952,"æīįåĪļ":3953,"åīĤ":3954,"è¾Ĩ":3955,"è¿ĽåĽŃ":3956,"è¿ĽåŁİ":3957,"åĿı":3958,"éĽ·":3959,"æŃ£åĢ¼":3960,"åĩłæĹ¶":3961,"åĲİéĹ¨":3962,"çĶŁå¾Ĺ":3963,"éĤ£éĩĮè¿ĺ":3964,"å¤ļæĹ©æĻļ":3965,"ä½ķçŃī":3966,"ä½ķåĨµ":3967,"çİĭå¤«äººåĲ¬äºĨ":3968,"çĶ¨æīĭ":3969,"æĪ¿éĹ¨":3970,"çĥ«":3971,"æĤ¦":3972,"çĲıäºĮå¥¶å¥¶":3973,"èĩ³æ¬¡æĹ¥":3974,"æĹ©æľī":3975,"çķĮ":3976,"åıªè§ģå®Ŀçİī":3977,"çľ¼éĩĮ":3978,"è¿Ļæł·è¯´":3979,"æŁĲ":3980,"éĹ¹åĩº":3981,"çĿ¡èĳĹäºĨ":3982,"èĦ¸éĿ¢":3983,"çļĦäºĭæĥħ":3984,"æľ¬æĺ¯":3985,"è¿Ļä¹Īä¸ª":3986,"çħİ":3987,"åĬĿä»ĸ":3988,"èµ¶å¿Ļ":3989,"æĿİçº¨ç¬ĳéģĵ":3990,"è¿ĺæľīä»Ģä¹Ī":3991,"çĻ¾èĪ¬":3992,"çİ°æĪĲ":3993,"çł¸":3994,"åĬŀäºĭ":3995,"éĿŀå¸¸":3996,"æ¡ĤèĬ±":3997,"ç¨»":3998,"ä¸Ģæł·çļĦ":3999,"åĿĹçİī":4000,"è¾ŀäºĨ":4001,"æļĹæļĹ":4002,"ç±į":4003,"å¡«":4004,"è¿ĻåĩłæĹ¥":4005,"è¿Ļä¸¤æĹ¥":4006,"åºĻéĩĮ":4007,"ç¾İäºº":4008,"çĺ":4009,"ä¸ģ":4010,"ä¸įå®ī":4011,"ä¸įè¯Ń":4012,"ä¸įæĦ¿æĦı":4013,"ä¸ĢçĽ´":4014,"ä¸ĢæŃ¥":4015,"åĲ¾":4016,"åĲģ":4017,"æľ«":4018,"æĪĳåĪ°":4019,"æĪĳéĤ£éĩĮ":4020,"å¿Ĵ":4021,"ä½łæĪĳ":4022,"ä½łåĳ¢":4023,"ä½łèĭ¥":4024,"ä½łçŀ§":4025,"åĪº":4026,"åĦ¿ç½¢":4027,"çİīèı":4028,"å®Ŀä¸«å¤´":4029,"åıĪçľĭ":4030,"è´¾å®¶":4031,"éĤ£æĺ¯":4032,"è§ģéĹ®":4033,"åıªåĲ¬è§ģ":4034,"æĢģ":4035,"ä¾¿èµ·èº«":4036,"åį¿":4037,"å¥½å¦¹å¦¹":4038,"åľ¨å±ĭéĩĮ":4039,"ç¬ĳçļĦ":4040,"æĥ§":4041,"å°±å¥½":4042,"çŁ¥åİ¿":4043,"è¦ģæīĵ":4044,"æĭ³":4045,"å¼¯":4046,"è¿ĺæ²¡æľī":4047,"åĢ¦":4048,"åı«ä½ľ":4049,"çŃīä»ĸ":4050,"è°¨":4051,"äºĨä¸Ģåľº":4052,"åĿ¡":4053,"åĴĮå®Ŀçİī":4054,"åĲĥäºĨä¸Ģ":4055,"æĹłæīĢ":4056,"åĨįä¸į":4057,"ä¸īæĽ´":4058,"çŀİ":4059,"ä¸İè´¾æ¯į":4060,"æīĭåĨħ":4061,"èĪŀ":4062,"æĮº":4063,"èĸĽå®ĿéĴĹ":4064,"çŀ§äºĨ":4065,"éĢģèĩ³":4066,"æ´ģ":4067,"åĽĽå§ĳå¨ĺ":4068,"ä¸įçŁ¥ä½ķ":4069,"åĶĩ":4070,"éĩĳéĵ¶":4071,"äºĶçĻ¾":4072,"å¿«å¿«":4073,"çıįå¤§çĪ·":4074,"å¼łç½Ĺ":4075,"åħ¶ä¸Ń":4076,"åªĴ":4077,"åªļ":4078,"çķĻç¥ŀ":4079,"éĨĭ":4080,"åģıåıĪ":4081,"éļıä¾¿":4082,"çĮ©":4083,"çĮĽ":4084,"åİŁæĿ¥è¿Ļ":4085,"èĻĳ":4086,"åĹĶ":4087,"éĹ·çļĦ":4088,"åĶ¬å¾Ĺ":4089,"ç£¨":4090,"è®²ç©¶":4091,"å¿½çĦ¶æĥ³èµ·":4092,"äºĨåįĬå¤©":4093,"æ¡ĥèĬ±":4094,"çŀħèĳĹ":4095,"èį·åĮħ":4096,"å¯Ĥå¯":4097,"ä¼¶ä¿Ĳ":4098,"èĴĭçİīèı":4099,"èĴĭçİīèı¡":4100,"äºĨå¥½":4101,"è¯¦":4102,"çļĦä¸Ģä¸ª":4103,"çļĦåħīæĻ¯":4104,"ä¸įæĶ¾å¿ĥ":4105,"æĿŁ":4106,"ä¸Ģå¸¦":4107,"ä¸ĢåįĬ":4108,"ä¸ĢæĿ¡":4109,"æĿ¥éĹ®":4110,"æĿ¥æī¾":4111,"è¯´åĩºæĿ¥":4112,"æĪĳä¸Ķ":4113,"æĹ¦":4114,"ä½łåĨį":4115,"æīĳ":4116,"èĳĹçľ¼":4117,"å¦Ħ":4118,"éĤĢ":4119,"åıĪä¸įçŁ¥":4120,"è§ģä½ł":4121,"è§ģåĩ¤å§Ĳ":4122,"åıªæ±Ĥ":4123,"ä¾¿å¿Ļ":4124,"ç»¸":4125,"ç»Ľ":4126,"å°±è¯¥":4127,"éĥ½æľī":4128,"ä¹ĭå¤ĸ":4129,"çŃīéĥ½":4130,"èĬĻ":4131,"æĥ³çļĦ":4132,"æĥ³ä¸įåĪ°":4133,"è¡¾":4134,"å¤©åľ°":4135,"å¯¡":4136,"æĦıæ¬²":4137,"é¸¾":4138,"å¥¶å¥¶ä»¬":4139,"è´¾çĲıç¬ĳéģĵ":4140,"çīµ":4141,"æħķ":4142,"æķħäºĭ":4143,"æĲĤ":4144,"æ£º":4145,"åª³å¦ĩä»¬":4146,"é¡½è¯Ŀ":4147,"å¤ĸå¤´çļĦ":4148,"åħ«ä¹Ŀ":4149,"åŃĻå¥³åĦ¿":4150,"ãĢĤâĢĻâĢĿ":4151,"å»¶":4152,"çĶĦå®Ŀçİī":4153,"çĶĦå®¶":4154,"è¿Ļè¾¹æĿ¥":4155,"å·¦åı³":4156,"æģ°å¥½":4157,"å¨ĺåĦ¿ä»¬":4158,"»çĴĥ":4159,"äº«":4160,"äºĨç½¢":4161,"ä¸įä¸ĭ":4162,"ä¸įæ¯Ķ":4163,"ä¸įè¶³":4164,"ä¸įç»Ŀ":4165,"å®¾":4166,"å®ĭ":4167,"è¯´åĩº":4168,"æĪĳèĩªå·±":4169,"çİ»çĴĥ":4170,"ä»ĸäºĨ":4171,"åĩĦ":4172,"åŃĶ":4173,"å§»":4174,"èĳĹä¸Ģä¸ª":4175,"èĳĹæīĭ":4176,"èµĭ":4177,"åıĪæ°Ķ":4178,"åľ¨ä»ĸ":4179,"èĢ¶":4180,"å¤§éĹ¨":4181,"å¤§åĸľ":4182,"å¤§åĵŃ":4183,"çĶľ":4184,"åĲ¬å¦ĤæŃ¤è¯´":4185,"ä¸ĭéĿ¢":4186,"åĴĴ":4187,"åºĨ":4188,"çľĭåİ»":4189,"ä¸¤ä¸īä¸ª":4190,"æ²¡èĦ¸":4191,"æ°¸":4192,"æłĩ":4193,"æłĬ":4194,"åĵĪ":4195,"çİĭåĸĦ":4196,"è¾±":4197,"æīĵæī®":4198,"è¿ĽåĨħ":4199,"åĢĴä¸į":4200,"è·Į":4201,"ç®¸":4202,"ä¹Łä¸įçĲĨ":4203,"æŃ£èĩª":4204,"å§ĳçĪ·":4205,"åĨįåİ»":4206,"æĪĳä»¬å¥¶å¥¶":4207,"éĤ£éĩĮæĿ¥çļĦ":4208,"æĸ¹æ¬²":4209,"ç§¯":4210,"ä¿ı":4211,"ä½ķå°Ŀ":4212,"æĭ¿æĪĳ":4213,"æĭ¿èµ·":4214,"ä¸İä½ł":4215,"åĿĲåĿĲ":4216,"æĮ¤":4217,"èĸĽå®¶":4218,"ç¥ł":4219,"ç®¡å®¶":4220,"å©ļ":4221,"çķı":4222,"æĿİåįģ":4223,"èĥŃ":4224,"èĢģçĪ·çļĦ":4225,"æĽ´è§ī":4226,"æıī":4227,"é¹¤":4228,"ç¼ĵ":4229,"çĿ¡èĳĹ":4230,"çĽ¸è§ģ":4231,"ä¹Łæĺ¯ä¸ª":4232,"æĳĺ":4233,"æĢ¥å¾Ĺ":4234,"åĬĿè§£":4235,"å°¤æ°ıç¬ĳéģĵ":4236,"åħ´å¤´":4237,"ä¹±åļ·":4238,"çĮ´":4239,"åĭĴ":4240,"åįĥä¸ĩ":4241,"è½¬è¿ĩ":4242,"è®®è®º":4243,"æĥĬåĬ¨":4244,"ç»Īä¹ħ":4245,"çĶ·å¥³":4246,"åĽ½åħ¬":4247,"çĤ¹å¤´éģĵ":4248,"çĶ±ä¸įå¾Ĺ":4249,"è¸ª":4250,"å½¢å®¹":4251,"èĨı":4252,"èĨĿ":4253,"æĹ¨æĦı":4254,"çĽĬåıĳ":4255,"æĭ¦ä½ı":4256,"å¤®åĳĬ":4257,"æ¦»ä¸Ĭ":4258,"èĦ¾æ°Ķ":4259,"èªĵ":4260,"èĬĻèĵī":4261,"çİĭåĸĦä¿Ŀ":4262,"å³":4263,"äºĨå¤ļå°ĳ":4264,"å¤¸":4265,"çļĦéĴ±":4266,"çļĦå·¥å¤«":4267,"ä¸įæĸĻ":4268,"ä¸įé¢ĺ":4269,"ä¸ĢæľĪ":4270,"ä¸Ģå¹²":4271,"éģ®":4272,"æĿ¥åĪ°":4273,"äººä¹ĭ":4274,"è¯´æĿ¥":4275,"è¯´äºĽ":4276,"æĹº":4277,"åİ¢":4278,"è¿Ļå°±æĺ¯":4279,"ä»ĸä¸į":4280,"ä»ĸåľ¨":4281,"ä¹ŁæĿ¥":4282,"ä¹Łè¿ĺ":4283,"åĦ¿å¥³":4284,"å¦Ĵ":4285,"åŃĲåħ´":4286,"åıĪåĲ¬":4287,"éĹŃ":4288,"åħ·":4289,"åħģ":4290,"éĤ£åŃ©åŃĲ":4291,"éĤ£åĥ§":4292,"ä¾¿æľī":4293,"å®Ŀçİīåıªå¾Ĺ":4294,"ç¬ĳåĲĳ":4295,"ä¸Ĭåīį":4296,"å¾ĹæĦı":4297,"æĸ¯":4298,"çľĭæĪı":4299,"åĵ¼":4300,"ä»Ģä¹Īä¸ľè¥¿":4301,"å¿Ļä¸ĬæĿ¥":4302,"å¿Ļèµ·èº«":4303,"çİĭåŃĲ":4304,"è¾¾":4305,"æīĵèĳĹ":4306,"åĿŁ":4307,"æŃ¤åĪ»":4308,"åĢĴèĮ¶":4309,"éĽĩ":4310,"åĲİæĹ¥":4311,"åīįå¤´":4312,"æĻķ":4313,"ä¸īäºĶ":4314,"éĤ£éĩĮå°±":4315,"æīĭä¸Ń":4316,"èĭ¥è®º":4317,"æĤł":4318,"èĩªå·±æĪ¿ä¸Ń":4319,"è¿ŀæĹ¥":4320,"ä¸ľè¾¹":4321,"ä¸įå¾ĹäºĨ":4322,"ä¸¤ä¸ªåŃĹ":4323,"å½ĵèĪĸ":4324,"å®īéĿĻ":4325,"æµĬ":4326,"çĤ¹çĤ¹å¤´åĦ¿":4327,"å¼Ģçľ¼":4328,"å¥³å°¼":4329,"çĹħæĿ¥":4330,"åĽŃéĹ¨":4331,"éª°":4332,"éĹ¹äºĨ":4333,"ç¢Į":4334,"å¿½åıĪ":4335,"æ°´æľĪ":4336,"å©ĨåŃĲéģĵ":4337,"ä¿¡åĦ¿":4338,"åĩłä¸ªéĴ±":4339,"åıĸä¹Ĳ":4340,"èģĺ":4341,"éĤ£è¾¹åİ»":4342,"ç¾Ĭ":4343,"é©³":4344,"é©¾":4345,"åĸĿäºĨ":4346,"å°½äºĨ":4347,"å°ıä¸«å¤´ä»¬":4348,"æŀĹé»Ľçİīéģĵ":4349,"ä¾įä¹¦":4350,"åı¤æĢª":4351,"æ··è¯´":4352,"å½©å±ı":4353,"è´µå¦ĥ":4354,"å¹³å®ī":4355,"ä½ĵç»Ł":4356,"èĿ¶":4357,"éĢļçģµ":4358,"çĨı":4359,"ç»Īèº«":4360,"ä¸ºä»Ģä¹Īä¸į":4361,"è¯¸äºº":4362,"è°ĥåĶĨ":4363,"è¹²":4364,"åľ¨å¤ĸéĹ´":4365,"æ±Ĺå·¾":4366,"éĵģæ§Ľ":4367,"æªĲ":4368,"è¦ģçŁ¥ç«¯çļĦ":4369,"æ²ģèĬ³":4370,"å¯Ĥå¯ŀ":4371,"æĿİåįģåĦ¿":4372,"Ġ1":4373,"ĥèŁ¹":4374,"çļĦæĹ¥åŃĲ":4375,"ä¸įåĬ¨":4376,"æĺ¼":4377,"ä¸Ģçīĩ":4378,"ä¸Ģå±Ĥ":4379,"æĿ¥çľĭ":4380,"æľµ":4381,"æĪĳæŃ£":4382,"å°º":4383,"è¿Ļä»¶":4384,"è¿Ļæľīä»Ģä¹Ī":4385,"ä»ĸçĪ¶äº²":4386,"å¿Į":4387,"ä½łä¸¤ä¸ª":4388,"èĳĹæĪĳ":4389,"èĳĹå®Ŀçİī":4390,"èĳĹå¤´":4391,"åĦ¿æĿ¥":4392,"æľīæĹ¶":4393,"æľīæīĢ":4394,"æľīè¿Ļä¸ª":4395,"åį¯":4396,"åľ¨éĩĮå¤´":4397,"å®¶ä¸ĭ":4398,"äºĮèĢģçĪ·":4399,"æĬ¿":4400,"åı«éģĵ":4401,"åı«æĪĳä»¬":4402,"ä»Ĭè§ģ":4403,"å°ıè¹ĦåŃĲ":4404,"éĹ®èµ·":4405,"åĵī":4406,"è°ĭ":4407,"æīįæĿ¥":4408,"æīĵæŃ»":4409,"æīĵæī«":4410,"èĭĳ":4411,"è·µ":4412,"çĦī":4413,"æģķ":4414,"å¤ĸéĹ´":4415,"ä¼Ĺå§Ĭå¦¹":4416,"æĬĬä¸ª":4417,"èĦĸ":4418,"æ³ī":4419,"åİŁè¯¥":4420,"è´¾æĶ¿çŃī":4421,"è¶Ł":4422,"ä¼Ĺäººç¬ĳéģĵ":4423,"èĩ³æŃ¤":4424,"å¾ĢåĲİ":4425,"æµħ":4426,"çľ¼åīį":4427,"æĿİæ°ı":4428,"æĽ´å¥½":4429,"åĳĬè¯īäºĨä»ĸ":4430,"æŁ©":4431,"æŁľ":4432,"éĴ±çļĦ":4433,"èĤ©":4434,"ä¸»äºº":4435,"åģļçļĦ":4436,"ç¼Ŀ":4437,"æŀľçľŁ":4438,"è§ģäºĨå®Ŀçİī":4439,"çĽ¸åħ¬":4440,"ç¬¬ä¸ĥ":4441,"è£¤":4442,"æĿİçº¹":4443,"èħ®":4444,"èħ»":4445,"æ£ļ":4446,"æĢ§æĥħ":4447,"éľ¸":4448,"æ¯ıæ¯ı":4449,"åħ«åįģ":4450,"é½¿":4451,"èĻ«":4452,"âĢĻï¼ĮâĢĺ":4453,"ä¸Ģå£°åĦ¿":4454,"æģ¼äºĨ":4455,"å¨¶äºĨ":4456,"å¨¶äº²":4457,"éĢłæ¬¡":4458,"ä¸īä¸ªäºº":4459,"åĩŃä»ĸ":4460,"æĴĴè°İ":4461,"é¾Ħ":4462,"æĲģåľ¨":4463,"å¸ĸåĦ¿":4464,"éĤ£äººéģĵ":4465,"æĳ¸ä¸įèĳĹ":4466,"åĲµåļ·":4467,"èŀĥèŁ¹":4468,"çĶ°åľ°":4469,"è¾ĵäºĨ":4470,"æĻºèĥ½":4471,"éĵģæ§Ľå¯º":4472,"ä»ĩ":4473,"ä»ĺ":4474,"è¯°":4475,"çļĦåľ°æĸ¹":4476,"ä¹ıäºĨ":4477,"è¯´ä½ł":4478,"æĪĳéĥ½":4479,"æĪĳåĳĬè¯īä½ł":4480,"è¿ĻçĹħ":4481,"ä½łåĪ°åºķ":4482,"åĽ°":4483,"æī£":4484,"èĳĹäºĽ":4485,"ä¸ªä»Ģä¹Ī":4486,"èµ¢":4487,"åıĪæ²¡":4488,"åıĪè¯´éģĵ":4489,"éĤ£èµ·":4490,"éĤ£åºľéĩĮ":4491,"è§ģå¾Ĺ":4492,"åĳµ":4493,"ç¬ĳåĺ»åĺ»çļĦ":4494,"å®¶åĬ¡":4495,"æĥ¯äºĨ":4496,"çĶ²":4497,"åĩºæ°Ķ":4498,"åĽŀèĢģå¤ªå¤ª":4499,"å·¡":4500,"æĭ¨":4501,"æĭĶ":4502,"éĥ½æ²¡æľī":4503,"äºĮå§Ĳå§Ĳ":4504,"çŃµ":4505,"çŃĭ":4506,"èĢģäººå®¶":4507,"è¿ĩäºİ":4508,"èĩªå¹¼":4509,"æĬ¼":4510,"ä¸¤åıª":4511,"ä¸¤å¤Ħ":4512,"ä¸¤ä»¶":4513,"ä¹ĭæĥħ":4514,"å°ıäºº":4515,"å°ıçĩķ":4516,"æĥ³èµ·æĿ¥":4517,"åĩ¤å§Ĳå§Ĳ":4518,"è¢±":4519,"æīĵéĩı":4520,"è¡Ķ":4521,"åĲĥèį¯":4522,"éĽĨ":4523,"éĽķ":4524,"å¤©çļĦ":4525,"å¤©ä¸Ĭ":4526,"éļĨ":4527,"æĦıåĦ¿":4528,"æĻ¨":4529,"ä¸īåĽŀ":4530,"æĪĳä»¬å§ĳå¨ĺ":4531,"æĪĳä»¬è¿ĻéĩĮ":4532,"éĤ£éĩĮèĤ¯":4533,"å°ĨéĤ£":4534,"å£®":4535,"æĭ¿äºĨä¸Ģ":4536,"æīĭåĦ¿":4537,"èĦı":4538,"æĪ¿å±ĭ":4539,"æĢİä¹ĪåıĪ":4540,"æŃ»åİ»":4541,"å¾ĢéĩĮ":4542,"ä¸¤ä¸ªå©ĨåŃĲ":4543,"åĽĽåĽŀ":4544,"æ²¡æľīä»Ģä¹Ī":4545,"çģŃ":4546,"çĹħçļĦ":4547,"åĴ±ä»¬çļĦ":4548,"è¿ĻäºĽäºĭ":4549,"æ¢¯":4550,"é£İå£°":4551,"ç»Ĩè¯´":4552,"è£¹":4553,"è´¾çıįçŃī":4554,"æĭīä»ĸ":4555,"éĻ¢éĹ¨":4556,"é¡½çļĦ":4557,"è¢«äºº":4558,"åį³å¿Ļ":4559,"è·ĳåĪ°":4560,"äº¤ä¸İ":4561,"çŁ³å¤´":4562,"åŁº":4563,"æ¦Ń":4564,"æģ©åħ¸":4565,"å®ģèį£":4566,"è´¾èĬ¸éģĵ":4567,"æ´¾äºĨ":4568,"æ¢¦ä¸Ń":4569,"éĥ¡":4570,"é¼İ":4571,"ä¹ĿåĽŀ":4572,"ç¦»äºĨ":4573,"çĤķæ²¿":4574,"æ·±çŁ¥":4575,"æİ¨ä»ĸ":4576,"å§ĶæĽ²":4577,"æį§èĳĹ":4578,"ç°ĩ":4579,"ä¼Ļè®¡":4580,"åķĲéģĵ":4581,"æ¢¨é¦Ļ":4582,"èĥŃèĦĤ":4583,"çİĭåĸĦä¿Ŀå®¶çļĦ":4584,"çİĭåŃĲèħ¾":4585,"is":4586,"æ©":4587,"äºĨèµ·æĿ¥":4588,"äºĨä¸¤ä¸ª":4589,"çļĦå®ī":4590,"ä¸įåĲ¬":4591,"ä¸įæŃ¢":4592,"ä¸įå¿į":4593,"å®µ":4594,"æĿ¨":4595,"æĪĺ":4596,"éģĵçļĦ":4597,"äººåĽŀ":4598,"æĪĳå·²":4599,"å°Ķ":4600,"å°ĸ":4601,"å¥ģ":4602,"è¿Ļåı¥":4603,"ä»ĸåĳ¢":4604,"å¿ĸ":4605,"ä½łå¦Ĥä»Ĭ":4606,"ä½łåĵ¥åĵ¥":4607,"ä½łæĶ¾å¿ĥ":4608,"è´¨":4609,"æľīè¿Ļæł·":4610,"èµļ":4611,"åŃĲå¼Ł":4612,"åıĪå¥½":4613,"éĩĮåİ»":4614,"éĤ£ä½į":4615,"è§ģè¯Ĩ":4616,"çľł":4617,"ä¾¿åĳ½äºº":4618,"å¥½ä¸ª":4619,"åľ¨åĽŃéĩĮ":4620,"åĨ»":4621,"èĩ£":4622,"èĩŃ":4623,"æĥ¦":4624,"æĥŃ":4625,"ç»§":4626,"å°±ç½¢äºĨ":4627,"è¦ģäºĨ":4628,"åºı":4629,"è¿ĺä¸įçŁ¥éģĵ":4630,"å¦Ĥæµ·":4631,"çľĭéĤ£":4632,"åĪ°ä»ĸ":4633,"åı«å®Ŀçİī":4634,"æ²¡åĲ¬è§ģ":4635,"ä¹ĭç±»":4636,"ç½©":4637,"æİĲ":4638,"äºĨä¸Ģåı¥":4639,"æīĵçļĦ":4640,"æīĵèµ·":4641,"èĭį":4642,"è¿ĽéĹ¨":4643,"æŃ¤å¤Ħ":4644,"åĲĥæ¯ķ":4645,"æŃ£æľĪ":4646,"æĹłä¸į":4647,"åĩłåı¥è¯Ŀ":4648,"åĩłä¹İ":4649,"åĲİäºĭ":4650,"é»ĽçİīçļĦ":4651,"ä¸ºæĪĳ":4652,"åĨįä¸ī":4653,"ä¸īçĻ¾":4654,"èµ°å¼Ģ":4655,"æĪĳä»¬å®¶çļĦ":4656,"è¢Ńäººå¿Ļ":4657,"ä»¥åıĬ":4658,"ä¿ĥ":4659,"éĻħ":4660,"äº²äºĭ":4661,"è¯·èĢģå¤ªå¤ª":4662,"èĬ±äºĨ":4663,"èĬ±çļĦ":4664,"è´¾æĶ¿ç¬ĳéģĵ":4665,"ä»ĸä»¬çļĦ":4666,"æŃ»æ´»":4667,"åĪĨæĺİ":4668,"çĤ¹åĦ¿":4669,"éĺħ":4670,"éļ¾å¾Ĺ":4671,"èĢģçĪ·å¤ªå¤ª":4672,"å®ĺåı¸":4673,"æŁ´":4674,"çıįçıł":4675,"æħİ":4676,"æķħæŃ¤":4677,"æŀľè§ģ":4678,"æīĢä»¥æĪĳ":4679,"å¼łéģĵå£«":4680,"åħ¶å®ŀ":4681,"ãĢĢãĢĢãĢĢãĢĢ":4682,"èħĶ":4683,"å¿µä½Ľ":4684,"å¯¹èģĶ":4685,"ç´łä¹ł":4686,"æĢ§åĦ¿":4687,"åħ«åĽŀ":4688,"åıĬèĩ³":4689,"ç¥ĸæ¯į":4690,"è·¯ä¸Ĭ":4691,"èĪħæ¯į":4692,"çľģäº²":4693,"ç¨¿":4694,"èĥ¡ä¹±":4695,"éģĩè§ģäºĨ":4696,"çĸĳå¿ĥ":4697,"ç¦ģä¸įä½ı":4698,"åĳ¨çĳŀå®¶çļĦéģĵ":4699,"ç¿łå¢¨":4700,"è¸¢":4701,"åĥ»":4702,"è¿Ļåĩłå¤©":4703,"åĲ«æ³ª":4704,"è¤Ĥ":4705,"ç®±åŃĲ":4706,"èľ¡":4707,"èĽĭ":4708,"åĨ¯ç´«èĭ±éģĵ":4709,"æīİæĮ£":4710,"ç¨»é¦Ļ":4711,"æ°´æľĪåºµ":4712,"ãĢĢãĢĢãĢĢãĢĢãĢĢãĢĢãĢĢ":4713,"½åŃĲ":4714,"æ¾":4715,"ç¹":4716,"ç¨Ģ":4717,"ï¼ĮâĢĶâĢĶ":4718,"ä¸½":4719,"ä¸ĳ":4720,"ä»·":4721,"çļĦå¤§":4722,"ä¸įä¸º":4723,"ä¸įå®ļ":4724,"ä¸įæ¸ħ":4725,"ä¸įå¦¥":4726,"æĿľ":4727,"æĺŃ":4728,"ä¸ĢäºĮ":4729,"ä¸Ģä½į":4730,"ä¸Ģå®¿":4731,"ä¸Ģè¾ĪåŃĲ":4732,"éģ¥":4733,"äººåı£":4734,"æĺ¯ä½ķ":4735,"åĲŀ":4736,"æĪĳåĲĥ":4737,"æĪĳæĿ¥äºĨ":4738,"æĪĳä»ĬåĦ¿":4739,"è¿ĻåĢĴ":4740,"è¿Ļéĥ½æĺ¯":4741,"è¿ĻåŃ©åŃĲ":4742,"åĽĬ":4743,"è§¦":4744,"ä¹Łå¤ª":4745,"åıĪæĥ³":4746,"è´¾éĽ¨æĿĳ":4747,"éĤ£çŁ¥":4748,"ä¾¿åĴĮ":4749,"å¥½äºº":4750,"åľ¨è¿Ļ":4751,"åľ¨çĤķä¸Ĭ":4752,"å®Ŀçİīè§ģä»ĸ":4753,"ç¬ĳéĹ®":4754,"å®¶å¸¸":4755,"åĨ³":4756,"å¤§åĵ¥åĵ¥":4757,"åĽŀéģ¿":4758,"æĹ¥éĹ´":4759,"æĭ¥":4760,"èĢģäºĨ":4761,"éĿ©":4762,"èĩªè§ī":4763,"åĪ°å®¶":4764,"æ²¡è§ģ":4765,"æ²¡äºĭ":4766,"ä¹ĭå¦»":4767,"éĢĲ":4768,"éĢĿ":4769,"åı¯è§ģ":4770,"æĥ³æĥ³":4771,"éĿ¢åīį":4772,"çĽ¥":4773,"æİı":4774,"çİĭå¤ªåĮ»":4775,"çİĭçĨĻåĩ¤":4776,"ç½¢åĴ§":4777,"éļľ":4778,"ä¸ºä½ķ":4779,"æĸ¹åŃĲ":4780,"æĺİçŁ¥":4781,"ç§ī":4782,"è¢Ńäººå§Ĳå§Ĳ":4783,"èº«è¾¹":4784,"èº«ä½ĵ":4785,"çĹĴ":4786,"ç»Ļå®Ŀçİī":4787,"èĪĴ":4788,"æĢİä¹ĪèĳĹ":4789,"æĢİä¹Īå¥½":4790,"ä¸ĶåıĪ":4791,"åħĪæĹ¶":4792,"æĤī":4793,"è°ģæķ¢":4794,"åĨħä¸Ń":4795,"é¥¥":4796,"ä¸ĢéĿ¢è¯´èĳĹ":4797,"ä¸ľåºľéĩĮ":4798,"å¾Ģä¸ĭ":4799,"åıªè§ģå®ĿéĴĹ":4800,"åĪĨæ´¾":4801,"èĮ«":4802,"çģ¾":4803,"å®īå¿ĥ":4804,"æĪĲæĹ¥":4805,"èĥ¸":4806,"å¹¶æľª":4807,"é¹¿":4808,"æįī":4809,"éķĩ":4810,"æ¢ģ":4811,"é£İæľĪ":4812,"å¤ľéĹ´":4813,"èĲ¥":4814,"è§£éĹ·":4815,"çļĨæľī":4816,"æĶ¶èĳĹ":4817,"æĭīæī¯":4818,"é¡½èĢį":4819,"æīĵåıĳäºĨ":4820,"åŃĿé¡º":4821,"æŃĩèĳĹ":4822,"çĮ«":4823,"éĤ¢å¤«äººçŃī":4824,"çİ°ä»Ĭ":4825,"é¢ĨäºĨ":4826,"å±±åĿ¡":4827,"çĸ¼ä»ĸ":4828,"çĽ´åĪ°":4829,"å½©éľŀ":4830,"é©¬éģĵå©Ĩ":4831,"éĹ·éĹ·çļĦ":4832,"è®ºçĲĨ":4833,"æķĻè®Ń":4834,"æľīä»Ģä¹Īäºĭ":4835,"æ´¾äºº":4836,"æľĢæĺ¯":4837,"æ¼ı":4838,"ä¸ĥåħ«":4839,"æĦŁæ¿Ģ":4840,"å¦Ļçİīéģĵ":4841,"æŃ¢ä½ı":4842,"ç¯±":4843,"å½¢æĻ¯":4844,"éļĶèĳĹ":4845,"åŀĤæīĭ":4846,"éĨīäºĨ":4847,"é»ĺé»ĺ":4848,"âĢ¦âĢ¦âĢĿ":4849,"æĭĮåĺ´":4850,"æłĩèĩ´":4851,"é¾Ħå®ĺ":4852,"æ¢¨é¦ĻéĻ¢":4853,"10":4854,"¦Ĩ":4855,"©¹":4856,"èļ":4857,"è¦Ĩ":4858,"è©¹":4859,"ä¹³":4860,"å®¦":4861,"æĪ³":4862,"æĿ¥èĳĹ":4863,"ï¼ļâĢľâĢĺ":4864,"äººåĳ½":4865,"åĲ¦":4866,"è¯´äºĨä¸Ģéģį":4867,"æĪĳå·²ç»ı":4868,"è¿Ļåı¥è¯Ŀ":4869,"ä»ĸå¨ĺ":4870,"å¿¿":4871,"ä¹Łåıª":4872,"ä¹Łåıªå¾Ĺ":4873,"åĪĳ":4874,"ä¸ªä¸ª":4875,"åıĪæĬĬ":4876,"åıĪæ·»":4877,"åıĪåĺ±åĴĲ":4878,"åħħ":4879,"éĤ£çİī":4880,"è§ģéĿ¢":4881,"è§ģè´¾æĶ¿":4882,"ç¬¨":4883,"ç¬Ľ":4884,"åıªè§ī":4885,"æĢł":4886,"ä¾¿ä¹Ł":4887,"åį¦":4888,"åį¸":4889,"å¥½ä¸ľè¥¿":4890,"å®Ŀçİīåľ¨":4891,"çĶ¥":4892,"å°±æĬĬ":4893,"æĭ´":4894,"æĭĸ":4895,"å¿ĥæĿ¥":4896,"å¿ĥæĥ³":4897,"åº¶":4898,"åºĵ":4899,"æĸľ":4900,"èĩªæŃ¤":4901,"å¸Ŀ":4902,"åĪ°è´¾æ¯į":4903,"åı«æĿ¥":4904,"æ²¡è¦ģç´§":4905,"æĹ¶ä¾¯":4906,"ä¹ĭçĲĨ":4907,"åı¯ç¬ĳ":4908,"è°¦":4909,"éĽĦ":4910,"ä¹Łä¸įå¤§":4911,"æŃ£åľ¨éĤ£éĩĮ":4912,"æĹłæķħ":4913,"åĨįè¦ģ":4914,"æĻ¶":4915,"ä¸īåĪĨ":4916,"èµ°èĳĹ":4917,"èµ°èµ°":4918,"çĶŁäºĨ":4919,"ç»Ļä½łä»¬":4920,"çİĭå¤«äººç¬ĳéģĵ":4921,"ä½łä»¬å°±":4922,"åıĳäºĨ":4923,"æ³Ħ":4924,"è¿ĻéĩĮæĿ¥":4925,"éħ¬":4926,"çŀ§èĳĹ":4927,"çĲıåĦ¿":4928,"éĢģæĿ¥çļĦ":4929,"ä¸įæĺ¯æĪĳ":4930,"æĹ©é¥Ń":4931,"åĮĻ":4932,"åĽĽæĽ´":4933,"è¿Ļä¸ªè¯Ŀ":4934,"æĥħæĦ¿":4935,"éĩĳçİī":4936,"éĺ»":4937,"åĵŃå¾Ĺ":4938,"çļĦäººäºĨ":4939,"ä½¿çĶ¨":4940,"èĤĥ":4941,"é¬ĵ":4942,"ä¹Łæĺ¯æľīçļĦ":4943,"å¼łä¸ī":4944,"æĹ¢è¿Ļä¹ĪèĳĹ":4945,"éĤ¢å²«çĥŁ":4946,"è§£åĬĿ":4947,"æķ£åİ»":4948,"å²Ĥä¸įå¥½":4949,"çªģ":4950,"å°¤æ°ıçŃī":4951,"æĢ§åĳ½":4952,"ç¾¡":4953,"æīĵåıĳäººåİ»":4954,"å±ĭéĩĮçļĦ":4955,"çĸ¼çļĦ":4956,"æŀģæĺ¯":4957,"å¤±äºĨ":4958,"æŁ³æ¹ĺèİ²":4959,"çĶ·åŃĲ":4960,"ä¸¢ä¸ĭ":4961,"ä¸ĥåĽŀ":4962,"çļĦäºĨä¸įå¾Ĺ":4963,"è¿ĺä¸įå¿«":4964,"ç¿łåºµ":4965,"æ¡ĮåŃĲ":4966,"éĽªéĽģéģĵ":4967,"å½ĴåĿĲ":4968,"æĮīèĳĹ":4969,"å¡¾":4970,"è¶ģèĳĹ":4971,"å¼Ĥå¸¸":4972,"èĪįä¸įå¾Ĺ":4973,"åħĥæĺ¥":4974,"éĺ´éĺ³":4975,"ç§ģèĩª":4976,"æĳĩå¤´":4977,"å°ıä¸«å¤´åŃĲä»¬":4978,"æĢ¡çº¢éĻ¢ä¸Ń":4979,"èĥĨåŃĲ":4980,"æĩĤå¾Ĺ":4981,"èľĤ":4982,"éĽĢåĦ¿":4983,"åķĲäºĨä¸Ģåı£":4984,"ä¿Ĺè¯Ńè¯´çļĦ":4985,"åĳľåĴ½":4986,"æīĭå¸ķåŃĲ":4987,"èķĬå®ĺ":4988,"èĺħèĬľèĭĳ":4989,"ç¹ģ":4990,"«èĬ¦":4991,"çļĦæł·åŃĲ":4992,"ä¸įåıĹçĶ¨":4993,"ä¸įåłª":4994,"å®£":4995,"ä¸Ģèī²":4996,"ä¸Ģå¸Ń":4997,"ä¸Ģå®¶åŃĲ":4998,"æĪª":4999}